#ifndef MODEL.H_H
#define MODEL.H_H


unsigned int model.h_len = 4072;
unsigned char model.h[] = {
 0x20, 0x00, 0x00, 0x00, 0x54, 0x46, 0x4c, 0x33, 0x00, 0x00, 0x00, 0x00,
  0x14, 0x00, 0x20, 0x00, 0x1c, 0x00, 0x18, 0x00, 0x14, 0x00, 0x10, 0x00,
  0x0c, 0x00, 0x00, 0x00, 0x08, 0x00, 0x04, 0x00, 0x14, 0x00, 0x00, 0x00,
  0x1c, 0x00, 0x00, 0x00, 0x88, 0x00, 0x00, 0x00, 0xe0, 0x00, 0x00, 0x00,
  0x80, 0x08, 0x00, 0x00, 0x90, 0x08, 0x00, 0x00, 0x40, 0x0f, 0x00, 0x00,
  0x03, 0x00, 0x00, 0x00, 0x01, 0x00, 0x00, 0x00, 0x04, 0x00, 0x00, 0x00,
  0xb2, 0xf6, 0xff, 0xff, 0x0c, 0x00, 0x00, 0x00, 0x1c, 0x00, 0x00, 0x00,
  0x38, 0x00, 0x00, 0x00, 0x0f, 0x00, 0x00, 0x00, 0x73, 0x65, 0x72, 0x76,
  0x69, 0x6e, 0x67, 0x5f, 0x64, 0x65, 0x66, 0x61, 0x75, 0x6c, 0x74, 0x00,
  0x01, 0x00, 0x00, 0x00, 0x04, 0x00, 0x00, 0x00, 0x94, 0xff, 0xff, 0xff,
  0x0a, 0x00, 0x00, 0x00, 0x04, 0x00, 0x00, 0x00, 0x05, 0x00, 0x00, 0x00,
  0x64, 0x65, 0x6e, 0x73, 0x65, 0x00, 0x00, 0x00, 0x01, 0x00, 0x00, 0x00,
  0x04, 0x00, 0x00, 0x00, 0x62, 0xf7, 0xff, 0xff, 0x04, 0x00, 0x00, 0x00,
  0x0c, 0x00, 0x00, 0x00, 0x63, 0x6f, 0x6e, 0x76, 0x32, 0x64, 0x5f, 0x69,
  0x6e, 0x70, 0x75, 0x74, 0x00, 0x00, 0x00, 0x00, 0x02, 0x00, 0x00, 0x00,
  0x34, 0x00, 0x00, 0x00, 0x04, 0x00, 0x00, 0x00, 0xdc, 0xff, 0xff, 0xff,
  0x0d, 0x00, 0x00, 0x00, 0x04, 0x00, 0x00, 0x00, 0x13, 0x00, 0x00, 0x00,
  0x43, 0x4f, 0x4e, 0x56, 0x45, 0x52, 0x53, 0x49, 0x4f, 0x4e, 0x5f, 0x4d,
  0x45, 0x54, 0x41, 0x44, 0x41, 0x54, 0x41, 0x00, 0x08, 0x00, 0x0c, 0x00,
  0x08, 0x00, 0x04, 0x00, 0x08, 0x00, 0x00, 0x00, 0x0c, 0x00, 0x00, 0x00,
  0x04, 0x00, 0x00, 0x00, 0x13, 0x00, 0x00, 0x00, 0x6d, 0x69, 0x6e, 0x5f,
  0x72, 0x75, 0x6e, 0x74, 0x69, 0x6d, 0x65, 0x5f, 0x76, 0x65, 0x72, 0x73,
  0x69, 0x6f, 0x6e, 0x00, 0x0e, 0x00, 0x00, 0x00, 0x9c, 0x07, 0x00, 0x00,
  0x94, 0x07, 0x00, 0x00, 0x78, 0x07, 0x00, 0x00, 0xfc, 0x06, 0x00, 0x00,
  0xe0, 0x06, 0x00, 0x00, 0xc8, 0x06, 0x00, 0x00, 0xb4, 0x00, 0x00, 0x00,
  0xac, 0x00, 0x00, 0x00, 0xa4, 0x00, 0x00, 0x00, 0x9c, 0x00, 0x00, 0x00,
  0x94, 0x00, 0x00, 0x00, 0x8c, 0x00, 0x00, 0x00, 0x6c, 0x00, 0x00, 0x00,
  0x04, 0x00, 0x00, 0x00, 0x16, 0xf8, 0xff, 0xff, 0x04, 0x00, 0x00, 0x00,
  0x58, 0x00, 0x00, 0x00, 0x0c, 0x00, 0x00, 0x00, 0x08, 0x00, 0x0e, 0x00,
  0x08, 0x00, 0x04, 0x00, 0x08, 0x00, 0x00, 0x00, 0x10, 0x00, 0x00, 0x00,
  0x28, 0x00, 0x00, 0x00, 0x00, 0x00, 0x06, 0x00, 0x08, 0x00, 0x04, 0x00,
  0x06, 0x00, 0x00, 0x00, 0x04, 0x00, 0x00, 0x00, 0x01, 0x00, 0x00, 0x00,
  0xea, 0x03, 0x00, 0x00, 0x00, 0x00, 0x0a, 0x00, 0x10, 0x00, 0x0c, 0x00,
  0x08, 0x00, 0x04, 0x00, 0x0a, 0x00, 0x00, 0x00, 0x02, 0x00, 0x00, 0x00,
  0x02, 0x00, 0x00, 0x00, 0x04, 0x00, 0x00, 0x00, 0x06, 0x00, 0x00, 0x00,
  0x32, 0x2e, 0x31, 0x35, 0x2e, 0x30, 0x00, 0x00, 0x7a, 0xf8, 0xff, 0xff,
  0x04, 0x00, 0x00, 0x00, 0x10, 0x00, 0x00, 0x00, 0x32, 0x2e, 0x33, 0x2e,
  0x30, 0x00, 0x00, 0x00, 0x00, 0x00, 0x00, 0x00, 0x00, 0x00, 0x00, 0x00,
  0x90, 0xf2, 0xff, 0xff, 0x94, 0xf2, 0xff, 0xff, 0x98, 0xf2, 0xff, 0xff,
  0x9c, 0xf2, 0xff, 0xff, 0xa0, 0xf2, 0xff, 0xff, 0xaa, 0xf8, 0xff, 0xff,
  0x04, 0x00, 0x00, 0x00, 0x03, 0x06, 0x00, 0x00, 0xe8, 0xcc, 0xf3, 0xec,
  0xb7, 0x25, 0xfd, 0x02, 0x30, 0x18, 0xc2, 0xc6, 0xe4, 0x01, 0xf4, 0xb7,
  0xc3, 0x05, 0xdd, 0xd7, 0xca, 0xd0, 0x19, 0xce, 0xd2, 0xf8, 0x05, 0x1b,
  0xfa, 0xe9, 0xf1, 0xeb, 0x1f, 0x26, 0x0a, 0x01, 0xfc, 0xf8, 0xef, 0xd4,
  0xd8, 0x03, 0x12, 0xf1, 0x03, 0xcd, 0xdb, 0xc5, 0x15, 0xdb, 0x15, 0xc9,
  0xcd, 0xd3, 0xe9, 0xc2, 0x2c, 0x06, 0xb9, 0xdb, 0xbe, 0x14, 0x32, 0xd3,
  0x2a, 0xbd, 0xfe, 0x2e, 0x16, 0x29, 0xfb, 0x07, 0xe1, 0x03, 0x2b, 0xb4,
  0xc8, 0xf6, 0xf0, 0xc1, 0x38, 0xc6, 0xd2, 0xc8, 0x28, 0xe5, 0xda, 0xe1,
  0xd3, 0xcc, 0xea, 0xb6, 0x12, 0xd6, 0xf8, 0xe4, 0x28, 0x0b, 0xeb, 0xc9,
  0xc0, 0x1e, 0xf6, 0x01, 0x0b, 0x0e, 0xc8, 0xc2, 0xc2, 0xe7, 0x32, 0xf0,
  0x02, 0x11, 0xf8, 0x16, 0x08, 0xc5, 0x1a, 0xc2, 0xdc, 0xee, 0x21, 0xdb,
  0xe7, 0x0b, 0x2c, 0x1f, 0x33, 0xe5, 0x2b, 0x05, 0x0a, 0xe6, 0xe8, 0xf4,
  0xc6, 0x2c, 0xbd, 0xb9, 0x11, 0xd4, 0xfe, 0x27, 0x38, 0x1e, 0xeb, 0x2f,
  0xca, 0xf4, 0xe2, 0xd9, 0x2d, 0xbe, 0x1f, 0xd3, 0xd3, 0xc3, 0xce, 0x1c,
  0xd7, 0x13, 0x44, 0xbe, 0x0d, 0xe1, 0x22, 0x19, 0x38, 0xcf, 0x18, 0xf2,
  0xbe, 0x02, 0xda, 0x0f, 0xed, 0xfb, 0x11, 0x04, 0xec, 0x1d, 0xe1, 0x0c,
  0xa8, 0xe2, 0xd9, 0xff, 0x17, 0x1f, 0x23, 0xc8, 0x19, 0xc5, 0x00, 0xe8,
  0xdd, 0xce, 0xcc, 0xc7, 0xed, 0x03, 0xeb, 0x13, 0x2b, 0x03, 0xdf, 0xf0,
  0x24, 0xf5, 0xc8, 0x04, 0xf9, 0xf8, 0xd8, 0x2b, 0x24, 0xbf, 0x21, 0x02,
  0xce, 0xe8, 0xda, 0xe7, 0x1a, 0xef, 0xf9, 0x2e, 0xcf, 0xcf, 0xe3, 0xef,
  0x13, 0x1c, 0xe3, 0xd1, 0x2e, 0xb8, 0xef, 0xc8, 0x11, 0xfb, 0x26, 0x35,
  0x1e, 0xf5, 0x07, 0xd9, 0xdb, 0xdb, 0x1b, 0x2f, 0xdb, 0xbe, 0x1e, 0x2d,
  0x24, 0x34, 0x08, 0xf7, 0xf1, 0xca, 0x11, 0xee, 0x14, 0x1d, 0x32, 0x00,
  0xfa, 0xfb, 0xf7, 0x20, 0x0b, 0x27, 0xf4, 0x18, 0xca, 0xd1, 0x07, 0x35,
  0x1d, 0xc8, 0x03, 0x08, 0xdc, 0xed, 0xf0, 0x32, 0x44, 0xe9, 0x16, 0xda,
  0x19, 0xf6, 0xdd, 0x16, 0xf4, 0xc8, 0xed, 0xec, 0xcb, 0x01, 0x03, 0xe4,
  0x33, 0xf0, 0xf4, 0xbe, 0x17, 0x24, 0xbb, 0x15, 0x19, 0x1e, 0x27, 0x39,
  0xf3, 0x30, 0xf9, 0x28, 0xdb, 0x11, 0xdc, 0xe6, 0xfd, 0xe9, 0xf4, 0x0a,
  0xe6, 0x25, 0xce, 0x02, 0x3b, 0xe7, 0x02, 0xf2, 0xf4, 0x12, 0xfa, 0xdb,
  0xba, 0x0d, 0xf4, 0xf3, 0x00, 0xe2, 0xf7, 0x26, 0xdd, 0x21, 0x19, 0xd0,
  0xc7, 0xf0, 0xf3, 0xe3, 0xf1, 0xbd, 0x15, 0xe0, 0xf2, 0xaf, 0x15, 0xd7,
  0xef, 0xeb, 0xd2, 0x0b, 0x12, 0xd6, 0x1a, 0xe4, 0xbd, 0x88, 0x3b, 0xdc,
  0x1b, 0xf4, 0xf9, 0x3b, 0xfc, 0x1e, 0xd0, 0xef, 0x0a, 0x2f, 0x23, 0xfb,
  0xb8, 0x30, 0x05, 0xba, 0xf6, 0x32, 0xbf, 0xd3, 0xd5, 0xd1, 0xef, 0x36,
  0x2e, 0x29, 0x10, 0x1a, 0xc9, 0x2f, 0xda, 0x25, 0xf6, 0xd5, 0xc0, 0x2a,
  0xcc, 0x25, 0xd3, 0x0f, 0xcd, 0x32, 0x08, 0xf3, 0xcb, 0xbb, 0xdf, 0xd8,
  0xc4, 0x3b, 0xda, 0xe0, 0xf7, 0xfd, 0x28, 0xfb, 0xe3, 0xba, 0x24, 0x21,
  0xfb, 0x35, 0xd5, 0xce, 0xe7, 0xe6, 0xe5, 0xc2, 0x09, 0xde, 0x40, 0xc9,
  0xf5, 0x2d, 0x35, 0xa8, 0x35, 0xcf, 0xd6, 0x0e, 0x16, 0xd4, 0x1c, 0x33,
  0x34, 0xc6, 0x16, 0x07, 0xf8, 0x16, 0xec, 0xcd, 0xd0, 0xed, 0xe0, 0x3f,
  0xc5, 0xe7, 0x42, 0xe8, 0x34, 0xc2, 0xa4, 0x3e, 0xe6, 0x1f, 0xc9, 0x0d,
  0xd2, 0x38, 0xc6, 0xcc, 0xf8, 0xdc, 0x8c, 0xd3, 0xdf, 0xe9, 0xd8, 0x22,
  0x02, 0xdd, 0xf8, 0xf8, 0xf3, 0x05, 0xad, 0x44, 0x21, 0xf8, 0xed, 0xf6,
  0xaf, 0x13, 0x48, 0x17, 0x45, 0x20, 0x0f, 0x1c, 0xff, 0x1d, 0xd5, 0x19,
  0x38, 0xc3, 0xe2, 0x0d, 0xdd, 0xde, 0xf8, 0xd2, 0x34, 0x2c, 0x37, 0x33,
  0xf3, 0xe1, 0x0e, 0xb6, 0x08, 0x23, 0x15, 0xd7, 0xd7, 0x01, 0x3e, 0xcf,
  0x12, 0x1b, 0x2c, 0x39, 0xd6, 0xe8, 0xdd, 0xec, 0xf5, 0xff, 0x0e, 0xe6,
  0xee, 0x47, 0xfd, 0xb2, 0x12, 0xeb, 0x03, 0xd5, 0xde, 0xfb, 0x17, 0x12,
  0xef, 0xfb, 0x2c, 0x18, 0x06, 0x0e, 0x2e, 0xf8, 0xf4, 0x26, 0xf4, 0xff,
  0x14, 0x13, 0x23, 0xcd, 0x3e, 0x3c, 0x0e, 0x4b, 0x39, 0x0e, 0xd0, 0xf1,
  0x3b, 0x11, 0xf4, 0xee, 0x16, 0x32, 0x23, 0x1d, 0x07, 0x08, 0x27, 0xba,
  0x17, 0xd0, 0xda, 0xde, 0xea, 0x0f, 0xfc, 0xdb, 0xfe, 0xe6, 0xf8, 0xc3,
  0xef, 0x38, 0x30, 0x1b, 0x22, 0xe0, 0x2b, 0x1f, 0xdb, 0xeb, 0x25, 0xe3,
  0x0f, 0xff, 0xda, 0xfa, 0x05, 0xfe, 0x00, 0x1f, 0xec, 0x09, 0xe9, 0xfa,
  0x19, 0xc9, 0x0d, 0x01, 0xff, 0xd7, 0xe9, 0xf5, 0xeb, 0x29, 0x2c, 0x2b,
  0x27, 0xd3, 0x25, 0x1d, 0x02, 0x2c, 0x1b, 0x2a, 0xe7, 0xcf, 0xca, 0x13,
  0xc3, 0x0d, 0xf9, 0x5b, 0x09, 0x1b, 0xd8, 0x0e, 0xd9, 0xdc, 0xdf, 0xe3,
  0xf6, 0xc4, 0x08, 0xd4, 0x2f, 0xcf, 0xee, 0xf0, 0x37, 0x13, 0x2a, 0x3a,
  0x59, 0xfe, 0xdc, 0x32, 0xfe, 0x14, 0x14, 0x17, 0x39, 0x07, 0x15, 0x19,
  0x3a, 0xbf, 0x0c, 0xf4, 0x12, 0xfa, 0xfc, 0xbf, 0x24, 0xd7, 0x27, 0xe2,
  0xe4, 0x2b, 0xf5, 0x3a, 0x38, 0x36, 0xfe, 0xe7, 0x0f, 0xed, 0x1f, 0xca,
  0x11, 0xd8, 0xf6, 0xf0, 0xe9, 0xfc, 0x09, 0x01, 0x32, 0x0c, 0x17, 0xe8,
  0x04, 0xc4, 0xd8, 0x0e, 0x36, 0x00, 0x3e, 0xf4, 0x0f, 0x95, 0xc8, 0x09,
  0xce, 0x25, 0xf8, 0xf0, 0xdf, 0xf2, 0x22, 0x39, 0x20, 0xbd, 0x05, 0x2b,
  0x23, 0xc4, 0x42, 0x34, 0xea, 0x40, 0xfa, 0x25, 0xe3, 0x44, 0xcc, 0xf6,
  0x1f, 0xe0, 0x31, 0x12, 0xe3, 0x05, 0x04, 0xdd, 0x17, 0x07, 0x01, 0x11,
  0xc9, 0xe1, 0x14, 0xf9, 0xed, 0x12, 0xf2, 0xdf, 0xec, 0xb5, 0x12, 0x3a,
  0xf6, 0xe7, 0x18, 0x1b, 0xd9, 0x1c, 0xdf, 0xe3, 0xda, 0xdc, 0xfa, 0x2a,
  0xf1, 0xc7, 0xdc, 0xdd, 0xec, 0xe3, 0x44, 0xe1, 0x2b, 0xe6, 0x26, 0x46,
  0x04, 0xce, 0xdf, 0x55, 0x1f, 0xd8, 0x36, 0x3c, 0xfc, 0x09, 0xc8, 0x26,
  0x05, 0xdd, 0x32, 0x1f, 0xf2, 0x18, 0x35, 0xc2, 0xff, 0x34, 0xd9, 0xd3,
  0xf3, 0x1b, 0xf4, 0xe9, 0xe5, 0xe3, 0x1a, 0x03, 0xd9, 0xea, 0xd0, 0x2a,
  0x4b, 0x15, 0xe3, 0x1b, 0xca, 0x2d, 0xef, 0x11, 0xe0, 0xf8, 0x10, 0x2c,
  0xca, 0x36, 0xd8, 0x18, 0xdc, 0x0c, 0xf4, 0x15, 0x42, 0xd5, 0xd4, 0xca,
  0x01, 0x2b, 0x12, 0xfb, 0xf6, 0x08, 0x0e, 0x0b, 0xe7, 0x06, 0xc2, 0xe5,
  0xda, 0xc6, 0x10, 0xc9, 0x0e, 0xd3, 0xc4, 0x12, 0xe2, 0x08, 0xce, 0x0b,
  0x36, 0x29, 0xef, 0x40, 0x49, 0xe5, 0x26, 0x2b, 0x22, 0xfc, 0xe4, 0x17,
  0x55, 0xde, 0x2a, 0xf1, 0xc9, 0xfc, 0xe3, 0xd7, 0x38, 0x42, 0x18, 0x04,
  0xf6, 0xed, 0x41, 0x3f, 0x4a, 0x49, 0xf5, 0x45, 0x03, 0x43, 0x2b, 0xdf,
  0x03, 0x05, 0x24, 0x09, 0xf5, 0x37, 0xf2, 0xed, 0x1c, 0xd1, 0xd4, 0x21,
  0x0e, 0xf3, 0x36, 0x07, 0x3f, 0xff, 0xc8, 0x21, 0xdf, 0x26, 0x0b, 0x41,
  0x39, 0xfe, 0x27, 0x15, 0x33, 0xd5, 0x2a, 0x13, 0x17, 0x17, 0xd2, 0xdf,
  0x07, 0x0a, 0xfd, 0x07, 0x1e, 0x23, 0xc6, 0xd0, 0xfd, 0xef, 0x10, 0x2e,
  0x0c, 0x3e, 0x11, 0xf1, 0x38, 0x33, 0xe5, 0xcb, 0x11, 0xc4, 0x2c, 0xd0,
  0x03, 0x0c, 0x0d, 0xea, 0x13, 0x32, 0x05, 0x27, 0x3b, 0xf9, 0x0e, 0x1b,
  0x28, 0xf0, 0x0d, 0x13, 0xe6, 0x01, 0x06, 0x1c, 0xda, 0x2b, 0x20, 0x15,
  0xbc, 0x26, 0x0f, 0x11, 0xfd, 0xfa, 0x34, 0x12, 0x0c, 0xfb, 0xfd, 0xd7,
  0xfe, 0xc2, 0x1f, 0xd0, 0x0f, 0x05, 0x18, 0x02, 0x00, 0xf4, 0x33, 0xe2,
  0x1f, 0x30, 0xf1, 0x22, 0xfb, 0x37, 0x12, 0x02, 0xf0, 0x4d, 0x1c, 0xdd,
  0xee, 0xd7, 0x15, 0xe1, 0xcc, 0x1a, 0x24, 0x32, 0x17, 0x2f, 0x0a, 0x08,
  0x21, 0x1b, 0x1e, 0xf7, 0x51, 0xd0, 0x06, 0xff, 0x1b, 0xed, 0xff, 0x19,
  0xda, 0xde, 0xf6, 0x16, 0xd4, 0xf9, 0x1c, 0x21, 0x17, 0x2f, 0xea, 0x12,
  0x2f, 0xcb, 0x03, 0x20, 0x1a, 0x08, 0x31, 0xd4, 0x03, 0xf4, 0xf3, 0x30,
  0x0f, 0x13, 0x07, 0x0b, 0x47, 0xdf, 0xfc, 0xe4, 0xe2, 0x1f, 0xf4, 0xc4,
  0x3c, 0x08, 0x02, 0x51, 0x35, 0xfa, 0x08, 0x40, 0xcb, 0x12, 0xc7, 0xe9,
  0x3e, 0xf9, 0xde, 0x1f, 0xf9, 0x30, 0xbd, 0x2c, 0xff, 0xed, 0xed, 0xd1,
  0xdb, 0x17, 0x06, 0xdf, 0x36, 0xba, 0x0f, 0x19, 0x23, 0xe7, 0xf1, 0x52,
  0xf8, 0x22, 0x12, 0x19, 0xde, 0xe1, 0x3c, 0xde, 0x33, 0x2a, 0x22, 0x3b,
  0x0b, 0x20, 0x0d, 0x0f, 0x0c, 0xdc, 0xe7, 0x0e, 0xdb, 0xf1, 0x3a, 0xda,
  0xcc, 0xf7, 0xf5, 0x0f, 0x48, 0xfd, 0x42, 0x0b, 0x19, 0xd8, 0x18, 0x06,
  0x06, 0xc3, 0xdb, 0x07, 0x1a, 0x09, 0x10, 0x4d, 0x17, 0xf9, 0x02, 0xd4,
  0x2b, 0xc9, 0x3e, 0x2e, 0x3d, 0x13, 0x44, 0xfe, 0xfb, 0xd1, 0x06, 0x2d,
  0x40, 0xed, 0x2a, 0xfc, 0xf0, 0x35, 0xf8, 0x02, 0x0b, 0x31, 0x2b, 0xed,
  0x03, 0x32, 0xd0, 0x11, 0xe1, 0x01, 0x18, 0xde, 0xe0, 0x19, 0xdc, 0x05,
  0x12, 0xec, 0xf0, 0xfa, 0xf0, 0x3e, 0x03, 0x21, 0xdc, 0xff, 0x34, 0x03,
  0xf7, 0x25, 0xfd, 0x15, 0xfc, 0x01, 0x2a, 0x20, 0xf6, 0xd4, 0xe8, 0xef,
  0xcb, 0xf9, 0xf9, 0xbe, 0xc4, 0x2d, 0x32, 0xe7, 0xd9, 0xff, 0xf6, 0x0c,
  0xe9, 0xd1, 0x13, 0x28, 0x14, 0x13, 0xd8, 0xc3, 0x0a, 0xfb, 0xeb, 0x06,
  0xbe, 0x0e, 0xd4, 0xfc, 0xdf, 0x18, 0x33, 0xe3, 0x0f, 0xf0, 0x0f, 0x43,
  0x12, 0x22, 0x1e, 0xf3, 0xe0, 0xfe, 0xe9, 0x45, 0x46, 0xbc, 0xcc, 0xd9,
  0xe8, 0xe3, 0x32, 0xc8, 0x2d, 0x0d, 0x1f, 0x2b, 0x24, 0x19, 0xd9, 0x09,
  0x1e, 0x0f, 0x15, 0xf8, 0x29, 0xf1, 0x3d, 0xea, 0xce, 0x54, 0x08, 0xf8,
  0xc9, 0xe2, 0xf2, 0x0e, 0xff, 0xbc, 0xca, 0xcd, 0xd5, 0x0c, 0xe0, 0x41,
  0x0e, 0xce, 0x13, 0xf6, 0x00, 0xd9, 0xd4, 0xe5, 0xdf, 0x35, 0x06, 0x2a,
  0x3a, 0xdc, 0x11, 0xff, 0xd0, 0x2b, 0x2f, 0xe7, 0x1d, 0x07, 0xdf, 0xd1,
  0x08, 0x30, 0xf4, 0xf8, 0xe4, 0x0f, 0x7f, 0x1b, 0x05, 0xf6, 0x16, 0xfa,
  0xf2, 0xfa, 0xcf, 0xcb, 0xec, 0x36, 0x1b, 0x02, 0xfc, 0xcd, 0xc0, 0x09,
  0xe7, 0x2e, 0x01, 0xd4, 0x14, 0xd2, 0x1a, 0x33, 0xf5, 0x53, 0x2e, 0xdd,
  0xe8, 0x0d, 0xc8, 0xff, 0x22, 0x01, 0xe4, 0xd8, 0xce, 0xf4, 0xd7, 0x0a,
  0x03, 0x32, 0xb8, 0xfd, 0x1c, 0xfe, 0xc9, 0x23, 0x2f, 0xd2, 0x2a, 0xc0,
  0x23, 0xe5, 0xe1, 0xf3, 0xcf, 0xbe, 0x13, 0x28, 0x1b, 0x08, 0x10, 0xd1,
  0xf0, 0x1e, 0xb8, 0x25, 0x37, 0xf2, 0xc0, 0x32, 0x22, 0x1d, 0x20, 0x24,
  0xd6, 0xfe, 0x3c, 0x13, 0xf0, 0xd0, 0x3d, 0x09, 0xec, 0x1b, 0xfb, 0xc9,
  0xaa, 0xdc, 0x13, 0x15, 0xf7, 0xfc, 0xcc, 0x10, 0xe8, 0x2d, 0xc3, 0x06,
  0xc6, 0xfa, 0xec, 0xbc, 0x04, 0x03, 0x59, 0xcc, 0x2b, 0xf1, 0x1b, 0x0d,
  0xbe, 0x16, 0xc2, 0x4f, 0x33, 0x20, 0x2e, 0xeb, 0x2f, 0x03, 0xf9, 0x15,
  0xe9, 0x0f, 0xd7, 0x22, 0x36, 0xc8, 0x10, 0x41, 0x32, 0xbe, 0xbe, 0xc2,
  0xed, 0x2e, 0xf4, 0xd1, 0x1b, 0xff, 0xff, 0x2f, 0x24, 0xa1, 0xec, 0xf1,
  0xc2, 0xc5, 0x07, 0xfd, 0x19, 0x01, 0xc6, 0xfc, 0xc2, 0x4a, 0xfc, 0x00,
  0xba, 0xfe, 0xff, 0xff, 0x04, 0x00, 0x00, 0x00, 0x08, 0x00, 0x00, 0x00,
  0xff, 0xff, 0xff, 0xff, 0x01, 0x02, 0x00, 0x00, 0xce, 0xfe, 0xff, 0xff,
  0x04, 0x00, 0x00, 0x00, 0x0c, 0x00, 0x00, 0x00, 0xb1, 0xdf, 0x4a, 0x3e,
  0x75, 0x13, 0x68, 0xbe, 0x8c, 0xb7, 0x0a, 0x3e, 0xe6, 0xfe, 0xff, 0xff,
  0x04, 0x00, 0x00, 0x00, 0x6c, 0x00, 0x00, 0x00, 0x85, 0xd5, 0x70, 0xbe,
  0x5e, 0x46, 0x93, 0x3e, 0x78, 0x59, 0x5b, 0x3d, 0x5d, 0x4e, 0x8a, 0xbd,
  0xd4, 0x68, 0x45, 0x3d, 0x04, 0x0e, 0x01, 0xbc, 0x21, 0x1b, 0x35, 0x3e,
  0x3e, 0x59, 0x1f, 0xbd, 0x44, 0xda, 0xc5, 0xbe, 0xaf, 0x25, 0x0a, 0xbe,
  0x85, 0xd3, 0xcd, 0xbe, 0xe4, 0x5a, 0x32, 0xbe, 0x2a, 0xa0, 0xb9, 0xbe,
  0x45, 0xd8, 0x5c, 0x3e, 0x41, 0x04, 0x9d, 0x3e, 0x36, 0x05, 0xcc, 0xbe,
  0x68, 0x6c, 0x8d, 0xbe, 0x2c, 0xe9, 0x9d, 0x3e, 0x3c, 0xfe, 0x4a, 0x3c,
  0x74, 0xa9, 0x62, 0xbe, 0x48, 0x11, 0x1f, 0xbe, 0xe3, 0x43, 0x10, 0x39,
  0xe8, 0xb5, 0x9f, 0x3e, 0x89, 0x65, 0xac, 0xbd, 0x2f, 0x9c, 0x2f, 0xbe,
  0x24, 0x24, 0x12, 0x3e, 0xcd, 0x20, 0xb1, 0xbc, 0x5e, 0xff, 0xff, 0xff,
  0x04, 0x00, 0x00, 0x00, 0x0c, 0x00, 0x00, 0x00, 0x74, 0x9c, 0xa1, 0xbd,
  0x55, 0x0e, 0xd1, 0x3d, 0xbf, 0x76, 0x98, 0xbd, 0x70, 0xf9, 0xff, 0xff,
  0x74, 0xf9, 0xff, 0xff, 0x0f, 0x00, 0x00, 0x00, 0x4d, 0x4c, 0x49, 0x52,
  0x20, 0x43, 0x6f, 0x6e, 0x76, 0x65, 0x72, 0x74, 0x65, 0x64, 0x2e, 0x00,
  0x01, 0x00, 0x00, 0x00, 0x14, 0x00, 0x00, 0x00, 0x00, 0x00, 0x0e, 0x00,
  0x18, 0x00, 0x14, 0x00, 0x10, 0x00, 0x0c, 0x00, 0x08, 0x00, 0x04, 0x00,
  0x0e, 0x00, 0x00, 0x00, 0x14, 0x00, 0x00, 0x00, 0x1c, 0x00, 0x00, 0x00,
  0x98, 0x01, 0x00, 0x00, 0x9c, 0x01, 0x00, 0x00, 0xa0, 0x01, 0x00, 0x00,
  0x04, 0x00, 0x00, 0x00, 0x6d, 0x61, 0x69, 0x6e, 0x00, 0x00, 0x00, 0x00,
  0x05, 0x00, 0x00, 0x00, 0x30, 0x01, 0x00, 0x00, 0xcc, 0x00, 0x00, 0x00,
  0x94, 0x00, 0x00, 0x00, 0x40, 0x00, 0x00, 0x00, 0x04, 0x00, 0x00, 0x00,
  0x52, 0xff, 0xff, 0xff, 0x1c, 0x00, 0x00, 0x00, 0x00, 0x00, 0x00, 0x09,
  0x1c, 0x00, 0x00, 0x00, 0x20, 0x00, 0x00, 0x00, 0x04, 0x00, 0x00, 0x00,
  0x00, 0x00, 0x06, 0x00, 0x08, 0x00, 0x04, 0x00, 0x06, 0x00, 0x00, 0x00,
  0x00, 0x00, 0x80, 0x3f, 0x01, 0x00, 0x00, 0x00, 0x0a, 0x00, 0x00, 0x00,
  0x01, 0x00, 0x00, 0x00, 0x09, 0x00, 0x00, 0x00, 0x8a, 0xff, 0xff, 0xff,
  0x20, 0x00, 0x00, 0x00, 0x00, 0x00, 0x00, 0x08, 0x20, 0x00, 0x00, 0x00,
  0x24, 0x00, 0x00, 0x00, 0x03, 0x00, 0x00, 0x00, 0x0c, 0x00, 0x08, 0x00,
  0x00, 0x00, 0x00, 0x00, 0x00, 0x00, 0x07, 0x00, 0x0c, 0x00, 0x00, 0x00,
  0x00, 0x00, 0x00, 0x01, 0x01, 0x00, 0x00, 0x00, 0x09, 0x00, 0x00, 0x00,
  0x03, 0x00, 0x00, 0x00, 0x08, 0x00, 0x00, 0x00, 0x05, 0x00, 0x00, 0x00,
  0x03, 0x00, 0x00, 0x00, 0x00, 0x00, 0x0a, 0x00, 0x10, 0x00, 0x0c, 0x00,
  0x08, 0x00, 0x04, 0x00, 0x0a, 0x00, 0x00, 0x00, 0x0c, 0x00, 0x00, 0x00,
  0x10, 0x00, 0x00, 0x00, 0x02, 0x00, 0x00, 0x00, 0x01, 0x00, 0x00, 0x00,
  0x08, 0x00, 0x00, 0x00, 0x02, 0x00, 0x00, 0x00, 0x07, 0x00, 0x00, 0x00,
  0x04, 0x00, 0x00, 0x00, 0x00, 0x00, 0x0e, 0x00, 0x1a, 0x00, 0x14, 0x00,
  0x10, 0x00, 0x0c, 0x00, 0x0b, 0x00, 0x04, 0x00, 0x0e, 0x00, 0x00, 0x00,
  0x24, 0x00, 0x00, 0x00, 0x00, 0x00, 0x00, 0x05, 0x34, 0x00, 0x00, 0x00,
  0x38, 0x00, 0x00, 0x00, 0x01, 0x00, 0x00, 0x00, 0x00, 0x00, 0x0e, 0x00,
  0x18, 0x00, 0x17, 0x00, 0x10, 0x00, 0x0c, 0x00, 0x08, 0x00, 0x04, 0x00,
  0x0e, 0x00, 0x00, 0x00, 0x02, 0x00, 0x00, 0x00, 0x04, 0x00, 0x00, 0x00,
  0x02, 0x00, 0x00, 0x00, 0x04, 0x00, 0x00, 0x00, 0x00, 0x00, 0x00, 0x01,
  0x01, 0x00, 0x00, 0x00, 0x07, 0x00, 0x00, 0x00, 0x01, 0x00, 0x00, 0x00,
  0x06, 0x00, 0x00, 0x00, 0x00, 0x00, 0x0e, 0x00, 0x14, 0x00, 0x00, 0x00,
  0x10, 0x00, 0x0c, 0x00, 0x0b, 0x00, 0x04, 0x00, 0x0e, 0x00, 0x00, 0x00,
  0x1c, 0x00, 0x00, 0x00, 0x00, 0x00, 0x00, 0x01, 0x28, 0x00, 0x00, 0x00,
  0x2c, 0x00, 0x00, 0x00, 0x0c, 0x00, 0x14, 0x00, 0x13, 0x00, 0x0c, 0x00,
  0x08, 0x00, 0x07, 0x00, 0x0c, 0x00, 0x00, 0x00, 0x00, 0x00, 0x00, 0x01,
  0x01, 0x00, 0x00, 0x00, 0x01, 0x00, 0x00, 0x00, 0x00, 0x00, 0x00, 0x01,
  0x01, 0x00, 0x00, 0x00, 0x06, 0x00, 0x00, 0x00, 0x03, 0x00, 0x00, 0x00,
  0x00, 0x00, 0x00, 0x00, 0x02, 0x00, 0x00, 0x00, 0x01, 0x00, 0x00, 0x00,
  0x01, 0x00, 0x00, 0x00, 0x0a, 0x00, 0x00, 0x00, 0x01, 0x00, 0x00, 0x00,
  0x00, 0x00, 0x00, 0x00, 0x0b, 0x00, 0x00, 0x00, 0x74, 0x04, 0x00, 0x00,
  0x04, 0x04, 0x00, 0x00, 0x98, 0x03, 0x00, 0x00, 0x44, 0x03, 0x00, 0x00,
  0xf8, 0x02, 0x00, 0x00, 0x68, 0x02, 0x00, 0x00, 0xa4, 0x01, 0x00, 0x00,
  0x30, 0x01, 0x00, 0x00, 0xd4, 0x00, 0x00, 0x00, 0x60, 0x00, 0x00, 0x00,
  0x04, 0x00, 0x00, 0x00, 0xce, 0xfb, 0xff, 0xff, 0x00, 0x00, 0x00, 0x01,
  0x14, 0x00, 0x00, 0x00, 0x1c, 0x00, 0x00, 0x00, 0x1c, 0x00, 0x00, 0x00,
  0x0b, 0x00, 0x00, 0x00, 0x34, 0x00, 0x00, 0x00, 0x02, 0x00, 0x00, 0x00,
  0xff, 0xff, 0xff, 0xff, 0x03, 0x00, 0x00, 0x00, 0xb0, 0xfb, 0xff, 0xff,
  0x19, 0x00, 0x00, 0x00, 0x53, 0x74, 0x61, 0x74, 0x65, 0x66, 0x75, 0x6c,
  0x50, 0x61, 0x72, 0x74, 0x69, 0x74, 0x69, 0x6f, 0x6e, 0x65, 0x64, 0x43,
  0x61, 0x6c, 0x6c, 0x3a, 0x30, 0x00, 0x00, 0x00, 0x02, 0x00, 0x00, 0x00,
  0x01, 0x00, 0x00, 0x00, 0x03, 0x00, 0x00, 0x00, 0x26, 0xfc, 0xff, 0xff,
  0x00, 0x00, 0x00, 0x01, 0x14, 0x00, 0x00, 0x00, 0x1c, 0x00, 0x00, 0x00,
  0x1c, 0x00, 0x00, 0x00, 0x0a, 0x00, 0x00, 0x00, 0x4c, 0x00, 0x00, 0x00,
  0x02, 0x00, 0x00, 0x00, 0xff, 0xff, 0xff, 0xff, 0x03, 0x00, 0x00, 0x00,
  0x08, 0xfc, 0xff, 0xff, 0x30, 0x00, 0x00, 0x00, 0x73, 0x65, 0x71, 0x75,
  0x65, 0x6e, 0x74, 0x69, 0x61, 0x6c, 0x2f, 0x64, 0x65, 0x6e, 0x73, 0x65,
  0x2f, 0x4d, 0x61, 0x74, 0x4d, 0x75, 0x6c, 0x3b, 0x73, 0x65, 0x71, 0x75,
  0x65, 0x6e, 0x74, 0x69, 0x61, 0x6c, 0x2f, 0x64, 0x65, 0x6e, 0x73, 0x65,
  0x2f, 0x42, 0x69, 0x61, 0x73, 0x41, 0x64, 0x64, 0x00, 0x00, 0x00, 0x00,
  0x02, 0x00, 0x00, 0x00, 0x01, 0x00, 0x00, 0x00, 0x03, 0x00, 0x00, 0x00,
  0x96, 0xfc, 0xff, 0xff, 0x00, 0x00, 0x00, 0x01, 0x14, 0x00, 0x00, 0x00,
  0x1c, 0x00, 0x00, 0x00, 0x1c, 0x00, 0x00, 0x00, 0x09, 0x00, 0x00, 0x00,
  0x34, 0x00, 0x00, 0x00, 0x02, 0x00, 0x00, 0x00, 0xff, 0xff, 0xff, 0xff,
  0x01, 0x02, 0x00, 0x00, 0x78, 0xfc, 0xff, 0xff, 0x1a, 0x00, 0x00, 0x00,
  0x73, 0x65, 0x71, 0x75, 0x65, 0x6e, 0x74, 0x69, 0x61, 0x6c, 0x2f, 0x66,
  0x6c, 0x61, 0x74, 0x74, 0x65, 0x6e, 0x2f, 0x52, 0x65, 0x73, 0x68, 0x61,
  0x70, 0x65, 0x00, 0x00, 0x02, 0x00, 0x00, 0x00, 0x01, 0x00, 0x00, 0x00,
  0x01, 0x02, 0x00, 0x00, 0xee, 0xfc, 0xff, 0xff, 0x00, 0x00, 0x00, 0x01,
  0x14, 0x00, 0x00, 0x00, 0x24, 0x00, 0x00, 0x00, 0x24, 0x00, 0x00, 0x00,
  0x08, 0x00, 0x00, 0x00, 0x44, 0x00, 0x00, 0x00, 0x04, 0x00, 0x00, 0x00,
  0xff, 0xff, 0xff, 0xff, 0x13, 0x00, 0x00, 0x00, 0x09, 0x00, 0x00, 0x00,
  0x03, 0x00, 0x00, 0x00, 0xd8, 0xfc, 0xff, 0xff, 0x20, 0x00, 0x00, 0x00,
  0x73, 0x65, 0x71, 0x75, 0x65, 0x6e, 0x74, 0x69, 0x61, 0x6c, 0x2f, 0x6d,
  0x61, 0x78, 0x5f, 0x70, 0x6f, 0x6f, 0x6c, 0x69, 0x6e, 0x67, 0x32, 0x64,
  0x2f, 0x4d, 0x61, 0x78, 0x50, 0x6f, 0x6f, 0x6c, 0x00, 0x00, 0x00, 0x00,
  0x04, 0x00, 0x00, 0x00, 0x01, 0x00, 0x00, 0x00, 0x13, 0x00, 0x00, 0x00,
  0x09, 0x00, 0x00, 0x00, 0x03, 0x00, 0x00, 0x00, 0x5e, 0xfd, 0xff, 0xff,
  0x00, 0x00, 0x00, 0x01, 0x14, 0x00, 0x00, 0x00, 0x24, 0x00, 0x00, 0x00,
  0x24, 0x00, 0x00, 0x00, 0x07, 0x00, 0x00, 0x00, 0x94, 0x00, 0x00, 0x00,
  0x04, 0x00, 0x00, 0x00, 0xff, 0xff, 0xff, 0xff, 0x26, 0x00, 0x00, 0x00,
  0x26, 0x00, 0x00, 0x00, 0x03, 0x00, 0x00, 0x00, 0x48, 0xfd, 0xff, 0xff,
  0x72, 0x00, 0x00, 0x00, 0x73, 0x65, 0x71, 0x75, 0x65, 0x6e, 0x74, 0x69,
  0x61, 0x6c, 0x2f, 0x63, 0x6f, 0x6e, 0x76, 0x32, 0x64, 0x2f, 0x52, 0x65,
  0x6c, 0x75, 0x3b, 0x73, 0x65, 0x71, 0x75, 0x65, 0x6e, 0x74, 0x69, 0x61,
  0x6c, 0x2f, 0x63, 0x6f, 0x6e, 0x76, 0x32, 0x64, 0x2f, 0x42, 0x69, 0x61,
  0x73, 0x41, 0x64, 0x64, 0x3b, 0x73, 0x65, 0x71, 0x75, 0x65, 0x6e, 0x74,
  0x69, 0x61, 0x6c, 0x2f, 0x63, 0x6f, 0x6e, 0x76, 0x32, 0x64, 0x2f, 0x43,
  0x6f, 0x6e, 0x76, 0x32, 0x44, 0x3b, 0x73, 0x65, 0x71, 0x75, 0x65, 0x6e,
  0x74, 0x69, 0x61, 0x6c, 0x2f, 0x63, 0x6f, 0x6e, 0x76, 0x32, 0x64, 0x2f,
  0x42, 0x69, 0x61, 0x73, 0x41, 0x64, 0x64, 0x2f, 0x52, 0x65, 0x61, 0x64,
  0x56, 0x61, 0x72, 0x69, 0x61, 0x62, 0x6c, 0x65, 0x4f, 0x70, 0x00, 0x00,
  0x04, 0x00, 0x00, 0x00, 0x01, 0x00, 0x00, 0x00, 0x26, 0x00, 0x00, 0x00,
  0x26, 0x00, 0x00, 0x00, 0x03, 0x00, 0x00, 0x00, 0x8a, 0xff, 0xff, 0xff,
  0x00, 0x00, 0x00, 0x01, 0x20, 0x00, 0x00, 0x00, 0x40, 0x00, 0x00, 0x00,
  0x06, 0x00, 0x00, 0x00, 0x00, 0x00, 0x00, 0x09, 0x50, 0x00, 0x00, 0x00,
  0x0c, 0x00, 0x0c, 0x00, 0x00, 0x00, 0x00, 0x00, 0x08, 0x00, 0x04, 0x00,
  0x0c, 0x00, 0x00, 0x00, 0x08, 0x00, 0x00, 0x00, 0x14, 0x00, 0x00, 0x00,
  0x01, 0x00, 0x00, 0x00, 0x00, 0x00, 0x00, 0x00, 0x00, 0x00, 0x00, 0x00,
  0x00, 0x00, 0x00, 0x00, 0x01, 0x00, 0x00, 0x00, 0x54, 0x5a, 0xd5, 0x3a,
  0x17, 0x00, 0x00, 0x00, 0x73, 0x65, 0x71, 0x75, 0x65, 0x6e, 0x74, 0x69,
  0x61, 0x6c, 0x2f, 0x64, 0x65, 0x6e, 0x73, 0x65, 0x2f, 0x4d, 0x61, 0x74,
  0x4d, 0x75, 0x6c, 0x00, 0x02, 0x00, 0x00, 0x00, 0x03, 0x00, 0x00, 0x00,
  0x01, 0x02, 0x00, 0x00, 0x00, 0x00, 0x16, 0x00, 0x1c, 0x00, 0x18, 0x00,
  0x17, 0x00, 0x10, 0x00, 0x0c, 0x00, 0x08, 0x00, 0x00, 0x00, 0x00, 0x00,
  0x00, 0x00, 0x07, 0x00, 0x16, 0x00, 0x00, 0x00, 0x00, 0x00, 0x00, 0x01,
  0x14, 0x00, 0x00, 0x00, 0x14, 0x00, 0x00, 0x00, 0x05, 0x00, 0x00, 0x00,
  0x00, 0x00, 0x00, 0x02, 0x28, 0x00, 0x00, 0x00, 0x80, 0xfe, 0xff, 0xff,
  0x18, 0x00, 0x00, 0x00, 0x73, 0x65, 0x71, 0x75, 0x65, 0x6e, 0x74, 0x69,
  0x61, 0x6c, 0x2f, 0x66, 0x6c, 0x61, 0x74, 0x74, 0x65, 0x6e, 0x2f, 0x43,
  0x6f, 0x6e, 0x73, 0x74, 0x00, 0x00, 0x00, 0x00, 0x01, 0x00, 0x00, 0x00,
  0x02, 0x00, 0x00, 0x00, 0x5e, 0xff, 0xff, 0xff, 0x00, 0x00, 0x00, 0x01,
  0x10, 0x00, 0x00, 0x00, 0x10, 0x00, 0x00, 0x00, 0x04, 0x00, 0x00, 0x00,
  0x34, 0x00, 0x00, 0x00, 0xc4, 0xfe, 0xff, 0xff, 0x27, 0x00, 0x00, 0x00,
  0x73, 0x65, 0x71, 0x75, 0x65, 0x6e, 0x74, 0x69, 0x61, 0x6c, 0x2f, 0x64,
  0x65, 0x6e, 0x73, 0x65, 0x2f, 0x42, 0x69, 0x61, 0x73, 0x41, 0x64, 0x64,
  0x2f, 0x52, 0x65, 0x61, 0x64, 0x56, 0x61, 0x72, 0x69, 0x61, 0x62, 0x6c,
  0x65, 0x4f, 0x70, 0x00, 0x01, 0x00, 0x00, 0x00, 0x03, 0x00, 0x00, 0x00,
  0xae, 0xff, 0xff, 0xff, 0x00, 0x00, 0x00, 0x01, 0x10, 0x00, 0x00, 0x00,
  0x10, 0x00, 0x00, 0x00, 0x03, 0x00, 0x00, 0x00, 0x28, 0x00, 0x00, 0x00,
  0x14, 0xff, 0xff, 0xff, 0x18, 0x00, 0x00, 0x00, 0x73, 0x65, 0x71, 0x75,
  0x65, 0x6e, 0x74, 0x69, 0x61, 0x6c, 0x2f, 0x63, 0x6f, 0x6e, 0x76, 0x32,
  0x64, 0x2f, 0x43, 0x6f, 0x6e, 0x76, 0x32, 0x44, 0x00, 0x00, 0x00, 0x00,
  0x04, 0x00, 0x00, 0x00, 0x03, 0x00, 0x00, 0x00, 0x03, 0x00, 0x00, 0x00,
  0x03, 0x00, 0x00, 0x00, 0x01, 0x00, 0x00, 0x00, 0x00, 0x00, 0x16, 0x00,
  0x18, 0x00, 0x14, 0x00, 0x00, 0x00, 0x10, 0x00, 0x0c, 0x00, 0x08, 0x00,
  0x00, 0x00, 0x00, 0x00, 0x00, 0x00, 0x07, 0x00, 0x16, 0x00, 0x00, 0x00,
  0x00, 0x00, 0x00, 0x01, 0x10, 0x00, 0x00, 0x00, 0x10, 0x00, 0x00, 0x00,
  0x02, 0x00, 0x00, 0x00, 0x38, 0x00, 0x00, 0x00, 0x7c, 0xff, 0xff, 0xff,
  0x28, 0x00, 0x00, 0x00, 0x73, 0x65, 0x71, 0x75, 0x65, 0x6e, 0x74, 0x69,
  0x61, 0x6c, 0x2f, 0x63, 0x6f, 0x6e, 0x76, 0x32, 0x64, 0x2f, 0x42, 0x69,
  0x61, 0x73, 0x41, 0x64, 0x64, 0x2f, 0x52, 0x65, 0x61, 0x64, 0x56, 0x61,
  0x72, 0x69, 0x61, 0x62, 0x6c, 0x65, 0x4f, 0x70, 0x00, 0x00, 0x00, 0x00,
  0x01, 0x00, 0x00, 0x00, 0x03, 0x00, 0x00, 0x00, 0x00, 0x00, 0x16, 0x00,
  0x1c, 0x00, 0x18, 0x00, 0x00, 0x00, 0x14, 0x00, 0x10, 0x00, 0x0c, 0x00,
  0x00, 0x00, 0x00, 0x00, 0x08, 0x00, 0x07, 0x00, 0x16, 0x00, 0x00, 0x00,
  0x00, 0x00, 0x00, 0x01, 0x14, 0x00, 0x00, 0x00, 0x28, 0x00, 0x00, 0x00,
  0x28, 0x00, 0x00, 0x00, 0x01, 0x00, 0x00, 0x00, 0x44, 0x00, 0x00, 0x00,
  0x04, 0x00, 0x00, 0x00, 0xff, 0xff, 0xff, 0xff, 0x28, 0x00, 0x00, 0x00,
  0x28, 0x00, 0x00, 0x00, 0x01, 0x00, 0x00, 0x00, 0x04, 0x00, 0x04, 0x00,
  0x04, 0x00, 0x00, 0x00, 0x1e, 0x00, 0x00, 0x00, 0x73, 0x65, 0x72, 0x76,
  0x69, 0x6e, 0x67, 0x5f, 0x64, 0x65, 0x66, 0x61, 0x75, 0x6c, 0x74, 0x5f,
  0x63, 0x6f, 0x6e, 0x76, 0x32, 0x64, 0x5f, 0x69, 0x6e, 0x70, 0x75, 0x74,
  0x3a, 0x30, 0x00, 0x00, 0x04, 0x00, 0x00, 0x00, 0x01, 0x00, 0x00, 0x00,
  0x28, 0x00, 0x00, 0x00, 0x28, 0x00, 0x00, 0x00, 0x01, 0x00, 0x00, 0x00,
  0x05, 0x00, 0x00, 0x00, 0x60, 0x00, 0x00, 0x00, 0x44, 0x00, 0x00, 0x00,
  0x34, 0x00, 0x00, 0x00, 0x20, 0x00, 0x00, 0x00, 0x04, 0x00, 0x00, 0x00,
  0xc0, 0xff, 0xff, 0xff, 0x19, 0x00, 0x00, 0x00, 0x00, 0x00, 0x00, 0x19,
  0x0c, 0x00, 0x10, 0x00, 0x0f, 0x00, 0x00, 0x00, 0x08, 0x00, 0x04, 0x00,
  0x0c, 0x00, 0x00, 0x00, 0x09, 0x00, 0x00, 0x00, 0x09, 0x00, 0x00, 0x00,
  0x00, 0x00, 0x00, 0x09, 0xe8, 0xff, 0xff, 0xff, 0x16, 0x00, 0x00, 0x00,
  0x00, 0x00, 0x00, 0x16, 0xf4, 0xff, 0xff, 0xff, 0x11, 0x00, 0x00, 0x00,
  0x00, 0x00, 0x00, 0x11, 0x0c, 0x00, 0x0c, 0x00, 0x0b, 0x00, 0x00, 0x00,
  0x00, 0x00, 0x04, 0x00, 0x0c, 0x00, 0x00, 0x00, 0x03, 0x00, 0x00, 0x00,
  0x00, 0x00, 0x00, 0x03
};

#endif //MODEL.H_H