#ifndef MODEL.H_H
#define MODEL.H_H


unsigned int model.h_len = 5088;
unsigned char model.h[] = {
 0x1c, 0x00, 0x00, 0x00, 0x54, 0x46, 0x4c, 0x33, 0x14, 0x00, 0x20, 0x00,
  0x1c, 0x00, 0x18, 0x00, 0x14, 0x00, 0x10, 0x00, 0x0c, 0x00, 0x00, 0x00,
  0x08, 0x00, 0x04, 0x00, 0x14, 0x00, 0x00, 0x00, 0x1c, 0x00, 0x00, 0x00,
  0x8c, 0x00, 0x00, 0x00, 0xe4, 0x00, 0x00, 0x00, 0x44, 0x08, 0x00, 0x00,
  0x54, 0x08, 0x00, 0x00, 0x0c, 0x13, 0x00, 0x00, 0x03, 0x00, 0x00, 0x00,
  0x01, 0x00, 0x00, 0x00, 0x04, 0x00, 0x00, 0x00, 0xd6, 0xf6, 0xff, 0xff,
  0x0c, 0x00, 0x00, 0x00, 0x1c, 0x00, 0x00, 0x00, 0x3c, 0x00, 0x00, 0x00,
  0x0f, 0x00, 0x00, 0x00, 0x73, 0x65, 0x72, 0x76, 0x69, 0x6e, 0x67, 0x5f,
  0x64, 0x65, 0x66, 0x61, 0x75, 0x6c, 0x74, 0x00, 0x01, 0x00, 0x00, 0x00,
  0x04, 0x00, 0x00, 0x00, 0x90, 0xff, 0xff, 0xff, 0x0c, 0x00, 0x00, 0x00,
  0x04, 0x00, 0x00, 0x00, 0x0b, 0x00, 0x00, 0x00, 0x71, 0x75, 0x61, 0x6e,
  0x74, 0x5f, 0x64, 0x65, 0x6e, 0x73, 0x65, 0x00, 0x01, 0x00, 0x00, 0x00,
  0x04, 0x00, 0x00, 0x00, 0x7a, 0xf7, 0xff, 0xff, 0x04, 0x00, 0x00, 0x00,
  0x0c, 0x00, 0x00, 0x00, 0x63, 0x6f, 0x6e, 0x76, 0x32, 0x64, 0x5f, 0x69,
  0x6e, 0x70, 0x75, 0x74, 0x00, 0x00, 0x00, 0x00, 0x02, 0x00, 0x00, 0x00,
  0x34, 0x00, 0x00, 0x00, 0x04, 0x00, 0x00, 0x00, 0xdc, 0xff, 0xff, 0xff,
  0x0f, 0x00, 0x00, 0x00, 0x04, 0x00, 0x00, 0x00, 0x13, 0x00, 0x00, 0x00,
  0x43, 0x4f, 0x4e, 0x56, 0x45, 0x52, 0x53, 0x49, 0x4f, 0x4e, 0x5f, 0x4d,
  0x45, 0x54, 0x41, 0x44, 0x41, 0x54, 0x41, 0x00, 0x08, 0x00, 0x0c, 0x00,
  0x08, 0x00, 0x04, 0x00, 0x08, 0x00, 0x00, 0x00, 0x0e, 0x00, 0x00, 0x00,
  0x04, 0x00, 0x00, 0x00, 0x13, 0x00, 0x00, 0x00, 0x6d, 0x69, 0x6e, 0x5f,
  0x72, 0x75, 0x6e, 0x74, 0x69, 0x6d, 0x65, 0x5f, 0x76, 0x65, 0x72, 0x73,
  0x69, 0x6f, 0x6e, 0x00, 0x10, 0x00, 0x00, 0x00, 0x5c, 0x07, 0x00, 0x00,
  0x54, 0x07, 0x00, 0x00, 0x3c, 0x07, 0x00, 0x00, 0x20, 0x07, 0x00, 0x00,
  0x04, 0x07, 0x00, 0x00, 0xfc, 0x06, 0x00, 0x00, 0xd0, 0x06, 0x00, 0x00,
  0xc8, 0x06, 0x00, 0x00, 0xc0, 0x06, 0x00, 0x00, 0xb8, 0x06, 0x00, 0x00,
  0xa4, 0x00, 0x00, 0x00, 0x9c, 0x00, 0x00, 0x00, 0x94, 0x00, 0x00, 0x00,
  0x8c, 0x00, 0x00, 0x00, 0x6c, 0x00, 0x00, 0x00, 0x04, 0x00, 0x00, 0x00,
  0x36, 0xf8, 0xff, 0xff, 0x04, 0x00, 0x00, 0x00, 0x58, 0x00, 0x00, 0x00,
  0x0c, 0x00, 0x00, 0x00, 0x08, 0x00, 0x0e, 0x00, 0x08, 0x00, 0x04, 0x00,
  0x08, 0x00, 0x00, 0x00, 0x10, 0x00, 0x00, 0x00, 0x28, 0x00, 0x00, 0x00,
  0x00, 0x00, 0x06, 0x00, 0x08, 0x00, 0x04, 0x00, 0x06, 0x00, 0x00, 0x00,
  0x04, 0x00, 0x00, 0x00, 0x01, 0x00, 0x00, 0x00, 0xd0, 0x07, 0x00, 0x00,
  0x00, 0x00, 0x0a, 0x00, 0x10, 0x00, 0x0c, 0x00, 0x08, 0x00, 0x04, 0x00,
  0x0a, 0x00, 0x00, 0x00, 0x02, 0x00, 0x00, 0x00, 0x02, 0x00, 0x00, 0x00,
  0x04, 0x00, 0x00, 0x00, 0x06, 0x00, 0x00, 0x00, 0x32, 0x2e, 0x31, 0x35,
  0x2e, 0x30, 0x00, 0x00, 0x9a, 0xf8, 0xff, 0xff, 0x04, 0x00, 0x00, 0x00,
  0x10, 0x00, 0x00, 0x00, 0x31, 0x2e, 0x31, 0x34, 0x2e, 0x30, 0x00, 0x00,
  0x00, 0x00, 0x00, 0x00, 0x00, 0x00, 0x00, 0x00, 0xd0, 0xee, 0xff, 0xff,
  0xd4, 0xee, 0xff, 0xff, 0xd8, 0xee, 0xff, 0xff, 0xc2, 0xf8, 0xff, 0xff,
  0x04, 0x00, 0x00, 0x00, 0x03, 0x06, 0x00, 0x00, 0xb4, 0xe1, 0xd9, 0x1a,
  0xe0, 0xef, 0xd5, 0xb8, 0x23, 0xf9, 0x19, 0xfc, 0xe2, 0xdc, 0x2b, 0xe0,
  0x0b, 0xc3, 0x09, 0x00, 0x03, 0xf7, 0xe6, 0x21, 0xd2, 0xbe, 0xb0, 0xc6,
  0x16, 0xec, 0xa0, 0x24, 0x11, 0x3a, 0xcb, 0x03, 0xdf, 0x26, 0x12, 0xe7,
  0x08, 0xbf, 0xd8, 0x31, 0xf9, 0x12, 0xe2, 0x05, 0xd5, 0x2a, 0x08, 0xb2,
  0xdf, 0x2b, 0x05, 0xb8, 0x14, 0xc7, 0x1e, 0xe4, 0xdb, 0x1a, 0xff, 0xab,
  0x02, 0xde, 0x29, 0xf7, 0x2a, 0x13, 0xde, 0xc3, 0xfd, 0xd1, 0xbf, 0xec,
  0xc7, 0xed, 0x07, 0xd6, 0x20, 0x18, 0x08, 0xf4, 0x12, 0xe4, 0xde, 0x00,
  0x0f, 0x2b, 0xc9, 0x3f, 0xfe, 0xdf, 0xfd, 0xf1, 0xe6, 0xd6, 0x16, 0x10,
  0xc5, 0x1b, 0xea, 0xcb, 0x19, 0xbf, 0xe7, 0xe5, 0xd4, 0x2c, 0xc4, 0xdd,
  0xcc, 0x21, 0x51, 0x13, 0xc3, 0xea, 0x2c, 0xf6, 0xd6, 0xd4, 0x2e, 0x08,
  0x06, 0x23, 0xfe, 0xe2, 0xb7, 0xee, 0x1f, 0x1d, 0xc5, 0x19, 0xc8, 0x41,
  0xb1, 0xcc, 0xc1, 0xf7, 0xf7, 0xbf, 0xb4, 0xee, 0xe3, 0x1c, 0x14, 0x10,
  0xd6, 0xbd, 0x0e, 0xc3, 0xe5, 0xe7, 0xcd, 0xd2, 0xd2, 0xb1, 0x03, 0xfd,
  0x23, 0x16, 0x24, 0x67, 0xeb, 0xd1, 0xf7, 0x01, 0xdb, 0xfa, 0x18, 0x06,
  0x05, 0xc5, 0xf7, 0xe1, 0x43, 0x2b, 0x1b, 0x1e, 0xdb, 0x24, 0x22, 0xe4,
  0xf7, 0x14, 0xd3, 0x14, 0xdb, 0xcd, 0x2f, 0xfd, 0xea, 0x49, 0xe0, 0xca,
  0xd1, 0x2c, 0x0a, 0xd3, 0xcf, 0x3f, 0xf2, 0xfb, 0xce, 0xbb, 0xf8, 0xd6,
  0x25, 0x26, 0x2c, 0xed, 0x08, 0x07, 0xe6, 0x31, 0x0f, 0x13, 0xea, 0xaf,
  0xd3, 0x27, 0xb2, 0xe3, 0xf6, 0x0c, 0x16, 0xd0, 0x9c, 0x09, 0x2c, 0x90,
  0xbf, 0xd1, 0xfe, 0xdd, 0x15, 0xef, 0x14, 0xfa, 0xf9, 0xbd, 0xc3, 0xc9,
  0xf5, 0xdc, 0xc7, 0xf0, 0xd5, 0xaf, 0x2c, 0xc3, 0xa4, 0xed, 0x02, 0x97,
  0xb0, 0x0d, 0x29, 0x26, 0xe6, 0xd2, 0x01, 0x2a, 0x2b, 0xf6, 0xef, 0xd7,
  0xc6, 0xf7, 0x02, 0xd4, 0x2b, 0x07, 0x00, 0x23, 0x10, 0x2e, 0x1d, 0x15,
  0xc9, 0x0b, 0x01, 0xe4, 0xcb, 0x26, 0xbc, 0xe7, 0xf5, 0xaa, 0x27, 0x13,
  0xe5, 0x15, 0xfd, 0xda, 0xff, 0xca, 0xf8, 0x1a, 0x0b, 0xe7, 0xc1, 0xd2,
  0xaf, 0xdb, 0xd0, 0xd2, 0x1a, 0x52, 0x1d, 0xf3, 0x3b, 0x22, 0xd7, 0xe9,
  0xf3, 0x28, 0xfd, 0x02, 0xe1, 0x0c, 0x28, 0xc9, 0x8f, 0x2d, 0x04, 0xe5,
  0x07, 0xf7, 0xc8, 0xea, 0xd0, 0xd0, 0x25, 0x1a, 0xc4, 0xcb, 0x3b, 0x04,
  0x28, 0x4c, 0x1b, 0x0d, 0xe6, 0xed, 0xbe, 0x05, 0xd3, 0xbe, 0x08, 0xa9,
  0x2d, 0xf0, 0x0b, 0xa8, 0xc3, 0xa8, 0xb5, 0x33, 0xcc, 0xcb, 0x07, 0x00,
  0xb4, 0xf3, 0xf5, 0xb1, 0xd7, 0x01, 0x1a, 0xea, 0xdf, 0x18, 0x2c, 0xd9,
  0xd6, 0x24, 0x2b, 0xb6, 0xf5, 0xc6, 0xde, 0x0f, 0xe5, 0x24, 0x33, 0xf1,
  0x12, 0xca, 0xef, 0x2c, 0x08, 0x04, 0xcc, 0xcf, 0xd5, 0x2d, 0xfa, 0x45,
  0x00, 0xef, 0xf7, 0xe7, 0x2f, 0x06, 0x30, 0x2f, 0xce, 0x0e, 0xe0, 0xcd,
  0xf6, 0xbe, 0xf6, 0xb8, 0xea, 0xca, 0x15, 0x22, 0xe0, 0x21, 0x06, 0x13,
  0x11, 0xd8, 0xff, 0x2a, 0xd3, 0x28, 0xbd, 0xe0, 0xf2, 0xe4, 0xed, 0xea,
  0x08, 0xce, 0x02, 0xd2, 0x3f, 0x0a, 0x13, 0x16, 0xec, 0x1c, 0x3b, 0xfc,
  0xb8, 0xe4, 0x0a, 0x0f, 0x23, 0x0b, 0xab, 0xeb, 0x28, 0xbf, 0x0a, 0xe8,
  0x05, 0x27, 0xb1, 0x26, 0x32, 0xd0, 0xf1, 0x17, 0x1a, 0x10, 0xdb, 0xed,
  0xf0, 0x09, 0x16, 0x2f, 0x30, 0xe0, 0xff, 0x08, 0x26, 0x17, 0x10, 0xe8,
  0x17, 0xdb, 0xfa, 0xed, 0xd0, 0xdf, 0xd3, 0xd0, 0xe9, 0xc2, 0x3a, 0xfa,
  0xeb, 0xdc, 0x00, 0x01, 0x18, 0xee, 0x1f, 0xda, 0xf9, 0xc9, 0x04, 0x38,
  0xf1, 0xe3, 0x0c, 0xf5, 0x2c, 0x0e, 0xf7, 0x0b, 0x15, 0xf1, 0xec, 0x26,
  0xd8, 0xdc, 0x29, 0xf4, 0x41, 0x26, 0xfc, 0x08, 0xc4, 0xfd, 0xe2, 0x3f,
  0xe1, 0xda, 0x27, 0xcd, 0x01, 0xd1, 0x0e, 0x1c, 0xec, 0x2e, 0xd4, 0xb0,
  0x2e, 0xf9, 0xf0, 0x12, 0xd7, 0xe1, 0x04, 0xda, 0xf5, 0x1a, 0xdb, 0x09,
  0xd0, 0x06, 0xf8, 0x26, 0x3a, 0xdd, 0x24, 0x14, 0xf2, 0xf0, 0xd9, 0x08,
  0x14, 0xf2, 0x21, 0xf6, 0x00, 0xe5, 0x42, 0x01, 0xe0, 0xee, 0x2c, 0xec,
  0xeb, 0x1f, 0x2f, 0xf6, 0x26, 0xb4, 0xe6, 0x02, 0x10, 0xd1, 0x2e, 0xfe,
  0x2a, 0xee, 0x37, 0xf7, 0xf4, 0xee, 0xde, 0xfa, 0x0e, 0x3f, 0xdc, 0x16,
  0xf9, 0x2e, 0xdd, 0xfc, 0xe4, 0xcb, 0xb0, 0x2d, 0x28, 0xfd, 0x15, 0x11,
  0xf9, 0xfe, 0xe9, 0x28, 0x15, 0xfe, 0xff, 0x1e, 0x3a, 0x0a, 0x3e, 0x1d,
  0x1d, 0x1a, 0x1d, 0x01, 0xd9, 0xd5, 0x0d, 0xd7, 0x0a, 0xfc, 0x2b, 0xd7,
  0x04, 0x3a, 0x06, 0xff, 0x10, 0x02, 0xfa, 0xec, 0x12, 0x30, 0x17, 0xdc,
  0x54, 0x13, 0xfd, 0xc3, 0xf3, 0xe7, 0xfc, 0x34, 0xea, 0x0b, 0xdc, 0x0e,
  0x46, 0x45, 0x0b, 0xc8, 0x0a, 0x18, 0xff, 0xba, 0xc4, 0xd7, 0xff, 0x20,
  0xff, 0x16, 0xe1, 0x0b, 0x2e, 0x23, 0x01, 0xca, 0x3c, 0x34, 0x41, 0x1a,
  0xfa, 0xe5, 0xfa, 0x2f, 0x1f, 0x29, 0x06, 0x0c, 0xd6, 0x34, 0xf2, 0x2c,
  0x2a, 0x0e, 0xd6, 0xea, 0xd9, 0xfe, 0xc2, 0x42, 0x19, 0xf6, 0x01, 0xca,
  0x0b, 0xe6, 0x02, 0xe0, 0xf3, 0x11, 0xe5, 0x09, 0x26, 0xb8, 0x3f, 0x12,
  0x4e, 0xe5, 0xf3, 0x19, 0x21, 0xe9, 0xcb, 0xed, 0xf6, 0xe3, 0x21, 0xcc,
  0xe1, 0xe3, 0xf2, 0x0f, 0x0a, 0xeb, 0x24, 0x21, 0xef, 0xe0, 0xd4, 0x37,
  0x31, 0x00, 0x11, 0xe7, 0xe1, 0x4b, 0x00, 0xf0, 0x0b, 0xcc, 0x37, 0xf2,
  0xef, 0x0a, 0x43, 0x10, 0xb4, 0x19, 0x10, 0x32, 0xf1, 0xf4, 0x25, 0xff,
  0xd5, 0xc6, 0xe2, 0xdb, 0x03, 0xfc, 0xcd, 0x35, 0x2d, 0xf4, 0x02, 0x45,
  0x15, 0xda, 0xf6, 0xd4, 0xd9, 0xfc, 0xf1, 0xd4, 0xfc, 0xe4, 0xcd, 0xe9,
  0x29, 0xd7, 0xc1, 0xf6, 0x10, 0x12, 0xea, 0xe1, 0x12, 0xce, 0xcd, 0xe9,
  0x29, 0xea, 0xee, 0xc8, 0x1e, 0xf1, 0x0a, 0x1e, 0xe1, 0x3e, 0x13, 0x0f,
  0xd4, 0xc9, 0x2b, 0x34, 0x06, 0x2b, 0xd8, 0x14, 0x52, 0x42, 0x26, 0x0a,
  0xde, 0xca, 0xd1, 0xf2, 0x0e, 0x2a, 0x21, 0xc9, 0xde, 0x2a, 0x0f, 0x17,
  0xee, 0x12, 0xe5, 0x4a, 0xfc, 0x19, 0x00, 0xf1, 0x49, 0x12, 0x29, 0xe7,
  0xde, 0xf7, 0x0c, 0x37, 0x25, 0xee, 0xda, 0x1d, 0x32, 0xb5, 0xd0, 0x45,
  0x20, 0xc3, 0x16, 0xe2, 0xf6, 0xea, 0x20, 0x0e, 0x06, 0xdc, 0xee, 0x28,
  0xd9, 0xed, 0xe5, 0x19, 0xf9, 0xea, 0x5b, 0x3b, 0xcb, 0xbc, 0x26, 0x0a,
  0xa3, 0x17, 0xf0, 0xe1, 0xf7, 0x07, 0x38, 0xec, 0xf3, 0xfd, 0x02, 0x1f,
  0xc4, 0x0b, 0xef, 0x3f, 0xe9, 0x2d, 0x01, 0xf6, 0x1a, 0x64, 0x31, 0x4f,
  0x42, 0x25, 0x32, 0xde, 0xfb, 0x46, 0xd1, 0x24, 0x1d, 0x34, 0xf2, 0xef,
  0x31, 0x2b, 0x13, 0x30, 0x11, 0xf5, 0x41, 0xe2, 0x04, 0x32, 0xff, 0x2e,
  0x2b, 0xf6, 0x56, 0x49, 0x00, 0xeb, 0x0d, 0x36, 0x25, 0x0d, 0xdc, 0x03,
  0x01, 0x38, 0x38, 0xe5, 0xe3, 0x27, 0x19, 0xee, 0xfa, 0x3f, 0x2e, 0x49,
  0xf4, 0x1a, 0x16, 0x2b, 0x32, 0xfb, 0x5a, 0xdc, 0x20, 0xd7, 0xe8, 0xc9,
  0x06, 0xc9, 0x5e, 0xfc, 0xf2, 0x2e, 0x34, 0xee, 0x13, 0xeb, 0x13, 0x37,
  0xeb, 0x15, 0x1e, 0x61, 0x01, 0x3f, 0xed, 0xe5, 0x33, 0xf6, 0x17, 0x45,
  0xd4, 0x3a, 0x41, 0xde, 0x16, 0x3d, 0x21, 0x49, 0x16, 0xc8, 0xe0, 0xfd,
  0x41, 0x1f, 0xe8, 0x1f, 0x15, 0xd5, 0x04, 0x31, 0x52, 0xe7, 0xbe, 0xd2,
  0xfe, 0x10, 0xe1, 0x17, 0x08, 0xec, 0xe4, 0x23, 0xfc, 0xd7, 0x2d, 0x1a,
  0xec, 0x11, 0x19, 0x1c, 0x12, 0x11, 0xe0, 0xee, 0x32, 0xd7, 0xcf, 0x4c,
  0x25, 0xdd, 0x0e, 0x1d, 0x1d, 0x3e, 0xf6, 0xef, 0x4e, 0xd6, 0x0c, 0x02,
  0xc8, 0xda, 0x0c, 0xe2, 0xc5, 0xcd, 0x27, 0xdb, 0x13, 0x0e, 0x19, 0x14,
  0xd3, 0x40, 0x1f, 0x4a, 0x4a, 0xcd, 0xf1, 0xe4, 0xd2, 0x23, 0x0a, 0x3d,
  0x02, 0xc2, 0xf5, 0xc5, 0x0e, 0xcb, 0xeb, 0x0c, 0x0e, 0x24, 0x15, 0xfe,
  0x31, 0x08, 0x16, 0xcf, 0xe1, 0x01, 0x5d, 0xdb, 0xb6, 0x1c, 0x0f, 0x24,
  0x32, 0xf3, 0x3a, 0xed, 0x2b, 0x31, 0xc7, 0xe7, 0xe4, 0x00, 0x34, 0x5b,
  0x17, 0xf3, 0xfd, 0x01, 0x3d, 0x2b, 0xf3, 0x23, 0xd8, 0x34, 0xe0, 0xcc,
  0xd7, 0xec, 0x47, 0xee, 0x36, 0xe4, 0x10, 0x1a, 0x11, 0x5b, 0x15, 0x20,
  0xdb, 0x0b, 0x32, 0xd6, 0xdd, 0x4d, 0x22, 0xea, 0xf6, 0xcc, 0x1e, 0x28,
  0x58, 0xe8, 0x14, 0xc9, 0xf6, 0x46, 0xf8, 0xea, 0xfb, 0xe2, 0xf3, 0x3e,
  0xf1, 0x43, 0x0f, 0xdc, 0xee, 0x2c, 0x0e, 0x1d, 0x3c, 0x0a, 0x30, 0x06,
  0xe1, 0x46, 0x45, 0x15, 0xf3, 0x2d, 0x3b, 0x39, 0x1d, 0xfb, 0x1d, 0x3f,
  0x25, 0x31, 0x09, 0x30, 0x26, 0xf0, 0xf9, 0xba, 0xab, 0xb9, 0x22, 0x30,
  0x21, 0x27, 0x34, 0xe2, 0xd8, 0xe4, 0x48, 0xed, 0x17, 0x1b, 0x2a, 0x2b,
  0xe2, 0xce, 0x0b, 0xed, 0x0b, 0x10, 0x22, 0x02, 0xf5, 0xd3, 0x38, 0xea,
  0x0c, 0xca, 0xd6, 0x04, 0xf7, 0x10, 0x41, 0x44, 0x2d, 0x18, 0xd1, 0xce,
  0xf2, 0x02, 0x14, 0x11, 0xf7, 0xf3, 0x15, 0xea, 0xea, 0xc0, 0x27, 0xf2,
  0x02, 0xdc, 0xb5, 0x2f, 0x38, 0x44, 0x21, 0x13, 0xf2, 0xf0, 0xb8, 0x32,
  0x27, 0x15, 0x2b, 0x0e, 0x10, 0xdd, 0x1d, 0xfc, 0xf3, 0xc4, 0xcb, 0xc6,
  0xff, 0xd9, 0xf1, 0x0c, 0xde, 0x07, 0xf7, 0x2f, 0xcb, 0x2d, 0x27, 0x16,
  0x0f, 0x0b, 0xf1, 0x28, 0x47, 0xe2, 0x1e, 0xf1, 0x3b, 0x37, 0x26, 0xc5,
  0xe2, 0x35, 0x23, 0xda, 0xcd, 0xe5, 0xeb, 0x03, 0xc2, 0x2b, 0xdd, 0x02,
  0xd0, 0x0f, 0x24, 0xeb, 0xfc, 0xe2, 0xda, 0xda, 0x37, 0x31, 0x27, 0x04,
  0xee, 0x3a, 0x12, 0x42, 0xff, 0xf7, 0xc7, 0x30, 0xe7, 0x07, 0xf0, 0x81,
  0xc3, 0x30, 0x15, 0x4b, 0xdd, 0xdd, 0xfe, 0x0b, 0xe5, 0x01, 0xed, 0x26,
  0x16, 0xd0, 0xd9, 0x39, 0x20, 0x13, 0x45, 0xf2, 0xf9, 0x3d, 0x0f, 0x12,
  0xcd, 0xee, 0x05, 0x07, 0x08, 0xdb, 0x22, 0x1d, 0xfa, 0x02, 0x22, 0xaf,
  0xff, 0x11, 0xde, 0x0a, 0xf4, 0x22, 0x06, 0x0f, 0xd4, 0x42, 0xfb, 0xf4,
  0xde, 0x2c, 0x26, 0xde, 0x50, 0xda, 0xd1, 0xf0, 0xde, 0x04, 0x3a, 0xe3,
  0x1f, 0xd7, 0xf4, 0xd1, 0x05, 0xca, 0x10, 0x11, 0xc5, 0x16, 0x2b, 0xd7,
  0xe9, 0x36, 0x2e, 0xbc, 0x42, 0xc7, 0xf4, 0x0b, 0xd3, 0xf7, 0x22, 0xf8,
  0x15, 0x2b, 0xf0, 0xe9, 0xd7, 0xf7, 0x22, 0x25, 0xef, 0xf7, 0x30, 0x02,
  0xfa, 0xf6, 0x08, 0x11, 0xda, 0x0a, 0xb7, 0xe5, 0xe7, 0x31, 0xeb, 0xa7,
  0xe2, 0xe6, 0xfd, 0xde, 0xd3, 0xba, 0xe0, 0xbc, 0xf8, 0xeb, 0x07, 0x1b,
  0xbc, 0x24, 0xe7, 0x1c, 0x30, 0x0e, 0xed, 0xd5, 0xbd, 0xe6, 0xff, 0xe3,
  0x49, 0x1f, 0xca, 0x2b, 0xaf, 0xdf, 0xc1, 0x0a, 0xf9, 0x05, 0xec, 0xfe,
  0xe2, 0x29, 0x1a, 0xf1, 0x1f, 0x08, 0xe7, 0xd7, 0x2a, 0x27, 0x24, 0x0c,
  0x01, 0x28, 0xa8, 0x39, 0xc1, 0xd2, 0xfe, 0xbc, 0xc0, 0x38, 0x2b, 0xeb,
  0xf4, 0x25, 0x1a, 0x2d, 0x19, 0xfd, 0x0a, 0xc6, 0x0e, 0x06, 0x32, 0x25,
  0x03, 0xdc, 0xb4, 0xb8, 0xf3, 0xd8, 0x3d, 0xe6, 0xa0, 0xf9, 0x26, 0xc3,
  0xfd, 0x05, 0xfe, 0xc5, 0x12, 0x11, 0xeb, 0xd2, 0x09, 0xdc, 0x2b, 0x00,
  0xec, 0xf4, 0xff, 0xff, 0xf0, 0xf4, 0xff, 0xff, 0xf4, 0xf4, 0xff, 0xff,
  0xde, 0xfe, 0xff, 0xff, 0x04, 0x00, 0x00, 0x00, 0x1b, 0x00, 0x00, 0x00,
  0xa8, 0x18, 0x07, 0x4c, 0xb0, 0x7f, 0x83, 0x53, 0xb0, 0x47, 0xc6, 0xc6,
  0x09, 0x9d, 0x86, 0x04, 0xd7, 0x7f, 0x38, 0xc1, 0x40, 0x35, 0x81, 0x2f,
  0x23, 0x93, 0x99, 0x00, 0x20, 0xf5, 0xff, 0xff, 0x0a, 0xff, 0xff, 0xff,
  0x04, 0x00, 0x00, 0x00, 0x0c, 0x00, 0x00, 0x00, 0x00, 0x0a, 0x00, 0x00,
  0x3f, 0xf5, 0xff, 0xff, 0x8e, 0x05, 0x00, 0x00, 0x22, 0xff, 0xff, 0xff,
  0x04, 0x00, 0x00, 0x00, 0x0c, 0x00, 0x00, 0x00, 0x21, 0x00, 0x00, 0x00,
  0xf7, 0xff, 0xff, 0xff, 0xe2, 0xff, 0xff, 0xff, 0x3a, 0xff, 0xff, 0xff,
  0x04, 0x00, 0x00, 0x00, 0x08, 0x00, 0x00, 0x00, 0xff, 0xff, 0xff, 0xff,
  0x01, 0x02, 0x00, 0x00, 0x68, 0xf5, 0xff, 0xff, 0x6c, 0xf5, 0xff, 0xff,
  0x0f, 0x00, 0x00, 0x00, 0x4d, 0x4c, 0x49, 0x52, 0x20, 0x43, 0x6f, 0x6e,
  0x76, 0x65, 0x72, 0x74, 0x65, 0x64, 0x2e, 0x00, 0x01, 0x00, 0x00, 0x00,
  0x14, 0x00, 0x00, 0x00, 0x00, 0x00, 0x0e, 0x00, 0x18, 0x00, 0x14, 0x00,
  0x10, 0x00, 0x0c, 0x00, 0x08, 0x00, 0x04, 0x00, 0x0e, 0x00, 0x00, 0x00,
  0x14, 0x00, 0x00, 0x00, 0x1c, 0x00, 0x00, 0x00, 0xcc, 0x01, 0x00, 0x00,
  0xd0, 0x01, 0x00, 0x00, 0xd4, 0x01, 0x00, 0x00, 0x04, 0x00, 0x00, 0x00,
  0x6d, 0x61, 0x69, 0x6e, 0x00, 0x00, 0x00, 0x00, 0x07, 0x00, 0x00, 0x00,
  0x94, 0x01, 0x00, 0x00, 0x34, 0x01, 0x00, 0x00, 0xd0, 0x00, 0x00, 0x00,
  0xa8, 0x00, 0x00, 0x00, 0x64, 0x00, 0x00, 0x00, 0x28, 0x00, 0x00, 0x00,
  0x04, 0x00, 0x00, 0x00, 0x72, 0xff, 0xff, 0xff, 0x0c, 0x00, 0x00, 0x00,
  0x10, 0x00, 0x00, 0x00, 0x06, 0x00, 0x00, 0x00, 0x01, 0x00, 0x00, 0x00,
  0x0c, 0x00, 0x00, 0x00, 0x01, 0x00, 0x00, 0x00, 0x0b, 0x00, 0x00, 0x00,
  0x12, 0xff, 0xff, 0xff, 0x1c, 0x00, 0x00, 0x00, 0x00, 0x00, 0x00, 0x09,
  0x1c, 0x00, 0x00, 0x00, 0x20, 0x00, 0x00, 0x00, 0x05, 0x00, 0x00, 0x00,
  0x00, 0x00, 0x06, 0x00, 0x08, 0x00, 0x04, 0x00, 0x06, 0x00, 0x00, 0x00,
  0x00, 0x00, 0x80, 0x3f, 0x01, 0x00, 0x00, 0x00, 0x0b, 0x00, 0x00, 0x00,
  0x01, 0x00, 0x00, 0x00, 0x0a, 0x00, 0x00, 0x00, 0x4a, 0xff, 0xff, 0xff,
  0x14, 0x00, 0x00, 0x00, 0x00, 0x00, 0x00, 0x08, 0x10, 0x00, 0x00, 0x00,
  0x14, 0x00, 0x00, 0x00, 0x04, 0x00, 0x00, 0x00, 0x50, 0xf6, 0xff, 0xff,
  0x01, 0x00, 0x00, 0x00, 0x0a, 0x00, 0x00, 0x00, 0x03, 0x00, 0x00, 0x00,
  0x08, 0x00, 0x00, 0x00, 0x09, 0x00, 0x00, 0x00, 0x03, 0x00, 0x00, 0x00,
  0x00, 0x00, 0x0a, 0x00, 0x10, 0x00, 0x0c, 0x00, 0x08, 0x00, 0x04, 0x00,
  0x0a, 0x00, 0x00, 0x00, 0x0c, 0x00, 0x00, 0x00, 0x10, 0x00, 0x00, 0x00,
  0x03, 0x00, 0x00, 0x00, 0x01, 0x00, 0x00, 0x00, 0x08, 0x00, 0x00, 0x00,
  0x02, 0x00, 0x00, 0x00, 0x07, 0x00, 0x00, 0x00, 0x01, 0x00, 0x00, 0x00,
  0xae, 0xff, 0xff, 0xff, 0x24, 0x00, 0x00, 0x00, 0x00, 0x00, 0x00, 0x05,
  0x34, 0x00, 0x00, 0x00, 0x38, 0x00, 0x00, 0x00, 0x02, 0x00, 0x00, 0x00,
  0x00, 0x00, 0x0e, 0x00, 0x18, 0x00, 0x17, 0x00, 0x10, 0x00, 0x0c, 0x00,
  0x08, 0x00, 0x04, 0x00, 0x0e, 0x00, 0x00, 0x00, 0x02, 0x00, 0x00, 0x00,
  0x04, 0x00, 0x00, 0x00, 0x02, 0x00, 0x00, 0x00, 0x04, 0x00, 0x00, 0x00,
  0x00, 0x00, 0x00, 0x01, 0x01, 0x00, 0x00, 0x00, 0x07, 0x00, 0x00, 0x00,
  0x01, 0x00, 0x00, 0x00, 0x06, 0x00, 0x00, 0x00, 0x00, 0x00, 0x0e, 0x00,
  0x18, 0x00, 0x14, 0x00, 0x10, 0x00, 0x0c, 0x00, 0x0b, 0x00, 0x04, 0x00,
  0x0e, 0x00, 0x00, 0x00, 0x20, 0x00, 0x00, 0x00, 0x00, 0x00, 0x00, 0x01,
  0x2c, 0x00, 0x00, 0x00, 0x30, 0x00, 0x00, 0x00, 0x01, 0x00, 0x00, 0x00,
  0x0c, 0x00, 0x14, 0x00, 0x13, 0x00, 0x0c, 0x00, 0x08, 0x00, 0x07, 0x00,
  0x0c, 0x00, 0x00, 0x00, 0x00, 0x00, 0x00, 0x01, 0x01, 0x00, 0x00, 0x00,
  0x01, 0x00, 0x00, 0x00, 0x00, 0x00, 0x00, 0x01, 0x01, 0x00, 0x00, 0x00,
  0x06, 0x00, 0x00, 0x00, 0x03, 0x00, 0x00, 0x00, 0x04, 0x00, 0x00, 0x00,
  0x05, 0x00, 0x00, 0x00, 0x02, 0x00, 0x00, 0x00, 0x00, 0x00, 0x0a, 0x00,
  0x0c, 0x00, 0x00, 0x00, 0x08, 0x00, 0x04, 0x00, 0x0a, 0x00, 0x00, 0x00,
  0x08, 0x00, 0x00, 0x00, 0x0c, 0x00, 0x00, 0x00, 0x01, 0x00, 0x00, 0x00,
  0x04, 0x00, 0x00, 0x00, 0x01, 0x00, 0x00, 0x00, 0x00, 0x00, 0x00, 0x00,
  0x01, 0x00, 0x00, 0x00, 0x0c, 0x00, 0x00, 0x00, 0x01, 0x00, 0x00, 0x00,
  0x00, 0x00, 0x00, 0x00, 0x0d, 0x00, 0x00, 0x00, 0x48, 0x08, 0x00, 0x00,
  0xe0, 0x07, 0x00, 0x00, 0x28, 0x07, 0x00, 0x00, 0xa8, 0x06, 0x00, 0x00,
  0x4c, 0x05, 0x00, 0x00, 0x58, 0x04, 0x00, 0x00, 0x5c, 0x03, 0x00, 0x00,
  0xc0, 0x02, 0x00, 0x00, 0x3c, 0x02, 0x00, 0x00, 0x94, 0x01, 0x00, 0x00,
  0xe4, 0x00, 0x00, 0x00, 0x60, 0x00, 0x00, 0x00, 0x04, 0x00, 0x00, 0x00,
  0x02, 0xf8, 0xff, 0xff, 0x00, 0x00, 0x00, 0x01, 0x14, 0x00, 0x00, 0x00,
  0x1c, 0x00, 0x00, 0x00, 0x1c, 0x00, 0x00, 0x00, 0x0d, 0x00, 0x00, 0x00,
  0x34, 0x00, 0x00, 0x00, 0x02, 0x00, 0x00, 0x00, 0xff, 0xff, 0xff, 0xff,
  0x03, 0x00, 0x00, 0x00, 0xe4, 0xf7, 0xff, 0xff, 0x19, 0x00, 0x00, 0x00,
  0x53, 0x74, 0x61, 0x74, 0x65, 0x66, 0x75, 0x6c, 0x50, 0x61, 0x72, 0x74,
  0x69, 0x74, 0x69, 0x6f, 0x6e, 0x65, 0x64, 0x43, 0x61, 0x6c, 0x6c, 0x3a,
  0x30, 0x00, 0x00, 0x00, 0x02, 0x00, 0x00, 0x00, 0x01, 0x00, 0x00, 0x00,
  0x03, 0x00, 0x00, 0x00, 0x46, 0xfb, 0xff, 0xff, 0x00, 0x00, 0x00, 0x01,
  0x18, 0x00, 0x00, 0x00, 0x20, 0x00, 0x00, 0x00, 0x40, 0x00, 0x00, 0x00,
  0x0c, 0x00, 0x00, 0x00, 0x00, 0x00, 0x00, 0x09, 0x58, 0x00, 0x00, 0x00,
  0x02, 0x00, 0x00, 0x00, 0xff, 0xff, 0xff, 0xff, 0x03, 0x00, 0x00, 0x00,
  0x6c, 0xf9, 0xff, 0xff, 0x08, 0x00, 0x00, 0x00, 0x14, 0x00, 0x00, 0x00,
  0x01, 0x00, 0x00, 0x00, 0x80, 0xff, 0xff, 0xff, 0xff, 0xff, 0xff, 0xff,
  0x00, 0x00, 0x00, 0x00, 0x01, 0x00, 0x00, 0x00, 0x00, 0x00, 0x80, 0x3b,
  0x1e, 0x00, 0x00, 0x00, 0x73, 0x65, 0x71, 0x75, 0x65, 0x6e, 0x74, 0x69,
  0x61, 0x6c, 0x2f, 0x71, 0x75, 0x61, 0x6e, 0x74, 0x5f, 0x64, 0x65, 0x6e,
  0x73, 0x65, 0x2f, 0x53, 0x6f, 0x66, 0x74, 0x6d, 0x61, 0x78, 0x00, 0x00,
  0x02, 0x00, 0x00, 0x00, 0x01, 0x00, 0x00, 0x00, 0x03, 0x00, 0x00, 0x00,
  0xc6, 0xfb, 0xff, 0xff, 0x00, 0x00, 0x00, 0x01, 0x18, 0x00, 0x00, 0x00,
  0x20, 0x00, 0x00, 0x00, 0x3c, 0x00, 0x00, 0x00, 0x0b, 0x00, 0x00, 0x00,
  0x00, 0x00, 0x00, 0x09, 0x74, 0x00, 0x00, 0x00, 0x02, 0x00, 0x00, 0x00,
  0xff, 0xff, 0xff, 0xff, 0x03, 0x00, 0x00, 0x00, 0xec, 0xf9, 0xff, 0xff,
  0x08, 0x00, 0x00, 0x00, 0x10, 0x00, 0x00, 0x00, 0x01, 0x00, 0x00, 0x00,
  0x00, 0x00, 0x00, 0x00, 0x00, 0x00, 0x00, 0x00, 0x01, 0x00, 0x00, 0x00,
  0x7d, 0xc4, 0x41, 0x3d, 0x3c, 0x00, 0x00, 0x00, 0x73, 0x65, 0x71, 0x75,
  0x65, 0x6e, 0x74, 0x69, 0x61, 0x6c, 0x2f, 0x71, 0x75, 0x61, 0x6e, 0x74,
  0x5f, 0x64, 0x65, 0x6e, 0x73, 0x65, 0x2f, 0x4d, 0x61, 0x74, 0x4d, 0x75,
  0x6c, 0x3b, 0x73, 0x65, 0x71, 0x75, 0x65, 0x6e, 0x74, 0x69, 0x61, 0x6c,
  0x2f, 0x71, 0x75, 0x61, 0x6e, 0x74, 0x5f, 0x64, 0x65, 0x6e, 0x73, 0x65,
  0x2f, 0x42, 0x69, 0x61, 0x73, 0x41, 0x64, 0x64, 0x00, 0x00, 0x00, 0x00,
  0x02, 0x00, 0x00, 0x00, 0x01, 0x00, 0x00, 0x00, 0x03, 0x00, 0x00, 0x00,
  0x00, 0x00, 0x0e, 0x00, 0x18, 0x00, 0x14, 0x00, 0x13, 0x00, 0x0c, 0x00,
  0x08, 0x00, 0x04, 0x00, 0x0e, 0x00, 0x00, 0x00, 0x14, 0x00, 0x00, 0x00,
  0x30, 0x00, 0x00, 0x00, 0x0a, 0x00, 0x00, 0x00, 0x00, 0x00, 0x00, 0x09,
  0x84, 0x00, 0x00, 0x00, 0x84, 0xfa, 0xff, 0xff, 0x08, 0x00, 0x00, 0x00,
  0x10, 0x00, 0x00, 0x00, 0x01, 0x00, 0x00, 0x00, 0x00, 0x00, 0x00, 0x00,
  0x00, 0x00, 0x00, 0x00, 0x01, 0x00, 0x00, 0x00, 0xeb, 0xdf, 0xd6, 0x3a,
  0x5b, 0x00, 0x00, 0x00, 0x73, 0x65, 0x71, 0x75, 0x65, 0x6e, 0x74, 0x69,
  0x61, 0x6c, 0x2f, 0x71, 0x75, 0x61, 0x6e, 0x74, 0x5f, 0x64, 0x65, 0x6e,
  0x73, 0x65, 0x2f, 0x4d, 0x61, 0x74, 0x4d, 0x75, 0x6c, 0x3b, 0x73, 0x65,
  0x71, 0x75, 0x65, 0x6e, 0x74, 0x69, 0x61, 0x6c, 0x2f, 0x71, 0x75, 0x61,
  0x6e, 0x74, 0x5f, 0x64, 0x65, 0x6e, 0x73, 0x65, 0x2f, 0x4c, 0x61, 0x73,
  0x74, 0x56, 0x61, 0x6c, 0x75, 0x65, 0x51, 0x75, 0x61, 0x6e, 0x74, 0x2f,
  0x46, 0x61, 0x6b, 0x65, 0x51, 0x75, 0x61, 0x6e, 0x74, 0x57, 0x69, 0x74,
  0x68, 0x4d, 0x69, 0x6e, 0x4d, 0x61, 0x78, 0x56, 0x61, 0x72, 0x73, 0x00,
  0x02, 0x00, 0x00, 0x00, 0x03, 0x00, 0x00, 0x00, 0x01, 0x02, 0x00, 0x00,
  0x16, 0xfd, 0xff, 0xff, 0x00, 0x00, 0x00, 0x01, 0x18, 0x00, 0x00, 0x00,
  0x20, 0x00, 0x00, 0x00, 0x3c, 0x00, 0x00, 0x00, 0x09, 0x00, 0x00, 0x00,
  0x00, 0x00, 0x00, 0x09, 0x58, 0x00, 0x00, 0x00, 0x02, 0x00, 0x00, 0x00,
  0xff, 0xff, 0xff, 0xff, 0x01, 0x02, 0x00, 0x00, 0x3c, 0xfb, 0xff, 0xff,
  0x08, 0x00, 0x00, 0x00, 0x10, 0x00, 0x00, 0x00, 0x01, 0x00, 0x00, 0x00,
  0xfd, 0xff, 0xff, 0xff, 0xff, 0xff, 0xff, 0xff, 0x01, 0x00, 0x00, 0x00,
  0x29, 0x97, 0x43, 0x3d, 0x20, 0x00, 0x00, 0x00, 0x73, 0x65, 0x71, 0x75,
  0x65, 0x6e, 0x74, 0x69, 0x61, 0x6c, 0x2f, 0x71, 0x75, 0x61, 0x6e, 0x74,
  0x5f, 0x66, 0x6c, 0x61, 0x74, 0x74, 0x65, 0x6e, 0x2f, 0x52, 0x65, 0x73,
  0x68, 0x61, 0x70, 0x65, 0x00, 0x00, 0x00, 0x00, 0x02, 0x00, 0x00, 0x00,
  0x01, 0x00, 0x00, 0x00, 0x01, 0x02, 0x00, 0x00, 0x96, 0xfd, 0xff, 0xff,
  0x00, 0x00, 0x00, 0x01, 0x18, 0x00, 0x00, 0x00, 0x28, 0x00, 0x00, 0x00,
  0x48, 0x00, 0x00, 0x00, 0x08, 0x00, 0x00, 0x00, 0x00, 0x00, 0x00, 0x09,
  0x68, 0x00, 0x00, 0x00, 0x04, 0x00, 0x00, 0x00, 0xff, 0xff, 0xff, 0xff,
  0x13, 0x00, 0x00, 0x00, 0x09, 0x00, 0x00, 0x00, 0x03, 0x00, 0x00, 0x00,
  0xc4, 0xfb, 0xff, 0xff, 0x08, 0x00, 0x00, 0x00, 0x14, 0x00, 0x00, 0x00,
  0x01, 0x00, 0x00, 0x00, 0xfd, 0xff, 0xff, 0xff, 0xff, 0xff, 0xff, 0xff,
  0x00, 0x00, 0x00, 0x00, 0x01, 0x00, 0x00, 0x00, 0x29, 0x97, 0x43, 0x3d,
  0x26, 0x00, 0x00, 0x00, 0x73, 0x65, 0x71, 0x75, 0x65, 0x6e, 0x74, 0x69,
  0x61, 0x6c, 0x2f, 0x71, 0x75, 0x61, 0x6e, 0x74, 0x5f, 0x6d, 0x61, 0x78,
  0x5f, 0x70, 0x6f, 0x6f, 0x6c, 0x69, 0x6e, 0x67, 0x32, 0x64, 0x2f, 0x4d,
  0x61, 0x78, 0x50, 0x6f, 0x6f, 0x6c, 0x00, 0x00, 0x04, 0x00, 0x00, 0x00,
  0x01, 0x00, 0x00, 0x00, 0x13, 0x00, 0x00, 0x00, 0x09, 0x00, 0x00, 0x00,
  0x03, 0x00, 0x00, 0x00, 0x2e, 0xfe, 0xff, 0xff, 0x00, 0x00, 0x00, 0x01,
  0x18, 0x00, 0x00, 0x00, 0x28, 0x00, 0x00, 0x00, 0x44, 0x00, 0x00, 0x00,
  0x07, 0x00, 0x00, 0x00, 0x00, 0x00, 0x00, 0x09, 0xc8, 0x00, 0x00, 0x00,
  0x04, 0x00, 0x00, 0x00, 0xff, 0xff, 0xff, 0xff, 0x26, 0x00, 0x00, 0x00,
  0x26, 0x00, 0x00, 0x00, 0x03, 0x00, 0x00, 0x00, 0x5c, 0xfc, 0xff, 0xff,
  0x08, 0x00, 0x00, 0x00, 0x10, 0x00, 0x00, 0x00, 0x01, 0x00, 0x00, 0x00,
  0xfd, 0xff, 0xff, 0xff, 0xff, 0xff, 0xff, 0xff, 0x01, 0x00, 0x00, 0x00,
  0x29, 0x97, 0x43, 0x3d, 0x8a, 0x00, 0x00, 0x00, 0x73, 0x65, 0x71, 0x75,
  0x65, 0x6e, 0x74, 0x69, 0x61, 0x6c, 0x2f, 0x71, 0x75, 0x61, 0x6e, 0x74,
  0x5f, 0x63, 0x6f, 0x6e, 0x76, 0x32, 0x64, 0x2f, 0x52, 0x65, 0x6c, 0x75,
  0x3b, 0x73, 0x65, 0x71, 0x75, 0x65, 0x6e, 0x74, 0x69, 0x61, 0x6c, 0x2f,
  0x71, 0x75, 0x61, 0x6e, 0x74, 0x5f, 0x63, 0x6f, 0x6e, 0x76, 0x32, 0x64,
  0x2f, 0x42, 0x69, 0x61, 0x73, 0x41, 0x64, 0x64, 0x3b, 0x73, 0x65, 0x71,
  0x75, 0x65, 0x6e, 0x74, 0x69, 0x61, 0x6c, 0x2f, 0x71, 0x75, 0x61, 0x6e,
  0x74, 0x5f, 0x63, 0x6f, 0x6e, 0x76, 0x32, 0x64, 0x2f, 0x43, 0x6f, 0x6e,
  0x76, 0x32, 0x44, 0x3b, 0x73, 0x65, 0x71, 0x75, 0x65, 0x6e, 0x74, 0x69,
  0x61, 0x6c, 0x2f, 0x71, 0x75, 0x61, 0x6e, 0x74, 0x5f, 0x63, 0x6f, 0x6e,
  0x76, 0x32, 0x64, 0x2f, 0x42, 0x69, 0x61, 0x73, 0x41, 0x64, 0x64, 0x2f,
  0x52, 0x65, 0x61, 0x64, 0x56, 0x61, 0x72, 0x69, 0x61, 0x62, 0x6c, 0x65,
  0x4f, 0x70, 0x00, 0x00, 0x04, 0x00, 0x00, 0x00, 0x01, 0x00, 0x00, 0x00,
  0x26, 0x00, 0x00, 0x00, 0x26, 0x00, 0x00, 0x00, 0x03, 0x00, 0x00, 0x00,
  0x9e, 0xfc, 0xff, 0xff, 0x00, 0x00, 0x00, 0x01, 0x14, 0x00, 0x00, 0x00,
  0x4c, 0x00, 0x00, 0x00, 0x06, 0x00, 0x00, 0x00, 0x00, 0x00, 0x00, 0x09,
  0xac, 0x00, 0x00, 0x00, 0x3c, 0xfd, 0xff, 0xff, 0x08, 0x00, 0x00, 0x00,
  0x24, 0x00, 0x00, 0x00, 0x03, 0x00, 0x00, 0x00, 0x00, 0x00, 0x00, 0x00,
  0x00, 0x00, 0x00, 0x00, 0x00, 0x00, 0x00, 0x00, 0x00, 0x00, 0x00, 0x00,
  0x00, 0x00, 0x00, 0x00, 0x00, 0x00, 0x00, 0x00, 0x00, 0x00, 0x00, 0x00,
  0x03, 0x00, 0x00, 0x00, 0x39, 0x21, 0x4c, 0x3b, 0x13, 0x66, 0x32, 0x3b,
  0x97, 0x2c, 0x6a, 0x3b, 0x67, 0x00, 0x00, 0x00, 0x73, 0x65, 0x71, 0x75,
  0x65, 0x6e, 0x74, 0x69, 0x61, 0x6c, 0x2f, 0x71, 0x75, 0x61, 0x6e, 0x74,
  0x5f, 0x63, 0x6f, 0x6e, 0x76, 0x32, 0x64, 0x2f, 0x43, 0x6f, 0x6e, 0x76,
  0x32, 0x44, 0x3b, 0x73, 0x65, 0x71, 0x75, 0x65, 0x6e, 0x74, 0x69, 0x61,
  0x6c, 0x2f, 0x71, 0x75, 0x61, 0x6e, 0x74, 0x5f, 0x63, 0x6f, 0x6e, 0x76,
  0x32, 0x64, 0x2f, 0x4c, 0x61, 0x73, 0x74, 0x56, 0x61, 0x6c, 0x75, 0x65,
  0x51, 0x75, 0x61, 0x6e, 0x74, 0x2f, 0x46, 0x61, 0x6b, 0x65, 0x51, 0x75,
  0x61, 0x6e, 0x74, 0x57, 0x69, 0x74, 0x68, 0x4d, 0x69, 0x6e, 0x4d, 0x61,
  0x78, 0x56, 0x61, 0x72, 0x73, 0x50, 0x65, 0x72, 0x43, 0x68, 0x61, 0x6e,
  0x6e, 0x65, 0x6c, 0x00, 0x04, 0x00, 0x00, 0x00, 0x03, 0x00, 0x00, 0x00,
  0x03, 0x00, 0x00, 0x00, 0x03, 0x00, 0x00, 0x00, 0x01, 0x00, 0x00, 0x00,
  0x00, 0x00, 0x16, 0x00, 0x20, 0x00, 0x1c, 0x00, 0x1b, 0x00, 0x14, 0x00,
  0x10, 0x00, 0x0c, 0x00, 0x00, 0x00, 0x00, 0x00, 0x08, 0x00, 0x07, 0x00,
  0x16, 0x00, 0x00, 0x00, 0x00, 0x00, 0x00, 0x01, 0x18, 0x00, 0x00, 0x00,
  0x28, 0x00, 0x00, 0x00, 0x44, 0x00, 0x00, 0x00, 0x05, 0x00, 0x00, 0x00,
  0x00, 0x00, 0x00, 0x09, 0x28, 0x01, 0x00, 0x00, 0x04, 0x00, 0x00, 0x00,
  0xff, 0xff, 0xff, 0xff, 0x28, 0x00, 0x00, 0x00, 0x28, 0x00, 0x00, 0x00,
  0x01, 0x00, 0x00, 0x00, 0x44, 0xfe, 0xff, 0xff, 0x08, 0x00, 0x00, 0x00,
  0x10, 0x00, 0x00, 0x00, 0x01, 0x00, 0x00, 0x00, 0x80, 0xff, 0xff, 0xff,
  0xff, 0xff, 0xff, 0xff, 0x01, 0x00, 0x00, 0x00, 0x00, 0x00, 0x80, 0x3f,
  0xeb, 0x00, 0x00, 0x00, 0x73, 0x65, 0x71, 0x75, 0x65, 0x6e, 0x74, 0x69,
  0x61, 0x6c, 0x2f, 0x71, 0x75, 0x61, 0x6e, 0x74, 0x69, 0x7a, 0x65, 0x5f,
  0x6c, 0x61, 0x79, 0x65, 0x72, 0x2f, 0x41, 0x6c, 0x6c, 0x56, 0x61, 0x6c,
  0x75, 0x65, 0x73, 0x51, 0x75, 0x61, 0x6e, 0x74, 0x69, 0x7a, 0x65, 0x2f,
  0x46, 0x61, 0x6b, 0x65, 0x51, 0x75, 0x61, 0x6e, 0x74, 0x57, 0x69, 0x74,
  0x68, 0x4d, 0x69, 0x6e, 0x4d, 0x61, 0x78, 0x56, 0x61, 0x72, 0x73, 0x3b,
  0x73, 0x65, 0x71, 0x75, 0x65, 0x6e, 0x74, 0x69, 0x61, 0x6c, 0x2f, 0x71,
  0x75, 0x61, 0x6e, 0x74, 0x69, 0x7a, 0x65, 0x5f, 0x6c, 0x61, 0x79, 0x65,
  0x72, 0x2f, 0x41, 0x6c, 0x6c, 0x56, 0x61, 0x6c, 0x75, 0x65, 0x73, 0x51,
  0x75, 0x61, 0x6e, 0x74, 0x69, 0x7a, 0x65, 0x2f, 0x46, 0x61, 0x6b, 0x65,
  0x51, 0x75, 0x61, 0x6e, 0x74, 0x57, 0x69, 0x74, 0x68, 0x4d, 0x69, 0x6e,
  0x4d, 0x61, 0x78, 0x56, 0x61, 0x72, 0x73, 0x2f, 0x52, 0x65, 0x61, 0x64,
  0x56, 0x61, 0x72, 0x69, 0x61, 0x62, 0x6c, 0x65, 0x4f, 0x70, 0x3b, 0x73,
  0x65, 0x71, 0x75, 0x65, 0x6e, 0x74, 0x69, 0x61, 0x6c, 0x2f, 0x71, 0x75,
  0x61, 0x6e, 0x74, 0x69, 0x7a, 0x65, 0x5f, 0x6c, 0x61, 0x79, 0x65, 0x72,
  0x2f, 0x41, 0x6c, 0x6c, 0x56, 0x61, 0x6c, 0x75, 0x65, 0x73, 0x51, 0x75,
  0x61, 0x6e, 0x74, 0x69, 0x7a, 0x65, 0x2f, 0x46, 0x61, 0x6b, 0x65, 0x51,
  0x75, 0x61, 0x6e, 0x74, 0x57, 0x69, 0x74, 0x68, 0x4d, 0x69, 0x6e, 0x4d,
  0x61, 0x78, 0x56, 0x61, 0x72, 0x73, 0x2f, 0x52, 0x65, 0x61, 0x64, 0x56,
  0x61, 0x72, 0x69, 0x61, 0x62, 0x6c, 0x65, 0x4f, 0x70, 0x5f, 0x31, 0x00,
  0x04, 0x00, 0x00, 0x00, 0x01, 0x00, 0x00, 0x00, 0x28, 0x00, 0x00, 0x00,
  0x28, 0x00, 0x00, 0x00, 0x01, 0x00, 0x00, 0x00, 0xe6, 0xfe, 0xff, 0xff,
  0x00, 0x00, 0x00, 0x01, 0x14, 0x00, 0x00, 0x00, 0x34, 0x00, 0x00, 0x00,
  0x04, 0x00, 0x00, 0x00, 0x00, 0x00, 0x00, 0x02, 0x5c, 0x00, 0x00, 0x00,
  0x84, 0xff, 0xff, 0xff, 0x08, 0x00, 0x00, 0x00, 0x14, 0x00, 0x00, 0x00,
  0x01, 0x00, 0x00, 0x00, 0x00, 0x00, 0x00, 0x00, 0x00, 0x00, 0x00, 0x00,
  0x00, 0x00, 0x00, 0x00, 0x01, 0x00, 0x00, 0x00, 0x70, 0x2b, 0xa4, 0x38,
  0x2d, 0x00, 0x00, 0x00, 0x73, 0x65, 0x71, 0x75, 0x65, 0x6e, 0x74, 0x69,
  0x61, 0x6c, 0x2f, 0x71, 0x75, 0x61, 0x6e, 0x74, 0x5f, 0x64, 0x65, 0x6e,
  0x73, 0x65, 0x2f, 0x42, 0x69, 0x61, 0x73, 0x41, 0x64, 0x64, 0x2f, 0x52,
  0x65, 0x61, 0x64, 0x56, 0x61, 0x72, 0x69, 0x61, 0x62, 0x6c, 0x65, 0x4f,
  0x70, 0x00, 0x00, 0x00, 0x01, 0x00, 0x00, 0x00, 0x03, 0x00, 0x00, 0x00,
  0x62, 0xff, 0xff, 0xff, 0x00, 0x00, 0x00, 0x01, 0x20, 0x00, 0x00, 0x00,
  0x54, 0x00, 0x00, 0x00, 0x03, 0x00, 0x00, 0x00, 0x00, 0x00, 0x00, 0x02,
  0x7c, 0x00, 0x00, 0x00, 0x0c, 0x00, 0x0c, 0x00, 0x00, 0x00, 0x00, 0x00,
  0x08, 0x00, 0x04, 0x00, 0x0c, 0x00, 0x00, 0x00, 0x08, 0x00, 0x00, 0x00,
  0x20, 0x00, 0x00, 0x00, 0x03, 0x00, 0x00, 0x00, 0x00, 0x00, 0x00, 0x00,
  0x00, 0x00, 0x00, 0x00, 0x00, 0x00, 0x00, 0x00, 0x00, 0x00, 0x00, 0x00,
  0x00, 0x00, 0x00, 0x00, 0x00, 0x00, 0x00, 0x00, 0x03, 0x00, 0x00, 0x00,
  0x39, 0x21, 0x4c, 0x3b, 0x13, 0x66, 0x32, 0x3b, 0x97, 0x2c, 0x6a, 0x3b,
  0x2e, 0x00, 0x00, 0x00, 0x73, 0x65, 0x71, 0x75, 0x65, 0x6e, 0x74, 0x69,
  0x61, 0x6c, 0x2f, 0x71, 0x75, 0x61, 0x6e, 0x74, 0x5f, 0x63, 0x6f, 0x6e,
  0x76, 0x32, 0x64, 0x2f, 0x42, 0x69, 0x61, 0x73, 0x41, 0x64, 0x64, 0x2f,
  0x52, 0x65, 0x61, 0x64, 0x56, 0x61, 0x72, 0x69, 0x61, 0x62, 0x6c, 0x65,
  0x4f, 0x70, 0x00, 0x00, 0x01, 0x00, 0x00, 0x00, 0x03, 0x00, 0x00, 0x00,
  0x00, 0x00, 0x16, 0x00, 0x1c, 0x00, 0x18, 0x00, 0x17, 0x00, 0x10, 0x00,
  0x0c, 0x00, 0x08, 0x00, 0x00, 0x00, 0x00, 0x00, 0x00, 0x00, 0x07, 0x00,
  0x16, 0x00, 0x00, 0x00, 0x00, 0x00, 0x00, 0x01, 0x14, 0x00, 0x00, 0x00,
  0x14, 0x00, 0x00, 0x00, 0x02, 0x00, 0x00, 0x00, 0x00, 0x00, 0x00, 0x02,
  0x2c, 0x00, 0x00, 0x00, 0x88, 0xff, 0xff, 0xff, 0x1e, 0x00, 0x00, 0x00,
  0x73, 0x65, 0x71, 0x75, 0x65, 0x6e, 0x74, 0x69, 0x61, 0x6c, 0x2f, 0x71,
  0x75, 0x61, 0x6e, 0x74, 0x5f, 0x66, 0x6c, 0x61, 0x74, 0x74, 0x65, 0x6e,
  0x2f, 0x43, 0x6f, 0x6e, 0x73, 0x74, 0x00, 0x00, 0x01, 0x00, 0x00, 0x00,
  0x02, 0x00, 0x00, 0x00, 0x00, 0x00, 0x16, 0x00, 0x1c, 0x00, 0x18, 0x00,
  0x00, 0x00, 0x14, 0x00, 0x10, 0x00, 0x0c, 0x00, 0x00, 0x00, 0x00, 0x00,
  0x08, 0x00, 0x07, 0x00, 0x16, 0x00, 0x00, 0x00, 0x00, 0x00, 0x00, 0x01,
  0x14, 0x00, 0x00, 0x00, 0x28, 0x00, 0x00, 0x00, 0x28, 0x00, 0x00, 0x00,
  0x01, 0x00, 0x00, 0x00, 0x44, 0x00, 0x00, 0x00, 0x04, 0x00, 0x00, 0x00,
  0xff, 0xff, 0xff, 0xff, 0x28, 0x00, 0x00, 0x00, 0x28, 0x00, 0x00, 0x00,
  0x01, 0x00, 0x00, 0x00, 0x04, 0x00, 0x04, 0x00, 0x04, 0x00, 0x00, 0x00,
  0x1e, 0x00, 0x00, 0x00, 0x73, 0x65, 0x72, 0x76, 0x69, 0x6e, 0x67, 0x5f,
  0x64, 0x65, 0x66, 0x61, 0x75, 0x6c, 0x74, 0x5f, 0x63, 0x6f, 0x6e, 0x76,
  0x32, 0x64, 0x5f, 0x69, 0x6e, 0x70, 0x75, 0x74, 0x3a, 0x30, 0x00, 0x00,
  0x04, 0x00, 0x00, 0x00, 0x01, 0x00, 0x00, 0x00, 0x28, 0x00, 0x00, 0x00,
  0x28, 0x00, 0x00, 0x00, 0x01, 0x00, 0x00, 0x00, 0x07, 0x00, 0x00, 0x00,
  0x90, 0x00, 0x00, 0x00, 0x70, 0x00, 0x00, 0x00, 0x50, 0x00, 0x00, 0x00,
  0x40, 0x00, 0x00, 0x00, 0x2c, 0x00, 0x00, 0x00, 0x18, 0x00, 0x00, 0x00,
  0x04, 0x00, 0x00, 0x00, 0xb4, 0xff, 0xff, 0xff, 0x06, 0x00, 0x00, 0x00,
  0x02, 0x00, 0x00, 0x00, 0x00, 0x00, 0x00, 0x06, 0xc4, 0xff, 0xff, 0xff,
  0x19, 0x00, 0x00, 0x00, 0x02, 0x00, 0x00, 0x00, 0x00, 0x00, 0x00, 0x19,
  0xd4, 0xff, 0xff, 0xff, 0x09, 0x00, 0x00, 0x00, 0x04, 0x00, 0x00, 0x00,
  0x00, 0x00, 0x00, 0x09, 0xc8, 0xff, 0xff, 0xff, 0x16, 0x00, 0x00, 0x00,
  0x00, 0x00, 0x00, 0x16, 0xf0, 0xff, 0xff, 0xff, 0x11, 0x00, 0x00, 0x00,
  0x02, 0x00, 0x00, 0x00, 0x00, 0x00, 0x00, 0x11, 0x0c, 0x00, 0x10, 0x00,
  0x0f, 0x00, 0x00, 0x00, 0x08, 0x00, 0x04, 0x00, 0x0c, 0x00, 0x00, 0x00,
  0x03, 0x00, 0x00, 0x00, 0x03, 0x00, 0x00, 0x00, 0x00, 0x00, 0x00, 0x03,
  0x0c, 0x00, 0x0c, 0x00, 0x0b, 0x00, 0x00, 0x00, 0x00, 0x00, 0x04, 0x00,
  0x0c, 0x00, 0x00, 0x00, 0x72, 0x00, 0x00, 0x00, 0x00, 0x00, 0x00, 0x72
 
};

#endif //MODEL.H_H