#ifndef MODEL.H_H
#define MODEL.H_H


const unsigned int model.h_len = 4856;
const unsigned char model.h[] = {
 0x20, 0x00, 0x00, 0x00, 0x54, 0x46, 0x4c, 0x33, 0x00, 0x00, 0x00, 0x00,
  0x14, 0x00, 0x20, 0x00, 0x1c, 0x00, 0x18, 0x00, 0x14, 0x00, 0x10, 0x00,
  0x0c, 0x00, 0x00, 0x00, 0x08, 0x00, 0x04, 0x00, 0x14, 0x00, 0x00, 0x00,
  0x1c, 0x00, 0x00, 0x00, 0x88, 0x00, 0x00, 0x00, 0xe0, 0x00, 0x00, 0x00,
  0x3c, 0x0a, 0x00, 0x00, 0x4c, 0x0a, 0x00, 0x00, 0x44, 0x12, 0x00, 0x00,
  0x03, 0x00, 0x00, 0x00, 0x01, 0x00, 0x00, 0x00, 0x04, 0x00, 0x00, 0x00,
  0x06, 0xf5, 0xff, 0xff, 0x0c, 0x00, 0x00, 0x00, 0x1c, 0x00, 0x00, 0x00,
  0x38, 0x00, 0x00, 0x00, 0x0f, 0x00, 0x00, 0x00, 0x73, 0x65, 0x72, 0x76,
  0x69, 0x6e, 0x67, 0x5f, 0x64, 0x65, 0x66, 0x61, 0x75, 0x6c, 0x74, 0x00,
  0x01, 0x00, 0x00, 0x00, 0x04, 0x00, 0x00, 0x00, 0x94, 0xff, 0xff, 0xff,
  0x0a, 0x00, 0x00, 0x00, 0x04, 0x00, 0x00, 0x00, 0x05, 0x00, 0x00, 0x00,
  0x64, 0x65, 0x6e, 0x73, 0x65, 0x00, 0x00, 0x00, 0x01, 0x00, 0x00, 0x00,
  0x04, 0x00, 0x00, 0x00, 0xa6, 0xf5, 0xff, 0xff, 0x04, 0x00, 0x00, 0x00,
  0x0c, 0x00, 0x00, 0x00, 0x63, 0x6f, 0x6e, 0x76, 0x32, 0x64, 0x5f, 0x69,
  0x6e, 0x70, 0x75, 0x74, 0x00, 0x00, 0x00, 0x00, 0x02, 0x00, 0x00, 0x00,
  0x34, 0x00, 0x00, 0x00, 0x04, 0x00, 0x00, 0x00, 0xdc, 0xff, 0xff, 0xff,
  0x0d, 0x00, 0x00, 0x00, 0x04, 0x00, 0x00, 0x00, 0x13, 0x00, 0x00, 0x00,
  0x43, 0x4f, 0x4e, 0x56, 0x45, 0x52, 0x53, 0x49, 0x4f, 0x4e, 0x5f, 0x4d,
  0x45, 0x54, 0x41, 0x44, 0x41, 0x54, 0x41, 0x00, 0x08, 0x00, 0x0c, 0x00,
  0x08, 0x00, 0x04, 0x00, 0x08, 0x00, 0x00, 0x00, 0x0c, 0x00, 0x00, 0x00,
  0x04, 0x00, 0x00, 0x00, 0x13, 0x00, 0x00, 0x00, 0x6d, 0x69, 0x6e, 0x5f,
  0x72, 0x75, 0x6e, 0x74, 0x69, 0x6d, 0x65, 0x5f, 0x76, 0x65, 0x72, 0x73,
  0x69, 0x6f, 0x6e, 0x00, 0x0e, 0x00, 0x00, 0x00, 0x58, 0x09, 0x00, 0x00,
  0x50, 0x09, 0x00, 0x00, 0x38, 0x09, 0x00, 0x00, 0x1c, 0x09, 0x00, 0x00,
  0x08, 0x01, 0x00, 0x00, 0xe8, 0x00, 0x00, 0x00, 0xb4, 0x00, 0x00, 0x00,
  0xac, 0x00, 0x00, 0x00, 0xa4, 0x00, 0x00, 0x00, 0x9c, 0x00, 0x00, 0x00,
  0x94, 0x00, 0x00, 0x00, 0x8c, 0x00, 0x00, 0x00, 0x6c, 0x00, 0x00, 0x00,
  0x04, 0x00, 0x00, 0x00, 0x5a, 0xf6, 0xff, 0xff, 0x04, 0x00, 0x00, 0x00,
  0x58, 0x00, 0x00, 0x00, 0x0c, 0x00, 0x00, 0x00, 0x08, 0x00, 0x0e, 0x00,
  0x08, 0x00, 0x04, 0x00, 0x08, 0x00, 0x00, 0x00, 0x10, 0x00, 0x00, 0x00,
  0x28, 0x00, 0x00, 0x00, 0x00, 0x00, 0x06, 0x00, 0x08, 0x00, 0x04, 0x00,
  0x06, 0x00, 0x00, 0x00, 0x04, 0x00, 0x00, 0x00, 0x01, 0x00, 0x00, 0x00,
  0xeb, 0x03, 0x00, 0x00, 0x00, 0x00, 0x0a, 0x00, 0x10, 0x00, 0x0c, 0x00,
  0x08, 0x00, 0x04, 0x00, 0x0a, 0x00, 0x00, 0x00, 0x02, 0x00, 0x00, 0x00,
  0x02, 0x00, 0x00, 0x00, 0x04, 0x00, 0x00, 0x00, 0x06, 0x00, 0x00, 0x00,
  0x32, 0x2e, 0x31, 0x35, 0x2e, 0x30, 0x00, 0x00, 0xbe, 0xf6, 0xff, 0xff,
  0x04, 0x00, 0x00, 0x00, 0x10, 0x00, 0x00, 0x00, 0x31, 0x2e, 0x31, 0x34,
  0x2e, 0x30, 0x00, 0x00, 0x00, 0x00, 0x00, 0x00, 0x00, 0x00, 0x00, 0x00,
  0x30, 0xf0, 0xff, 0xff, 0x34, 0xf0, 0xff, 0xff, 0x38, 0xf0, 0xff, 0xff,
  0x3c, 0xf0, 0xff, 0xff, 0x40, 0xf0, 0xff, 0xff, 0xee, 0xf6, 0xff, 0xff,
  0x04, 0x00, 0x00, 0x00, 0x24, 0x00, 0x00, 0x00, 0xbf, 0x1a, 0xcd, 0x7d,
  0x81, 0x61, 0xb7, 0x69, 0xb3, 0xa5, 0x93, 0x39, 0x81, 0x19, 0x00, 0x16,
  0x6a, 0x0b, 0xa5, 0x16, 0x06, 0x92, 0x7f, 0xab, 0x99, 0xf3, 0x2c, 0x1d,
  0x43, 0x81, 0x42, 0x01, 0xbf, 0xe4, 0x99, 0x48, 0x1e, 0xf7, 0xff, 0xff,
  0x04, 0x00, 0x00, 0x00, 0x10, 0x00, 0x00, 0x00, 0x2c, 0x00, 0x00, 0x00,
  0xeb, 0xff, 0xff, 0xff, 0x16, 0x00, 0x00, 0x00, 0xf2, 0xff, 0xff, 0xff,
  0x3a, 0xf7, 0xff, 0xff, 0x04, 0x00, 0x00, 0x00, 0x04, 0x08, 0x00, 0x00,
  0xb3, 0xdc, 0x07, 0xd6, 0xf3, 0xfe, 0xd2, 0x1c, 0xcc, 0xd7, 0x13, 0xc8,
  0x4f, 0xca, 0x9b, 0xff, 0x1e, 0xf7, 0x21, 0x23, 0x24, 0x25, 0x0a, 0xf7,
  0x08, 0x0d, 0xca, 0xdb, 0x65, 0x2b, 0x20, 0x25, 0x57, 0xc5, 0x06, 0xee,
  0x17, 0xc4, 0xd6, 0xf0, 0x35, 0xc9, 0xf3, 0x22, 0x0d, 0x25, 0x1c, 0x0f,
  0xf5, 0xe7, 0xcf, 0x0c, 0xc5, 0xc3, 0x30, 0x15, 0x37, 0xcc, 0xee, 0x0d,
  0xd9, 0xd8, 0xd4, 0x1f, 0x1f, 0xc3, 0x0c, 0xd3, 0xf4, 0xc9, 0xe8, 0xef,
  0x43, 0xd8, 0xe8, 0xfb, 0xe7, 0xef, 0x9f, 0xe9, 0xf9, 0xef, 0xf5, 0xcb,
  0xdb, 0xe7, 0x23, 0x27, 0xf9, 0x00, 0xd3, 0x19, 0xc6, 0xc4, 0x08, 0x06,
  0xdf, 0x13, 0xeb, 0xfe, 0x20, 0x0f, 0x0a, 0xd4, 0x40, 0xea, 0x24, 0xcd,
  0x14, 0xcc, 0xce, 0xe2, 0xaf, 0x14, 0x04, 0x09, 0x34, 0xdb, 0xef, 0x08,
  0x07, 0x1a, 0xd8, 0xca, 0x0e, 0x10, 0xfd, 0xd8, 0xf8, 0xe0, 0xe4, 0x05,
  0xf5, 0xfa, 0x0e, 0x00, 0x04, 0xff, 0xee, 0xd9, 0xea, 0xe7, 0x0a, 0xc8,
  0x22, 0x34, 0xfb, 0xe4, 0xe8, 0xfd, 0xf1, 0xd1, 0x47, 0x0d, 0xde, 0x29,
  0x0d, 0xe6, 0xd2, 0x01, 0xe7, 0x21, 0xd8, 0xea, 0xfa, 0x27, 0x2f, 0x01,
  0xc6, 0xe2, 0xcd, 0x0f, 0x45, 0xf2, 0x07, 0x1f, 0x22, 0xd8, 0x22, 0x04,
  0x1c, 0xf8, 0xf0, 0x0a, 0xae, 0xc6, 0x05, 0xcf, 0x4a, 0xe3, 0xe0, 0x2a,
  0x09, 0x25, 0xef, 0x19, 0xaf, 0x11, 0xd0, 0xd7, 0xd9, 0xf6, 0xf2, 0xed,
  0xca, 0xfe, 0x2f, 0x19, 0x9b, 0xef, 0xc9, 0x20, 0xe4, 0xd5, 0xcc, 0x21,
  0xf2, 0x24, 0xd4, 0x0e, 0x02, 0x03, 0x1d, 0x2b, 0x4b, 0x2f, 0x17, 0xd5,
  0x2a, 0xed, 0xd5, 0x2c, 0x81, 0xee, 0x04, 0xfb, 0x16, 0xe3, 0xd0, 0x23,
  0x03, 0xe0, 0xdd, 0x08, 0x4c, 0xf4, 0xf4, 0xde, 0xf9, 0xc6, 0x2a, 0xd3,
  0x50, 0x09, 0xeb, 0xe4, 0x19, 0xf4, 0x25, 0xef, 0x50, 0x31, 0xcf, 0xd6,
  0x5c, 0xeb, 0xce, 0xda, 0x27, 0xf5, 0x91, 0x21, 0x25, 0x0f, 0xd8, 0x22,
  0x1b, 0x28, 0xd8, 0xf8, 0xfc, 0x1e, 0xe6, 0xe1, 0xd4, 0xf2, 0xed, 0xf3,
  0x24, 0xea, 0x21, 0xd2, 0x3a, 0xf2, 0xec, 0xe8, 0x0c, 0xd9, 0x00, 0xd7,
  0x12, 0xe9, 0x18, 0x26, 0x22, 0xf2, 0xe7, 0x30, 0xf9, 0xdc, 0xed, 0xcd,
  0xd3, 0x04, 0xd4, 0x16, 0x48, 0xd1, 0x05, 0x08, 0xfc, 0xd2, 0x0a, 0x1a,
  0xd1, 0x13, 0xd7, 0xc5, 0xd6, 0x1a, 0xc3, 0xe2, 0x00, 0xcb, 0x25, 0xcd,
  0x0f, 0xde, 0xf0, 0x19, 0x33, 0x0b, 0xd8, 0x12, 0x5d, 0xe5, 0x10, 0xf9,
  0x11, 0xdf, 0xfc, 0xe8, 0x27, 0xc6, 0x26, 0x1b, 0x17, 0xf1, 0x15, 0x0b,
  0xbd, 0x01, 0xc0, 0x04, 0xee, 0xc7, 0x25, 0x11, 0xe3, 0xdc, 0x17, 0xd2,
  0xbc, 0x07, 0x17, 0xca, 0x02, 0xc3, 0xbe, 0xfb, 0x50, 0xcd, 0xf5, 0x0b,
  0xca, 0xfe, 0xda, 0x0f, 0xf3, 0xf4, 0x0a, 0x0d, 0xdc, 0xe7, 0x05, 0xeb,
  0x16, 0xdf, 0x8b, 0xf6, 0x18, 0xe8, 0xec, 0x20, 0x2f, 0x10, 0x29, 0xfd,
  0x2c, 0xfe, 0x0d, 0xe0, 0xe7, 0x26, 0x1b, 0x0f, 0x47, 0x10, 0xbd, 0xe9,
  0xf9, 0x14, 0x25, 0xde, 0x2a, 0xef, 0xc1, 0xc4, 0x1d, 0x23, 0x0f, 0xe5,
  0x2a, 0x17, 0xaa, 0x20, 0x13, 0x0b, 0xd8, 0xf2, 0x1a, 0xd0, 0xf5, 0xc3,
  0xec, 0x1c, 0xe2, 0xc8, 0x20, 0x14, 0xec, 0x2b, 0x11, 0x1d, 0x18, 0xfb,
  0xfc, 0xe0, 0xe2, 0xd4, 0xb6, 0xc5, 0xaa, 0xf5, 0xd1, 0x08, 0x1e, 0x1e,
  0xc4, 0xd3, 0x06, 0xc9, 0x1a, 0x0f, 0xe8, 0xec, 0xc9, 0xdb, 0xed, 0x0e,
  0xd9, 0x18, 0xef, 0xf8, 0xf3, 0x15, 0x03, 0x19, 0xf8, 0x10, 0xf6, 0x04,
  0x3f, 0x02, 0xfb, 0xd8, 0xee, 0xea, 0xbe, 0xcb, 0x07, 0x06, 0x28, 0x0d,
  0x09, 0xfd, 0x17, 0xe3, 0xd0, 0x1c, 0xc8, 0x1e, 0xcb, 0x19, 0xe7, 0xeb,
  0x19, 0xf4, 0xd2, 0x10, 0xc8, 0xcc, 0xcd, 0x04, 0xcf, 0xed, 0x15, 0xd5,
  0xfb, 0xec, 0xd5, 0x22, 0xe0, 0x24, 0xe7, 0xca, 0xfd, 0xd4, 0xd9, 0x0b,
  0x05, 0x25, 0x2b, 0x1a, 0xd4, 0xd9, 0xc7, 0x11, 0x16, 0x1b, 0xdd, 0xef,
  0xf6, 0x26, 0x16, 0x16, 0xc2, 0xcf, 0x30, 0x16, 0x35, 0xcf, 0xd0, 0xe3,
  0xdd, 0x18, 0xee, 0x14, 0x29, 0xe4, 0xfa, 0xf3, 0xdc, 0x07, 0xf2, 0x22,
  0x2e, 0xe7, 0xfe, 0xca, 0xc9, 0x02, 0xfe, 0xd7, 0xea, 0xe7, 0xd5, 0x0b,
  0x00, 0xfc, 0xad, 0xc5, 0xd2, 0x1f, 0x1b, 0x1c, 0x1a, 0xfd, 0x0d, 0x0f,
  0xfe, 0xeb, 0x6b, 0x23, 0xe6, 0xde, 0xa3, 0xc3, 0x24, 0x18, 0x2f, 0xef,
  0xc2, 0xfa, 0x0e, 0x11, 0xdb, 0xc3, 0xe1, 0xf5, 0x8c, 0x23, 0xfc, 0xdf,
  0xbd, 0xc9, 0xb3, 0x12, 0xf0, 0xdc, 0xed, 0xf6, 0xd3, 0xdd, 0x03, 0x22,
  0x87, 0xcc, 0xe5, 0xee, 0xba, 0xe4, 0x1f, 0x04, 0xbe, 0xfa, 0x11, 0xc7,
  0xb2, 0xe3, 0x0e, 0x24, 0xd6, 0x23, 0xcf, 0x2b, 0xba, 0x22, 0xde, 0x22,
  0x0d, 0xe0, 0xc2, 0x10, 0xe4, 0xf5, 0xb7, 0x24, 0xf7, 0xd8, 0x0b, 0x0c,
  0x46, 0xd7, 0x23, 0x27, 0xc0, 0x07, 0xe4, 0x11, 0x10, 0xd6, 0xd0, 0x23,
  0xc9, 0xfb, 0x02, 0x12, 0x39, 0xe3, 0xc8, 0x09, 0xe9, 0x00, 0x32, 0xd9,
  0xf2, 0x20, 0x17, 0x25, 0xcb, 0xf7, 0x21, 0xde, 0xf8, 0x34, 0xef, 0x06,
  0x06, 0x1e, 0x22, 0xea, 0xee, 0xfe, 0xc6, 0xdd, 0x3a, 0x24, 0xe0, 0xff,
  0xf8, 0xee, 0x04, 0xef, 0xf9, 0x18, 0x11, 0x07, 0xc3, 0x04, 0x1f, 0xfa,
  0xec, 0x1c, 0xdc, 0x0e, 0xc0, 0x23, 0x30, 0xf0, 0x3d, 0x12, 0xfa, 0x07,
  0xe9, 0x18, 0xfb, 0x1d, 0xe0, 0x36, 0xf8, 0xff, 0xee, 0xea, 0xed, 0xe9,
  0xe7, 0x15, 0xec, 0xf2, 0x17, 0x19, 0x10, 0x2e, 0x2c, 0xf6, 0x18, 0x10,
  0xf2, 0x06, 0x0c, 0x05, 0xff, 0xf4, 0x21, 0x01, 0xe0, 0xe4, 0xfa, 0xf0,
  0xf4, 0xe3, 0x3b, 0x33, 0x3e, 0x3a, 0x20, 0x00, 0x22, 0xec, 0x2e, 0xe9,
  0x34, 0xc8, 0xf9, 0xfb, 0xcf, 0xee, 0x23, 0xde, 0xed, 0xdc, 0x17, 0x29,
  0xed, 0xfb, 0x11, 0xea, 0x02, 0xf3, 0xba, 0x00, 0xdd, 0xcb, 0x26, 0x06,
  0x00, 0xcd, 0xf5, 0xff, 0x07, 0xdd, 0x05, 0x27, 0xff, 0xdb, 0xfa, 0xfb,
  0xe6, 0xe1, 0xea, 0x21, 0xfe, 0x2b, 0xf8, 0xeb, 0xf4, 0xfa, 0xed, 0x11,
  0x26, 0x2a, 0xeb, 0xef, 0xf0, 0x11, 0x1c, 0xe2, 0xd0, 0xf7, 0xe0, 0x27,
  0x40, 0x17, 0x36, 0xf9, 0x4c, 0x25, 0x00, 0xf7, 0x11, 0xfd, 0xe5, 0xf0,
  0x09, 0x04, 0x23, 0x27, 0x25, 0xf7, 0x0c, 0x20, 0xf1, 0xda, 0x10, 0xeb,
  0xbc, 0xeb, 0x27, 0x10, 0xfa, 0x1c, 0xd2, 0xfd, 0xd7, 0x21, 0x0b, 0x02,
  0xec, 0xed, 0x1c, 0xf5, 0xf0, 0xfd, 0xd1, 0xf2, 0x0e, 0x08, 0xf3, 0x20,
  0x2d, 0xd3, 0x07, 0x1b, 0x14, 0x23, 0xfe, 0x0a, 0x14, 0x00, 0xe2, 0x19,
  0x45, 0x11, 0xdf, 0x13, 0x06, 0xea, 0x29, 0x07, 0xfe, 0x08, 0x28, 0x2b,
  0xf4, 0x2f, 0x21, 0xd5, 0x17, 0xdf, 0x0a, 0xef, 0x01, 0xd7, 0x12, 0xd3,
  0xc2, 0xe2, 0xf2, 0xfb, 0x1a, 0xc0, 0x18, 0xfe, 0x09, 0x06, 0x1a, 0x1c,
  0xf4, 0x19, 0xe4, 0x08, 0xb8, 0xf1, 0x2b, 0x2f, 0x3f, 0xf8, 0xd3, 0xfb,
  0xd9, 0x2c, 0x4d, 0x28, 0x22, 0xbe, 0xcb, 0x04, 0x04, 0x0e, 0x3a, 0x25,
  0xe9, 0x27, 0xd9, 0xe3, 0x1f, 0x02, 0xf7, 0xf5, 0xfe, 0x01, 0x02, 0x29,
  0x19, 0x27, 0xe5, 0x00, 0x34, 0xff, 0x15, 0x30, 0xfd, 0x0d, 0xdd, 0x10,
  0xd0, 0xd7, 0xf8, 0xfd, 0x16, 0xef, 0xff, 0xf6, 0xe4, 0xf3, 0xf9, 0x05,
  0x0d, 0xdd, 0x51, 0x0e, 0xf8, 0xf3, 0x20, 0x16, 0x09, 0xe7, 0x10, 0xfc,
  0xd7, 0x26, 0x14, 0xf7, 0x22, 0x03, 0xe2, 0x2c, 0xf8, 0x02, 0xe2, 0x0c,
  0x06, 0x07, 0xd9, 0xdc, 0xcf, 0xe1, 0x2f, 0xea, 0xf2, 0xf1, 0xd4, 0x2d,
  0x27, 0xea, 0x06, 0xde, 0xfc, 0x08, 0xee, 0x0c, 0xf1, 0x38, 0xd7, 0xf3,
  0xce, 0xf5, 0xf4, 0xef, 0x19, 0x33, 0x26, 0x32, 0xf9, 0xfc, 0xe8, 0x18,
  0xc7, 0x3d, 0xee, 0xdf, 0xdf, 0xf8, 0x0c, 0xeb, 0xfb, 0x04, 0xc3, 0x0b,
  0x3b, 0x12, 0x38, 0xf7, 0xd9, 0x14, 0x3b, 0xe2, 0xa8, 0x21, 0x15, 0xfb,
  0xeb, 0x0b, 0x00, 0x2d, 0xe3, 0x17, 0x2d, 0x35, 0xe1, 0xe9, 0x0f, 0x0b,
  0xee, 0x0c, 0x0e, 0x04, 0xfd, 0x1f, 0x43, 0xdd, 0x09, 0xf8, 0xf3, 0xdd,
  0xc7, 0xe2, 0xee, 0x00, 0xda, 0xf0, 0x19, 0xec, 0xef, 0x40, 0x04, 0x14,
  0xfc, 0xed, 0xee, 0x07, 0xe6, 0x1f, 0x0e, 0xe4, 0xb7, 0x1a, 0x24, 0xd3,
  0xec, 0xfb, 0x05, 0xfb, 0xd7, 0x1d, 0x36, 0xfd, 0xe3, 0x02, 0xe0, 0x2c,
  0xea, 0x0f, 0x41, 0x0f, 0xf5, 0x1b, 0xec, 0x1e, 0x2f, 0xf7, 0x0a, 0x43,
  0xf6, 0x32, 0xd3, 0x24, 0xff, 0x33, 0x21, 0xea, 0xe7, 0x17, 0xf4, 0xde,
  0x4f, 0xf6, 0x3a, 0x15, 0xc6, 0xfd, 0x2f, 0x2b, 0xb6, 0xf5, 0x28, 0x25,
  0xda, 0x20, 0x26, 0xc8, 0x02, 0xe3, 0x30, 0xfc, 0xbe, 0x21, 0xd8, 0xf7,
  0xec, 0x1e, 0x22, 0x20, 0xdc, 0x20, 0xff, 0x1c, 0xf6, 0x1f, 0x03, 0x20,
  0x07, 0x13, 0x23, 0x2f, 0x1b, 0x40, 0x08, 0xef, 0x8e, 0x3d, 0x33, 0x1a,
  0xb9, 0xc5, 0xcd, 0xe7, 0xb6, 0x25, 0x1c, 0xf0, 0x0d, 0x0b, 0xc2, 0x16,
  0x36, 0x1d, 0x30, 0xe3, 0xc4, 0xe4, 0x00, 0x30, 0xcb, 0xe3, 0x43, 0x16,
  0x4b, 0x1e, 0x21, 0x02, 0x44, 0xf4, 0x07, 0x17, 0x12, 0x19, 0x12, 0xed,
  0xaf, 0xd6, 0x27, 0x2c, 0x23, 0xf9, 0x04, 0x00, 0xcd, 0xff, 0xf3, 0x2a,
  0xce, 0x3c, 0x4e, 0x10, 0x15, 0xe4, 0xe6, 0xe2, 0x28, 0xd5, 0x40, 0x39,
  0x1d, 0xc8, 0xb9, 0x14, 0xe4, 0x25, 0x1b, 0xef, 0x1c, 0x0a, 0x46, 0xeb,
  0x0f, 0x17, 0x61, 0x2a, 0x35, 0xde, 0x37, 0xf5, 0xc6, 0xf2, 0x05, 0x01,
  0x63, 0x1a, 0xeb, 0xff, 0x28, 0xd5, 0x07, 0x01, 0x0c, 0x0d, 0x2d, 0x2e,
  0xde, 0xe2, 0x10, 0xeb, 0xfa, 0xfa, 0x02, 0x38, 0xec, 0x14, 0xc7, 0xf3,
  0xdc, 0x29, 0x19, 0x27, 0xe4, 0x1d, 0xec, 0xf4, 0x51, 0xf2, 0x14, 0x1e,
  0xe1, 0x05, 0x35, 0x12, 0x38, 0xfa, 0x2d, 0x38, 0x3a, 0x00, 0x52, 0xfb,
  0x5d, 0x1a, 0x03, 0x2c, 0xd6, 0xee, 0xf3, 0x20, 0x55, 0xd8, 0xc5, 0x04,
  0x2d, 0x2d, 0x17, 0xdf, 0x2a, 0x00, 0xf0, 0x14, 0x33, 0xf4, 0x25, 0x07,
  0xe2, 0x12, 0xf0, 0x0b, 0xf4, 0xe0, 0x0f, 0x15, 0xe5, 0x02, 0xea, 0xd6,
  0xf9, 0x18, 0x17, 0x01, 0xe7, 0x3d, 0x41, 0x02, 0xcd, 0x09, 0xf6, 0xe3,
  0xcf, 0x28, 0xe0, 0xdc, 0x37, 0x19, 0x28, 0x36, 0x3b, 0x18, 0x1b, 0xef,
  0xea, 0xe1, 0xe4, 0xcb, 0x45, 0x34, 0xdb, 0x14, 0xf4, 0x44, 0xed, 0xc7,
  0xcd, 0xfa, 0x04, 0xf7, 0x2e, 0x24, 0x3b, 0x06, 0x0d, 0x13, 0x2a, 0x1f,
  0x06, 0xee, 0xe6, 0x31, 0x10, 0xed, 0x02, 0x28, 0xe4, 0xe4, 0x25, 0x10,
  0x24, 0xf6, 0x30, 0x18, 0x41, 0xe9, 0xe4, 0xde, 0x0a, 0x0e, 0xd4, 0xdb,
  0xce, 0x04, 0x20, 0x05, 0xf3, 0x13, 0x3b, 0xfe, 0xeb, 0x14, 0xf3, 0xed,
  0x13, 0xe2, 0x1a, 0xda, 0x00, 0x0f, 0x16, 0xf5, 0xfe, 0xfc, 0x17, 0xfb,
  0x03, 0x12, 0xe5, 0x1c, 0xde, 0x0b, 0x10, 0x27, 0xfb, 0xed, 0x21, 0x10,
  0xdc, 0x18, 0x42, 0x0d, 0xc0, 0xea, 0x01, 0x24, 0x31, 0xf7, 0x0f, 0xdd,
  0x16, 0x1e, 0x04, 0x3d, 0xab, 0xff, 0xfa, 0xf1, 0xf3, 0x0b, 0x21, 0x08,
  0xde, 0xd9, 0x23, 0x1a, 0x1d, 0xde, 0xf2, 0x12, 0x0a, 0x26, 0x2b, 0x1e,
  0xde, 0x13, 0x1e, 0x24, 0xc6, 0xec, 0x04, 0x2f, 0xff, 0xd2, 0x0b, 0xef,
  0xe5, 0x0f, 0x18, 0xf5, 0xdf, 0x01, 0x22, 0xec, 0x26, 0xe0, 0x0d, 0x34,
  0x49, 0xdf, 0x16, 0x0e, 0xf1, 0xf3, 0x2a, 0x18, 0x00, 0x30, 0x3f, 0xc2,
  0x19, 0x28, 0xfe, 0x03, 0xf6, 0x34, 0x37, 0x1f, 0x04, 0xfa, 0x3a, 0xff,
  0xfc, 0x29, 0x07, 0x09, 0xb9, 0x36, 0xf4, 0x06, 0xd1, 0x16, 0x35, 0xf0,
  0xc8, 0x2f, 0x53, 0xe1, 0xfb, 0xcf, 0xe8, 0xee, 0x24, 0xd5, 0x1f, 0x07,
  0x1f, 0xfa, 0x10, 0x28, 0xe5, 0x10, 0x41, 0xdf, 0x07, 0x25, 0x03, 0x15,
  0x1d, 0x26, 0xdb, 0xe6, 0xd0, 0xde, 0x40, 0x0d, 0x03, 0x09, 0x1e, 0x35,
  0xf5, 0x13, 0x24, 0x04, 0x31, 0xc5, 0xe8, 0x10, 0x06, 0x0b, 0xec, 0x15,
  0x45, 0xf6, 0xfc, 0xfc, 0xd3, 0xea, 0xf9, 0x10, 0x10, 0xef, 0x12, 0x0d,
  0xbf, 0x3b, 0x1e, 0xf8, 0xf3, 0xeb, 0x02, 0x02, 0x10, 0xfc, 0x3c, 0x12,
  0xf9, 0x19, 0x06, 0xde, 0x07, 0x2d, 0x21, 0x19, 0x0a, 0xf5, 0xee, 0x0a,
  0x39, 0x00, 0x1e, 0xf8, 0xf1, 0xe8, 0xe5, 0xf1, 0x1d, 0x14, 0xfa, 0x32,
  0xdd, 0x02, 0xf0, 0xe4, 0x26, 0x18, 0xf7, 0xfe, 0x26, 0xca, 0x0c, 0xef,
  0x01, 0x2a, 0xdb, 0xeb, 0xe5, 0x13, 0x18, 0x0f, 0x0e, 0x22, 0x08, 0xe7,
  0xe7, 0xfa, 0x0a, 0xd7, 0x2b, 0xdf, 0x16, 0x1d, 0xed, 0x02, 0x42, 0xe4,
  0xf8, 0xe1, 0x1d, 0xe4, 0x0e, 0xfc, 0xde, 0x14, 0x36, 0xe5, 0x19, 0x19,
  0xd8, 0x03, 0xff, 0xf3, 0xe1, 0x23, 0x07, 0x2b, 0xf2, 0xe6, 0x04, 0xe8,
  0xf4, 0x17, 0x06, 0xdf, 0xd5, 0xec, 0xd4, 0x01, 0x0b, 0xfd, 0x1c, 0xfc,
  0x14, 0x13, 0x17, 0x30, 0xdc, 0x12, 0xca, 0xfb, 0x1a, 0x2a, 0x13, 0x0e,
  0x14, 0xe0, 0xe7, 0x29, 0xfd, 0xe9, 0xff, 0x1f, 0xdb, 0x00, 0xfb, 0xf3,
  0x27, 0x13, 0x2a, 0xea, 0x18, 0x1e, 0xfa, 0xf1, 0x18, 0x35, 0x04, 0x27,
  0x19, 0x29, 0xcf, 0xf3, 0x24, 0xfa, 0xed, 0xf9, 0xf6, 0x23, 0xfe, 0x0d,
  0xd0, 0xf8, 0xff, 0xe3, 0xf9, 0xcf, 0x48, 0x1f, 0x10, 0x1c, 0xc1, 0x09,
  0x11, 0x26, 0x23, 0x09, 0xfe, 0x15, 0xd2, 0xd7, 0x59, 0x28, 0xfe, 0xe6,
  0x0a, 0x1d, 0xc8, 0x35, 0xc6, 0xe3, 0x08, 0x0b, 0xef, 0xfc, 0x1f, 0xe2,
  0xf4, 0x2b, 0x23, 0xd6, 0xda, 0x10, 0x29, 0x1f, 0x20, 0xc5, 0x10, 0x34,
  0xbb, 0xe4, 0xef, 0xdc, 0x2a, 0xb9, 0xc9, 0xe7, 0x3a, 0x01, 0xf1, 0x26,
  0xfe, 0x28, 0x28, 0x13, 0x00, 0xec, 0xdc, 0x06, 0xf9, 0xe2, 0xdc, 0xcf,
  0xf5, 0xe1, 0x32, 0x06, 0xe3, 0xe7, 0xca, 0x17, 0xfd, 0x0b, 0xd9, 0x21,
  0xe1, 0x03, 0xe4, 0xe8, 0xd3, 0xe6, 0xbe, 0x03, 0x38, 0xf5, 0x10, 0x0e,
  0x24, 0xff, 0x11, 0x01, 0x2c, 0xe5, 0xde, 0x1f, 0x17, 0x0f, 0x18, 0xe5,
  0xe3, 0xef, 0xe6, 0xdf, 0xea, 0x0c, 0xc3, 0xdd, 0x2a, 0xc4, 0xe4, 0x0e,
  0xca, 0x13, 0x17, 0xe2, 0x14, 0x21, 0x22, 0x01, 0x1e, 0xf1, 0xf0, 0xe2,
  0x4d, 0x2b, 0x8f, 0xfd, 0x1c, 0xec, 0x16, 0x22, 0xf8, 0xe3, 0x20, 0xdd,
  0xee, 0xd1, 0xbd, 0xea, 0xd4, 0x2a, 0xee, 0xcc, 0x08, 0xee, 0xb1, 0x09,
  0x01, 0xfc, 0x1d, 0xd6, 0x2a, 0xdd, 0xfa, 0xbe, 0xbe, 0x00, 0xc1, 0xd6,
  0xf6, 0xed, 0xba, 0x19, 0x18, 0x27, 0x1e, 0xf7, 0x2e, 0x1d, 0xa3, 0x10,
  0xa2, 0xef, 0xdf, 0x10, 0xba, 0xe9, 0xd9, 0xc3, 0x1b, 0xf2, 0xd8, 0x06,
  0x03, 0xef, 0x02, 0xbc, 0xec, 0x22, 0x24, 0x2b, 0x07, 0xf7, 0xda, 0x02,
  0xeb, 0xf7, 0xca, 0x1b, 0xfe, 0xfc, 0x10, 0xe2, 0xbd, 0xf4, 0xfe, 0x09,
  0x20, 0x1d, 0xcd, 0xe6, 0x9b, 0x15, 0xc6, 0x0b, 0xcb, 0x02, 0x0f, 0x07,
  0x01, 0xf3, 0xe6, 0x0b, 0x2c, 0xbd, 0x26, 0x1a, 0xfd, 0xfc, 0x0c, 0x24,
  0x4a, 0xff, 0xff, 0xff, 0x04, 0x00, 0x00, 0x00, 0x0c, 0x00, 0x00, 0x00,
  0xaa, 0x00, 0x00, 0x00, 0x2d, 0xff, 0xff, 0xff, 0x6d, 0x00, 0x00, 0x00,
  0x62, 0xff, 0xff, 0xff, 0x04, 0x00, 0x00, 0x00, 0x08, 0x00, 0x00, 0x00,
  0xff, 0xff, 0xff, 0xff, 0xac, 0x02, 0x00, 0x00, 0xcc, 0xf8, 0xff, 0xff,
  0xd0, 0xf8, 0xff, 0xff, 0x0f, 0x00, 0x00, 0x00, 0x4d, 0x4c, 0x49, 0x52,
  0x20, 0x43, 0x6f, 0x6e, 0x76, 0x65, 0x72, 0x74, 0x65, 0x64, 0x2e, 0x00,
  0x01, 0x00, 0x00, 0x00, 0x14, 0x00, 0x00, 0x00, 0x00, 0x00, 0x0e, 0x00,
  0x18, 0x00, 0x14, 0x00, 0x10, 0x00, 0x0c, 0x00, 0x08, 0x00, 0x04, 0x00,
  0x0e, 0x00, 0x00, 0x00, 0x14, 0x00, 0x00, 0x00, 0x1c, 0x00, 0x00, 0x00,
  0x88, 0x01, 0x00, 0x00, 0x8c, 0x01, 0x00, 0x00, 0x90, 0x01, 0x00, 0x00,
  0x04, 0x00, 0x00, 0x00, 0x6d, 0x61, 0x69, 0x6e, 0x00, 0x00, 0x00, 0x00,
  0x05, 0x00, 0x00, 0x00, 0x20, 0x01, 0x00, 0x00, 0xbc, 0x00, 0x00, 0x00,
  0x84, 0x00, 0x00, 0x00, 0x40, 0x00, 0x00, 0x00, 0x04, 0x00, 0x00, 0x00,
  0x62, 0xff, 0xff, 0xff, 0x1c, 0x00, 0x00, 0x00, 0x00, 0x00, 0x00, 0x09,
  0x1c, 0x00, 0x00, 0x00, 0x20, 0x00, 0x00, 0x00, 0x04, 0x00, 0x00, 0x00,
  0x00, 0x00, 0x06, 0x00, 0x08, 0x00, 0x04, 0x00, 0x06, 0x00, 0x00, 0x00,
  0x00, 0x00, 0x80, 0x3f, 0x01, 0x00, 0x00, 0x00, 0x0a, 0x00, 0x00, 0x00,
  0x01, 0x00, 0x00, 0x00, 0x09, 0x00, 0x00, 0x00, 0x9a, 0xff, 0xff, 0xff,
  0x14, 0x00, 0x00, 0x00, 0x00, 0x00, 0x00, 0x08, 0x10, 0x00, 0x00, 0x00,
  0x14, 0x00, 0x00, 0x00, 0x03, 0x00, 0x00, 0x00, 0x8c, 0xf9, 0xff, 0xff,
  0x01, 0x00, 0x00, 0x00, 0x09, 0x00, 0x00, 0x00, 0x03, 0x00, 0x00, 0x00,
  0x08, 0x00, 0x00, 0x00, 0x03, 0x00, 0x00, 0x00, 0x02, 0x00, 0x00, 0x00,
  0x00, 0x00, 0x0a, 0x00, 0x10, 0x00, 0x0c, 0x00, 0x08, 0x00, 0x04, 0x00,
  0x0a, 0x00, 0x00, 0x00, 0x0c, 0x00, 0x00, 0x00, 0x10, 0x00, 0x00, 0x00,
  0x02, 0x00, 0x00, 0x00, 0x01, 0x00, 0x00, 0x00, 0x08, 0x00, 0x00, 0x00,
  0x02, 0x00, 0x00, 0x00, 0x07, 0x00, 0x00, 0x00, 0x01, 0x00, 0x00, 0x00,
  0x00, 0x00, 0x0e, 0x00, 0x1a, 0x00, 0x14, 0x00, 0x10, 0x00, 0x0c, 0x00,
  0x0b, 0x00, 0x04, 0x00, 0x0e, 0x00, 0x00, 0x00, 0x24, 0x00, 0x00, 0x00,
  0x00, 0x00, 0x00, 0x05, 0x34, 0x00, 0x00, 0x00, 0x38, 0x00, 0x00, 0x00,
  0x01, 0x00, 0x00, 0x00, 0x00, 0x00, 0x0e, 0x00, 0x18, 0x00, 0x17, 0x00,
  0x10, 0x00, 0x0c, 0x00, 0x08, 0x00, 0x04, 0x00, 0x0e, 0x00, 0x00, 0x00,
  0x02, 0x00, 0x00, 0x00, 0x04, 0x00, 0x00, 0x00, 0x02, 0x00, 0x00, 0x00,
  0x04, 0x00, 0x00, 0x00, 0x00, 0x00, 0x00, 0x01, 0x01, 0x00, 0x00, 0x00,
  0x07, 0x00, 0x00, 0x00, 0x01, 0x00, 0x00, 0x00, 0x06, 0x00, 0x00, 0x00,
  0x00, 0x00, 0x0e, 0x00, 0x14, 0x00, 0x00, 0x00, 0x10, 0x00, 0x0c, 0x00,
  0x0b, 0x00, 0x04, 0x00, 0x0e, 0x00, 0x00, 0x00, 0x1c, 0x00, 0x00, 0x00,
  0x00, 0x00, 0x00, 0x01, 0x28, 0x00, 0x00, 0x00, 0x2c, 0x00, 0x00, 0x00,
  0x0c, 0x00, 0x14, 0x00, 0x13, 0x00, 0x0c, 0x00, 0x08, 0x00, 0x07, 0x00,
  0x0c, 0x00, 0x00, 0x00, 0x00, 0x00, 0x00, 0x01, 0x01, 0x00, 0x00, 0x00,
  0x01, 0x00, 0x00, 0x00, 0x00, 0x00, 0x00, 0x01, 0x01, 0x00, 0x00, 0x00,
  0x06, 0x00, 0x00, 0x00, 0x03, 0x00, 0x00, 0x00, 0x00, 0x00, 0x00, 0x00,
  0x05, 0x00, 0x00, 0x00, 0x04, 0x00, 0x00, 0x00, 0x01, 0x00, 0x00, 0x00,
  0x0a, 0x00, 0x00, 0x00, 0x01, 0x00, 0x00, 0x00, 0x00, 0x00, 0x00, 0x00,
  0x0b, 0x00, 0x00, 0x00, 0xa0, 0x05, 0x00, 0x00, 0x38, 0x05, 0x00, 0x00,
  0xac, 0x04, 0x00, 0x00, 0x40, 0x04, 0x00, 0x00, 0xa4, 0x03, 0x00, 0x00,
  0x08, 0x03, 0x00, 0x00, 0x24, 0x02, 0x00, 0x00, 0x90, 0x01, 0x00, 0x00,
  0x14, 0x01, 0x00, 0x00, 0x80, 0x00, 0x00, 0x00, 0x04, 0x00, 0x00, 0x00,
  0xa2, 0xfa, 0xff, 0xff, 0x00, 0x00, 0x00, 0x01, 0x18, 0x00, 0x00, 0x00,
  0x20, 0x00, 0x00, 0x00, 0x3c, 0x00, 0x00, 0x00, 0x0b, 0x00, 0x00, 0x00,
  0x00, 0x00, 0x00, 0x09, 0x50, 0x00, 0x00, 0x00, 0x02, 0x00, 0x00, 0x00,
  0xff, 0xff, 0xff, 0xff, 0x03, 0x00, 0x00, 0x00, 0x84, 0xfa, 0xff, 0xff,
  0x08, 0x00, 0x00, 0x00, 0x10, 0x00, 0x00, 0x00, 0x01, 0x00, 0x00, 0x00,
  0x80, 0xff, 0xff, 0xff, 0xff, 0xff, 0xff, 0xff, 0x01, 0x00, 0x00, 0x00,
  0x00, 0x00, 0x80, 0x3b, 0x19, 0x00, 0x00, 0x00, 0x53, 0x74, 0x61, 0x74,
  0x65, 0x66, 0x75, 0x6c, 0x50, 0x61, 0x72, 0x74, 0x69, 0x74, 0x69, 0x6f,
  0x6e, 0x65, 0x64, 0x43, 0x61, 0x6c, 0x6c, 0x3a, 0x30, 0x00, 0x00, 0x00,
  0x02, 0x00, 0x00, 0x00, 0x01, 0x00, 0x00, 0x00, 0x03, 0x00, 0x00, 0x00,
  0x1a, 0xfb, 0xff, 0xff, 0x00, 0x00, 0x00, 0x01, 0x18, 0x00, 0x00, 0x00,
  0x20, 0x00, 0x00, 0x00, 0x3c, 0x00, 0x00, 0x00, 0x0a, 0x00, 0x00, 0x00,
  0x00, 0x00, 0x00, 0x09, 0x68, 0x00, 0x00, 0x00, 0x02, 0x00, 0x00, 0x00,
  0xff, 0xff, 0xff, 0xff, 0x03, 0x00, 0x00, 0x00, 0xfc, 0xfa, 0xff, 0xff,
  0x08, 0x00, 0x00, 0x00, 0x10, 0x00, 0x00, 0x00, 0x01, 0x00, 0x00, 0x00,
  0x31, 0x00, 0x00, 0x00, 0x00, 0x00, 0x00, 0x00, 0x01, 0x00, 0x00, 0x00,
  0x71, 0x68, 0x16, 0x3f, 0x30, 0x00, 0x00, 0x00, 0x73, 0x65, 0x71, 0x75,
  0x65, 0x6e, 0x74, 0x69, 0x61, 0x6c, 0x2f, 0x64, 0x65, 0x6e, 0x73, 0x65,
  0x2f, 0x4d, 0x61, 0x74, 0x4d, 0x75, 0x6c, 0x3b, 0x73, 0x65, 0x71, 0x75,
  0x65, 0x6e, 0x74, 0x69, 0x61, 0x6c, 0x2f, 0x64, 0x65, 0x6e, 0x73, 0x65,
  0x2f, 0x42, 0x69, 0x61, 0x73, 0x41, 0x64, 0x64, 0x00, 0x00, 0x00, 0x00,
  0x02, 0x00, 0x00, 0x00, 0x01, 0x00, 0x00, 0x00, 0x03, 0x00, 0x00, 0x00,
  0xaa, 0xfb, 0xff, 0xff, 0x00, 0x00, 0x00, 0x01, 0x18, 0x00, 0x00, 0x00,
  0x20, 0x00, 0x00, 0x00, 0x3c, 0x00, 0x00, 0x00, 0x09, 0x00, 0x00, 0x00,
  0x00, 0x00, 0x00, 0x09, 0x50, 0x00, 0x00, 0x00, 0x02, 0x00, 0x00, 0x00,
  0xff, 0xff, 0xff, 0xff, 0xac, 0x02, 0x00, 0x00, 0x8c, 0xfb, 0xff, 0xff,
  0x08, 0x00, 0x00, 0x00, 0x10, 0x00, 0x00, 0x00, 0x01, 0x00, 0x00, 0x00,
  0x80, 0xff, 0xff, 0xff, 0xff, 0xff, 0xff, 0xff, 0x01, 0x00, 0x00, 0x00,
  0x8b, 0x9a, 0xea, 0x3e, 0x1a, 0x00, 0x00, 0x00, 0x73, 0x65, 0x71, 0x75,
  0x65, 0x6e, 0x74, 0x69, 0x61, 0x6c, 0x2f, 0x66, 0x6c, 0x61, 0x74, 0x74,
  0x65, 0x6e, 0x2f, 0x52, 0x65, 0x73, 0x68, 0x61, 0x70, 0x65, 0x00, 0x00,
  0x02, 0x00, 0x00, 0x00, 0x01, 0x00, 0x00, 0x00, 0xac, 0x02, 0x00, 0x00,
  0x22, 0xfc, 0xff, 0xff, 0x00, 0x00, 0x00, 0x01, 0x18, 0x00, 0x00, 0x00,
  0x28, 0x00, 0x00, 0x00, 0x44, 0x00, 0x00, 0x00, 0x08, 0x00, 0x00, 0x00,
  0x00, 0x00, 0x00, 0x09, 0x60, 0x00, 0x00, 0x00, 0x04, 0x00, 0x00, 0x00,
  0xff, 0xff, 0xff, 0xff, 0x13, 0x00, 0x00, 0x00, 0x09, 0x00, 0x00, 0x00,
  0x04, 0x00, 0x00, 0x00, 0x0c, 0xfc, 0xff, 0xff, 0x08, 0x00, 0x00, 0x00,
  0x10, 0x00, 0x00, 0x00, 0x01, 0x00, 0x00, 0x00, 0x80, 0xff, 0xff, 0xff,
  0xff, 0xff, 0xff, 0xff, 0x01, 0x00, 0x00, 0x00, 0x8b, 0x9a, 0xea, 0x3e,
  0x20, 0x00, 0x00, 0x00, 0x73, 0x65, 0x71, 0x75, 0x65, 0x6e, 0x74, 0x69,
  0x61, 0x6c, 0x2f, 0x6d, 0x61, 0x78, 0x5f, 0x70, 0x6f, 0x6f, 0x6c, 0x69,
  0x6e, 0x67, 0x32, 0x64, 0x2f, 0x4d, 0x61, 0x78, 0x50, 0x6f, 0x6f, 0x6c,
  0x00, 0x00, 0x00, 0x00, 0x04, 0x00, 0x00, 0x00, 0x01, 0x00, 0x00, 0x00,
  0x13, 0x00, 0x00, 0x00, 0x09, 0x00, 0x00, 0x00, 0x04, 0x00, 0x00, 0x00,
  0xb2, 0xfc, 0xff, 0xff, 0x00, 0x00, 0x00, 0x01, 0x18, 0x00, 0x00, 0x00,
  0x28, 0x00, 0x00, 0x00, 0x44, 0x00, 0x00, 0x00, 0x07, 0x00, 0x00, 0x00,
  0x00, 0x00, 0x00, 0x09, 0xb0, 0x00, 0x00, 0x00, 0x04, 0x00, 0x00, 0x00,
  0xff, 0xff, 0xff, 0xff, 0x26, 0x00, 0x00, 0x00, 0x26, 0x00, 0x00, 0x00,
  0x04, 0x00, 0x00, 0x00, 0x9c, 0xfc, 0xff, 0xff, 0x08, 0x00, 0x00, 0x00,
  0x10, 0x00, 0x00, 0x00, 0x01, 0x00, 0x00, 0x00, 0x80, 0xff, 0xff, 0xff,
  0xff, 0xff, 0xff, 0xff, 0x01, 0x00, 0x00, 0x00, 0x8b, 0x9a, 0xea, 0x3e,
  0x72, 0x00, 0x00, 0x00, 0x73, 0x65, 0x71, 0x75, 0x65, 0x6e, 0x74, 0x69,
  0x61, 0x6c, 0x2f, 0x63, 0x6f, 0x6e, 0x76, 0x32, 0x64, 0x2f, 0x52, 0x65,
  0x6c, 0x75, 0x3b, 0x73, 0x65, 0x71, 0x75, 0x65, 0x6e, 0x74, 0x69, 0x61,
  0x6c, 0x2f, 0x63, 0x6f, 0x6e, 0x76, 0x32, 0x64, 0x2f, 0x42, 0x69, 0x61,
  0x73, 0x41, 0x64, 0x64, 0x3b, 0x73, 0x65, 0x71, 0x75, 0x65, 0x6e, 0x74,
  0x69, 0x61, 0x6c, 0x2f, 0x63, 0x6f, 0x6e, 0x76, 0x32, 0x64, 0x2f, 0x43,
  0x6f, 0x6e, 0x76, 0x32, 0x44, 0x3b, 0x73, 0x65, 0x71, 0x75, 0x65, 0x6e,
  0x74, 0x69, 0x61, 0x6c, 0x2f, 0x63, 0x6f, 0x6e, 0x76, 0x32, 0x64, 0x2f,
  0x42, 0x69, 0x61, 0x73, 0x41, 0x64, 0x64, 0x2f, 0x52, 0x65, 0x61, 0x64,
  0x56, 0x61, 0x72, 0x69, 0x61, 0x62, 0x6c, 0x65, 0x4f, 0x70, 0x00, 0x00,
  0x04, 0x00, 0x00, 0x00, 0x01, 0x00, 0x00, 0x00, 0x26, 0x00, 0x00, 0x00,
  0x26, 0x00, 0x00, 0x00, 0x04, 0x00, 0x00, 0x00, 0xf6, 0xfd, 0xff, 0xff,
  0x00, 0x00, 0x00, 0x01, 0x14, 0x00, 0x00, 0x00, 0x58, 0x00, 0x00, 0x00,
  0x06, 0x00, 0x00, 0x00, 0x00, 0x00, 0x00, 0x09, 0x6c, 0x00, 0x00, 0x00,
  0x64, 0xfd, 0xff, 0xff, 0x08, 0x00, 0x00, 0x00, 0x2c, 0x00, 0x00, 0x00,
  0x04, 0x00, 0x00, 0x00, 0x00, 0x00, 0x00, 0x00, 0x00, 0x00, 0x00, 0x00,
  0x00, 0x00, 0x00, 0x00, 0x00, 0x00, 0x00, 0x00, 0x00, 0x00, 0x00, 0x00,
  0x00, 0x00, 0x00, 0x00, 0x00, 0x00, 0x00, 0x00, 0x00, 0x00, 0x00, 0x00,
  0x00, 0x00, 0x00, 0x00, 0x04, 0x00, 0x00, 0x00, 0xe6, 0x88, 0x0f, 0x3b,
  0x8d, 0x25, 0x17, 0x3b, 0x1a, 0x79, 0x41, 0x3b, 0x2f, 0xd3, 0x45, 0x3b,
  0x18, 0x00, 0x00, 0x00, 0x73, 0x65, 0x71, 0x75, 0x65, 0x6e, 0x74, 0x69,
  0x61, 0x6c, 0x2f, 0x63, 0x6f, 0x6e, 0x76, 0x32, 0x64, 0x2f, 0x43, 0x6f,
  0x6e, 0x76, 0x32, 0x44, 0x00, 0x00, 0x00, 0x00, 0x04, 0x00, 0x00, 0x00,
  0x04, 0x00, 0x00, 0x00, 0x03, 0x00, 0x00, 0x00, 0x03, 0x00, 0x00, 0x00,
  0x01, 0x00, 0x00, 0x00, 0x8e, 0xfe, 0xff, 0xff, 0x00, 0x00, 0x00, 0x01,
  0x14, 0x00, 0x00, 0x00, 0x54, 0x00, 0x00, 0x00, 0x05, 0x00, 0x00, 0x00,
  0x00, 0x00, 0x00, 0x02, 0x78, 0x00, 0x00, 0x00, 0xfc, 0xfd, 0xff, 0xff,
  0x08, 0x00, 0x00, 0x00, 0x28, 0x00, 0x00, 0x00, 0x04, 0x00, 0x00, 0x00,
  0x00, 0x00, 0x00, 0x00, 0x00, 0x00, 0x00, 0x00, 0x00, 0x00, 0x00, 0x00,
  0x00, 0x00, 0x00, 0x00, 0x00, 0x00, 0x00, 0x00, 0x00, 0x00, 0x00, 0x00,
  0x00, 0x00, 0x00, 0x00, 0x00, 0x00, 0x00, 0x00, 0x04, 0x00, 0x00, 0x00,
  0xe6, 0x88, 0x0f, 0x3b, 0x8d, 0x25, 0x17, 0x3b, 0x1a, 0x79, 0x41, 0x3b,
  0x2f, 0xd3, 0x45, 0x3b, 0x28, 0x00, 0x00, 0x00, 0x73, 0x65, 0x71, 0x75,
  0x65, 0x6e, 0x74, 0x69, 0x61, 0x6c, 0x2f, 0x63, 0x6f, 0x6e, 0x76, 0x32,
  0x64, 0x2f, 0x42, 0x69, 0x61, 0x73, 0x41, 0x64, 0x64, 0x2f, 0x52, 0x65,
  0x61, 0x64, 0x56, 0x61, 0x72, 0x69, 0x61, 0x62, 0x6c, 0x65, 0x4f, 0x70,
  0x00, 0x00, 0x00, 0x00, 0x01, 0x00, 0x00, 0x00, 0x04, 0x00, 0x00, 0x00,
  0x26, 0xff, 0xff, 0xff, 0x00, 0x00, 0x00, 0x01, 0x14, 0x00, 0x00, 0x00,
  0x34, 0x00, 0x00, 0x00, 0x04, 0x00, 0x00, 0x00, 0x00, 0x00, 0x00, 0x09,
  0x44, 0x00, 0x00, 0x00, 0x94, 0xfe, 0xff, 0xff, 0x08, 0x00, 0x00, 0x00,
  0x14, 0x00, 0x00, 0x00, 0x01, 0x00, 0x00, 0x00, 0x00, 0x00, 0x00, 0x00,
  0x00, 0x00, 0x00, 0x00, 0x00, 0x00, 0x00, 0x00, 0x01, 0x00, 0x00, 0x00,
  0x8c, 0x05, 0xe9, 0x3a, 0x17, 0x00, 0x00, 0x00, 0x73, 0x65, 0x71, 0x75,
  0x65, 0x6e, 0x74, 0x69, 0x61, 0x6c, 0x2f, 0x64, 0x65, 0x6e, 0x73, 0x65,
  0x2f, 0x4d, 0x61, 0x74, 0x4d, 0x75, 0x6c, 0x00, 0x02, 0x00, 0x00, 0x00,
  0x03, 0x00, 0x00, 0x00, 0xac, 0x02, 0x00, 0x00, 0x8e, 0xff, 0xff, 0xff,
  0x00, 0x00, 0x00, 0x01, 0x14, 0x00, 0x00, 0x00, 0x30, 0x00, 0x00, 0x00,
  0x03, 0x00, 0x00, 0x00, 0x00, 0x00, 0x00, 0x02, 0x50, 0x00, 0x00, 0x00,
  0xfc, 0xfe, 0xff, 0xff, 0x08, 0x00, 0x00, 0x00, 0x10, 0x00, 0x00, 0x00,
  0x01, 0x00, 0x00, 0x00, 0x00, 0x00, 0x00, 0x00, 0x00, 0x00, 0x00, 0x00,
  0x01, 0x00, 0x00, 0x00, 0xbe, 0x8b, 0x55, 0x3a, 0x27, 0x00, 0x00, 0x00,
  0x73, 0x65, 0x71, 0x75, 0x65, 0x6e, 0x74, 0x69, 0x61, 0x6c, 0x2f, 0x64,
  0x65, 0x6e, 0x73, 0x65, 0x2f, 0x42, 0x69, 0x61, 0x73, 0x41, 0x64, 0x64,
  0x2f, 0x52, 0x65, 0x61, 0x64, 0x56, 0x61, 0x72, 0x69, 0x61, 0x62, 0x6c,
  0x65, 0x4f, 0x70, 0x00, 0x01, 0x00, 0x00, 0x00, 0x03, 0x00, 0x00, 0x00,
  0x00, 0x00, 0x16, 0x00, 0x1c, 0x00, 0x18, 0x00, 0x17, 0x00, 0x10, 0x00,
  0x0c, 0x00, 0x08, 0x00, 0x00, 0x00, 0x00, 0x00, 0x00, 0x00, 0x07, 0x00,
  0x16, 0x00, 0x00, 0x00, 0x00, 0x00, 0x00, 0x01, 0x18, 0x00, 0x00, 0x00,
  0x18, 0x00, 0x00, 0x00, 0x02, 0x00, 0x00, 0x00, 0x00, 0x00, 0x00, 0x02,
  0x2c, 0x00, 0x00, 0x00, 0x04, 0x00, 0x04, 0x00, 0x04, 0x00, 0x00, 0x00,
  0x18, 0x00, 0x00, 0x00, 0x73, 0x65, 0x71, 0x75, 0x65, 0x6e, 0x74, 0x69,
  0x61, 0x6c, 0x2f, 0x66, 0x6c, 0x61, 0x74, 0x74, 0x65, 0x6e, 0x2f, 0x43,
  0x6f, 0x6e, 0x73, 0x74, 0x00, 0x00, 0x00, 0x00, 0x01, 0x00, 0x00, 0x00,
  0x02, 0x00, 0x00, 0x00, 0x00, 0x00, 0x16, 0x00, 0x20, 0x00, 0x1c, 0x00,
  0x1b, 0x00, 0x14, 0x00, 0x10, 0x00, 0x0c, 0x00, 0x00, 0x00, 0x00, 0x00,
  0x08, 0x00, 0x07, 0x00, 0x16, 0x00, 0x00, 0x00, 0x00, 0x00, 0x00, 0x01,
  0x18, 0x00, 0x00, 0x00, 0x34, 0x00, 0x00, 0x00, 0x54, 0x00, 0x00, 0x00,
  0x01, 0x00, 0x00, 0x00, 0x00, 0x00, 0x00, 0x09, 0x6c, 0x00, 0x00, 0x00,
  0x04, 0x00, 0x00, 0x00, 0xff, 0xff, 0xff, 0xff, 0x28, 0x00, 0x00, 0x00,
  0x28, 0x00, 0x00, 0x00, 0x01, 0x00, 0x00, 0x00, 0x0c, 0x00, 0x0c, 0x00,
  0x00, 0x00, 0x00, 0x00, 0x08, 0x00, 0x04, 0x00, 0x0c, 0x00, 0x00, 0x00,
  0x08, 0x00, 0x00, 0x00, 0x14, 0x00, 0x00, 0x00, 0x01, 0x00, 0x00, 0x00,
  0x80, 0xff, 0xff, 0xff, 0xff, 0xff, 0xff, 0xff, 0x00, 0x00, 0x00, 0x00,
  0x01, 0x00, 0x00, 0x00, 0x00, 0x00, 0x80, 0x3f, 0x1e, 0x00, 0x00, 0x00,
  0x73, 0x65, 0x72, 0x76, 0x69, 0x6e, 0x67, 0x5f, 0x64, 0x65, 0x66, 0x61,
  0x75, 0x6c, 0x74, 0x5f, 0x63, 0x6f, 0x6e, 0x76, 0x32, 0x64, 0x5f, 0x69,
  0x6e, 0x70, 0x75, 0x74, 0x3a, 0x30, 0x00, 0x00, 0x04, 0x00, 0x00, 0x00,
  0x01, 0x00, 0x00, 0x00, 0x28, 0x00, 0x00, 0x00, 0x28, 0x00, 0x00, 0x00,
  0x01, 0x00, 0x00, 0x00, 0x05, 0x00, 0x00, 0x00, 0x68, 0x00, 0x00, 0x00,
  0x48, 0x00, 0x00, 0x00, 0x38, 0x00, 0x00, 0x00, 0x18, 0x00, 0x00, 0x00,
  0x04, 0x00, 0x00, 0x00, 0xb8, 0xff, 0xff, 0xff, 0x19, 0x00, 0x00, 0x00,
  0x02, 0x00, 0x00, 0x00, 0x00, 0x00, 0x00, 0x19, 0xc8, 0xff, 0xff, 0xff,
  0x09, 0x00, 0x00, 0x00, 0x04, 0x00, 0x00, 0x00, 0x00, 0x00, 0x00, 0x09,
  0x0c, 0x00, 0x0c, 0x00, 0x0b, 0x00, 0x00, 0x00, 0x00, 0x00, 0x04, 0x00,
  0x0c, 0x00, 0x00, 0x00, 0x16, 0x00, 0x00, 0x00, 0x00, 0x00, 0x00, 0x16,
  0xf0, 0xff, 0xff, 0xff, 0x11, 0x00, 0x00, 0x00, 0x02, 0x00, 0x00, 0x00,
  0x00, 0x00, 0x00, 0x11, 0x0c, 0x00, 0x10, 0x00, 0x0f, 0x00, 0x00, 0x00,
  0x08, 0x00, 0x04, 0x00, 0x0c, 0x00, 0x00, 0x00, 0x03, 0x00, 0x00, 0x00,
  0x03, 0x00, 0x00, 0x00, 0x00, 0x00, 0x00, 0x03
};

#endif //MODEL.H_H