#ifndef MODEL_H
#define MODEL_H


unsigned int model_len = 8600;
unsigned char model_arr[] = {
 0x1c, 0x00, 0x00, 0x00, 0x54, 0x46, 0x4c, 0x33, 0x14, 0x00, 0x20, 0x00,
  0x1c, 0x00, 0x18, 0x00, 0x14, 0x00, 0x10, 0x00, 0x0c, 0x00, 0x00, 0x00,
  0x08, 0x00, 0x04, 0x00, 0x14, 0x00, 0x00, 0x00, 0x1c, 0x00, 0x00, 0x00,
  0x88, 0x00, 0x00, 0x00, 0xe0, 0x00, 0x00, 0x00, 0x84, 0x1a, 0x00, 0x00,
  0x94, 0x1a, 0x00, 0x00, 0x04, 0x21, 0x00, 0x00, 0x03, 0x00, 0x00, 0x00,
  0x01, 0x00, 0x00, 0x00, 0x04, 0x00, 0x00, 0x00, 0xbe, 0xe4, 0xff, 0xff,
  0x0c, 0x00, 0x00, 0x00, 0x1c, 0x00, 0x00, 0x00, 0x38, 0x00, 0x00, 0x00,
  0x0f, 0x00, 0x00, 0x00, 0x73, 0x65, 0x72, 0x76, 0x69, 0x6e, 0x67, 0x5f,
  0x64, 0x65, 0x66, 0x61, 0x75, 0x6c, 0x74, 0x00, 0x01, 0x00, 0x00, 0x00,
  0x04, 0x00, 0x00, 0x00, 0x94, 0xff, 0xff, 0xff, 0x0a, 0x00, 0x00, 0x00,
  0x04, 0x00, 0x00, 0x00, 0x05, 0x00, 0x00, 0x00, 0x64, 0x65, 0x6e, 0x73,
  0x65, 0x00, 0x00, 0x00, 0x01, 0x00, 0x00, 0x00, 0x04, 0x00, 0x00, 0x00,
  0x5e, 0xe5, 0xff, 0xff, 0x04, 0x00, 0x00, 0x00, 0x0c, 0x00, 0x00, 0x00,
  0x63, 0x6f, 0x6e, 0x76, 0x32, 0x64, 0x5f, 0x69, 0x6e, 0x70, 0x75, 0x74,
  0x00, 0x00, 0x00, 0x00, 0x02, 0x00, 0x00, 0x00, 0x34, 0x00, 0x00, 0x00,
  0x04, 0x00, 0x00, 0x00, 0xdc, 0xff, 0xff, 0xff, 0x0d, 0x00, 0x00, 0x00,
  0x04, 0x00, 0x00, 0x00, 0x13, 0x00, 0x00, 0x00, 0x43, 0x4f, 0x4e, 0x56,
  0x45, 0x52, 0x53, 0x49, 0x4f, 0x4e, 0x5f, 0x4d, 0x45, 0x54, 0x41, 0x44,
  0x41, 0x54, 0x41, 0x00, 0x08, 0x00, 0x0c, 0x00, 0x08, 0x00, 0x04, 0x00,
  0x08, 0x00, 0x00, 0x00, 0x0c, 0x00, 0x00, 0x00, 0x04, 0x00, 0x00, 0x00,
  0x13, 0x00, 0x00, 0x00, 0x6d, 0x69, 0x6e, 0x5f, 0x72, 0x75, 0x6e, 0x74,
  0x69, 0x6d, 0x65, 0x5f, 0x76, 0x65, 0x72, 0x73, 0x69, 0x6f, 0x6e, 0x00,
  0x0e, 0x00, 0x00, 0x00, 0xa0, 0x19, 0x00, 0x00, 0x98, 0x19, 0x00, 0x00,
  0x7c, 0x19, 0x00, 0x00, 0x00, 0x19, 0x00, 0x00, 0xe4, 0x18, 0x00, 0x00,
  0xcc, 0x18, 0x00, 0x00, 0xb0, 0x00, 0x00, 0x00, 0xa8, 0x00, 0x00, 0x00,
  0xa0, 0x00, 0x00, 0x00, 0x98, 0x00, 0x00, 0x00, 0x90, 0x00, 0x00, 0x00,
  0x88, 0x00, 0x00, 0x00, 0x68, 0x00, 0x00, 0x00, 0x04, 0x00, 0x00, 0x00,
  0x12, 0xe6, 0xff, 0xff, 0x04, 0x00, 0x00, 0x00, 0x54, 0x00, 0x00, 0x00,
  0x0c, 0x00, 0x00, 0x00, 0x08, 0x00, 0x0e, 0x00, 0x08, 0x00, 0x04, 0x00,
  0x08, 0x00, 0x00, 0x00, 0x10, 0x00, 0x00, 0x00, 0x24, 0x00, 0x00, 0x00,
  0x00, 0x00, 0x06, 0x00, 0x08, 0x00, 0x04, 0x00, 0x06, 0x00, 0x00, 0x00,
  0x04, 0x00, 0x00, 0x00, 0x00, 0x00, 0x00, 0x00, 0x00, 0x00, 0x0a, 0x00,
  0x10, 0x00, 0x0c, 0x00, 0x08, 0x00, 0x04, 0x00, 0x0a, 0x00, 0x00, 0x00,
  0x02, 0x00, 0x00, 0x00, 0x02, 0x00, 0x00, 0x00, 0x04, 0x00, 0x00, 0x00,
  0x06, 0x00, 0x00, 0x00, 0x32, 0x2e, 0x31, 0x35, 0x2e, 0x30, 0x00, 0x00,
  0x72, 0xe6, 0xff, 0xff, 0x04, 0x00, 0x00, 0x00, 0x10, 0x00, 0x00, 0x00,
  0x31, 0x2e, 0x35, 0x2e, 0x30, 0x00, 0x00, 0x00, 0x00, 0x00, 0x00, 0x00,
  0x00, 0x00, 0x00, 0x00, 0xc8, 0xe0, 0xff, 0xff, 0xcc, 0xe0, 0xff, 0xff,
  0xd0, 0xe0, 0xff, 0xff, 0xd4, 0xe0, 0xff, 0xff, 0xd8, 0xe0, 0xff, 0xff,
  0xa2, 0xe6, 0xff, 0xff, 0x04, 0x00, 0x00, 0x00, 0x0c, 0x18, 0x00, 0x00,
  0xa7, 0xb3, 0x92, 0xbd, 0x51, 0x35, 0x3d, 0x3d, 0x74, 0xa7, 0xf2, 0xbd,
  0xc7, 0x78, 0xa4, 0xbd, 0x0c, 0xa1, 0xb8, 0x3b, 0xb9, 0xb6, 0x01, 0xbe,
  0x51, 0x42, 0xee, 0xbc, 0xb7, 0x75, 0x96, 0xbd, 0xcb, 0xc7, 0x2e, 0xbd,
  0xec, 0x73, 0x11, 0xbc, 0xdf, 0x81, 0xeb, 0x3c, 0x82, 0xbc, 0x12, 0xbe,
  0x70, 0xfd, 0x4e, 0xbd, 0xae, 0xf7, 0x99, 0x3d, 0x31, 0x4a, 0x01, 0xbe,
  0xe5, 0x66, 0x4c, 0xbd, 0xa8, 0xdb, 0x56, 0x3c, 0x39, 0x2f, 0xd5, 0xbd,
  0xb5, 0x25, 0x0e, 0xbd, 0x54, 0x2a, 0x3a, 0xbc, 0x1d, 0xcf, 0xb8, 0xbd,
  0xfb, 0x45, 0x9d, 0xbd, 0x8d, 0x76, 0x5c, 0xbd, 0x97, 0x8c, 0x09, 0x3d,
  0x40, 0x41, 0x50, 0xbd, 0x87, 0x55, 0x75, 0x3c, 0xd6, 0x94, 0x45, 0x3d,
  0x7c, 0xfa, 0x56, 0xbd, 0x80, 0x46, 0xa4, 0xbd, 0xda, 0x5c, 0x5a, 0x3c,
  0x34, 0xbb, 0x95, 0xbd, 0x0e, 0x9c, 0x8e, 0xbd, 0x7e, 0xe9, 0xd3, 0xbc,
  0x5c, 0x7f, 0x8d, 0xbd, 0xf1, 0x05, 0x82, 0x3c, 0x65, 0x9d, 0x8a, 0x3d,
  0xb4, 0xac, 0xb9, 0x3d, 0x7e, 0x0a, 0xf0, 0xbd, 0x60, 0xa5, 0xc6, 0xbd,
  0x9d, 0x22, 0x19, 0xbd, 0xb1, 0xf8, 0xeb, 0x3d, 0xe9, 0x81, 0xc3, 0xbd,
  0xae, 0x3d, 0xc9, 0xbc, 0xc1, 0x77, 0xf1, 0xbc, 0x84, 0x4a, 0xe0, 0xbd,
  0x04, 0x52, 0xbe, 0xbd, 0xeb, 0x28, 0xa6, 0xbd, 0xe7, 0x24, 0x17, 0x3d,
  0x94, 0x9a, 0x87, 0xbc, 0x01, 0x24, 0x59, 0x3d, 0x46, 0xff, 0xe9, 0xbd,
  0xd0, 0xe8, 0x19, 0x3d, 0xe3, 0x5a, 0xc8, 0xbd, 0xf2, 0x7e, 0xc2, 0xbd,
  0xff, 0x5e, 0x87, 0x3d, 0x90, 0xf4, 0x90, 0xbd, 0x69, 0x09, 0x01, 0x3d,
  0x3c, 0xd3, 0xc6, 0x3d, 0x9b, 0xe0, 0xc0, 0xbc, 0xcc, 0x20, 0x90, 0xbd,
  0x5c, 0x96, 0xf7, 0x36, 0x47, 0x98, 0x1b, 0xbd, 0xdc, 0x25, 0x67, 0x3d,
  0xac, 0x59, 0x00, 0xbd, 0xd6, 0xce, 0xdd, 0xbd, 0xd9, 0x6d, 0x08, 0xbe,
  0xd1, 0x02, 0x0e, 0xbd, 0xf9, 0xbc, 0xd8, 0x3d, 0x4e, 0x9e, 0x15, 0xbd,
  0xf5, 0x16, 0xa8, 0x3d, 0x7d, 0x15, 0x76, 0x3c, 0xa5, 0xc3, 0xfe, 0x3c,
  0x11, 0x19, 0x6e, 0xbd, 0x32, 0x90, 0x04, 0xbe, 0x45, 0x6b, 0xeb, 0xbd,
  0xbf, 0xea, 0x91, 0x3d, 0x7a, 0x37, 0x2c, 0xbd, 0xf3, 0x78, 0xb2, 0xbd,
  0x35, 0xa1, 0x8f, 0xbd, 0xaf, 0x11, 0xbb, 0xbd, 0x4c, 0x55, 0xcb, 0xbd,
  0x2c, 0x44, 0x69, 0xbd, 0x87, 0x5e, 0x5e, 0xbc, 0x5e, 0x37, 0x31, 0xbc,
  0x97, 0xd4, 0x27, 0x3d, 0x0c, 0x48, 0x04, 0x3e, 0x49, 0x96, 0xf7, 0xbd,
  0x8d, 0x21, 0x1e, 0xbd, 0xff, 0xeb, 0x03, 0xbd, 0x16, 0x58, 0x18, 0xbd,
  0xe5, 0x63, 0x27, 0xbd, 0x77, 0x09, 0xbf, 0x3d, 0x7e, 0xf1, 0x15, 0xbe,
  0xd2, 0x4f, 0x59, 0xbc, 0x80, 0xff, 0xe3, 0x3d, 0xc2, 0x30, 0x11, 0xbe,
  0x07, 0x02, 0xd1, 0x3b, 0x0b, 0x0d, 0xf0, 0xbd, 0xb5, 0x99, 0x94, 0xbd,
  0xc8, 0x35, 0x2a, 0xbd, 0x8e, 0x8c, 0x70, 0x3d, 0x53, 0x52, 0xbd, 0xbd,
  0xab, 0xa5, 0xf0, 0xbb, 0x48, 0x08, 0x98, 0xbc, 0x9b, 0x9a, 0x93, 0x3c,
  0xe5, 0xd0, 0xbf, 0x3b, 0x39, 0x79, 0xac, 0x3d, 0x61, 0x6d, 0xf3, 0x3b,
  0x89, 0xbb, 0xae, 0x3d, 0xba, 0xf3, 0x0e, 0x3e, 0xe0, 0xd7, 0x38, 0x3c,
  0xb9, 0x66, 0x8d, 0xbd, 0xf3, 0xaa, 0x3a, 0x3d, 0xd3, 0xb7, 0xad, 0xbd,
  0xdb, 0xa6, 0x9d, 0x3d, 0x63, 0xc6, 0xf8, 0x3b, 0xc3, 0x81, 0x45, 0xbd,
  0x47, 0x2f, 0x9d, 0x3d, 0x10, 0xa2, 0xb7, 0xbd, 0xc4, 0xad, 0x2c, 0x3d,
  0x4b, 0x4a, 0x96, 0x3d, 0xc9, 0xd7, 0x24, 0xbc, 0xbc, 0xba, 0x5e, 0x3d,
  0xd6, 0x18, 0x69, 0xbd, 0xc0, 0x7a, 0x56, 0x3d, 0x6b, 0x21, 0x4d, 0x3d,
  0xe3, 0x5d, 0x4c, 0xbd, 0xd8, 0x8d, 0x77, 0x3d, 0xe6, 0x62, 0x53, 0xbd,
  0x41, 0x9f, 0x6c, 0x3c, 0x03, 0xe6, 0x92, 0xbd, 0xee, 0x5c, 0xaf, 0xbd,
  0x62, 0x55, 0x10, 0x3d, 0xda, 0x62, 0xdd, 0x3b, 0xf9, 0xc7, 0xc4, 0xbd,
  0x6f, 0xf3, 0xa2, 0x3d, 0x0d, 0x75, 0x72, 0xbc, 0x24, 0x82, 0x72, 0x3d,
  0xba, 0xd4, 0xa6, 0x3d, 0xa3, 0xeb, 0xa2, 0xbd, 0xf2, 0xc6, 0xa0, 0xbd,
  0xd3, 0x00, 0x58, 0x3d, 0xd7, 0xc9, 0x8f, 0xbc, 0xc4, 0x06, 0x04, 0x3d,
  0x4a, 0xa6, 0xa6, 0xbb, 0xc7, 0xf6, 0xaa, 0xbd, 0x0f, 0x46, 0xbf, 0x3c,
  0xae, 0x21, 0xf0, 0x3b, 0x99, 0x0e, 0xeb, 0x3d, 0xa8, 0xe0, 0x4a, 0x3d,
  0x56, 0x7f, 0xdc, 0xbc, 0x0e, 0x0a, 0x14, 0xbc, 0x3c, 0xab, 0xd7, 0xbd,
  0x98, 0x20, 0x30, 0xbd, 0x7b, 0xa7, 0xc1, 0xbc, 0xa4, 0x43, 0x0c, 0x3d,
  0x11, 0xf1, 0x30, 0x3c, 0xed, 0x57, 0xb7, 0x3c, 0x15, 0xdd, 0x2b, 0x3c,
  0x5d, 0x20, 0x99, 0xbd, 0xe0, 0xeb, 0x2f, 0x3d, 0xaf, 0xef, 0x53, 0xbd,
  0x59, 0x45, 0x9f, 0xbd, 0xa4, 0x51, 0xb8, 0x3d, 0x1c, 0xec, 0xb5, 0xbd,
  0x63, 0xfc, 0xad, 0x3d, 0x40, 0xf5, 0xd8, 0x3d, 0x8f, 0xbf, 0xf5, 0x3a,
  0x4e, 0xec, 0x66, 0xbd, 0x9d, 0xa5, 0x37, 0xbd, 0xb0, 0x79, 0x76, 0x3c,
  0x80, 0x15, 0x66, 0xbc, 0x93, 0xda, 0x89, 0x3d, 0xb9, 0x87, 0x3c, 0xbd,
  0x79, 0x21, 0x10, 0x3d, 0xd1, 0xce, 0xaf, 0xbd, 0x03, 0xdb, 0x04, 0xbd,
  0xad, 0xe1, 0x68, 0x3d, 0x4a, 0x78, 0xaa, 0xbc, 0x41, 0x2d, 0x4a, 0xbb,
  0x4c, 0x43, 0x09, 0x3d, 0xeb, 0x34, 0x88, 0x3d, 0xad, 0xcb, 0x09, 0xbc,
  0x5a, 0x31, 0x66, 0xbc, 0x5e, 0x27, 0xca, 0xbd, 0x59, 0x71, 0xb9, 0xbd,
  0x24, 0xb0, 0x05, 0xbd, 0xca, 0x5e, 0x3e, 0xbc, 0x2e, 0xbd, 0xad, 0x3d,
  0x26, 0x5f, 0x80, 0x3c, 0xd7, 0x11, 0x00, 0x3e, 0x7a, 0x4c, 0x0e, 0x3d,
  0xf3, 0xcc, 0x51, 0xbc, 0xe7, 0x96, 0xa8, 0xbc, 0x36, 0x62, 0x7b, 0x3d,
  0xba, 0x40, 0x80, 0xbd, 0x22, 0xe5, 0x33, 0xbd, 0x1b, 0x94, 0xc0, 0x3d,
  0xb6, 0xa6, 0xba, 0x3d, 0x9d, 0x3c, 0x08, 0x3e, 0xcf, 0x8a, 0x4b, 0x3d,
  0x83, 0x0a, 0xe3, 0x3d, 0x29, 0x2d, 0xca, 0xbc, 0xea, 0x60, 0x9c, 0x3b,
  0xd9, 0x89, 0x62, 0xbd, 0xb4, 0xc9, 0x26, 0xbd, 0x01, 0x44, 0x92, 0x3d,
  0xb9, 0xa1, 0x48, 0x3c, 0xb9, 0x97, 0x2d, 0xbd, 0x6d, 0x52, 0x14, 0x3e,
  0x77, 0x73, 0x53, 0x3d, 0x93, 0x8d, 0x58, 0xbd, 0x03, 0xe6, 0xc8, 0xbd,
  0x63, 0xaf, 0x9e, 0x3c, 0xc4, 0x9b, 0x74, 0x3c, 0x37, 0xac, 0x9c, 0x3c,
  0xf9, 0x1c, 0x9f, 0x3d, 0x48, 0x34, 0x6e, 0x3d, 0x2e, 0x84, 0x14, 0xbd,
  0xa8, 0x25, 0xbf, 0xbd, 0x5f, 0x06, 0x79, 0x3c, 0xa4, 0xb1, 0x52, 0x3c,
  0x69, 0xa4, 0x5d, 0xbd, 0xe4, 0x56, 0xdd, 0xbc, 0x43, 0xbd, 0x0f, 0xbd,
  0x87, 0xc7, 0xbd, 0xbd, 0x1c, 0xbe, 0xec, 0xbd, 0x21, 0xfa, 0x84, 0x3d,
  0x10, 0xe0, 0x7a, 0xbd, 0x98, 0x4a, 0x2e, 0x3d, 0x85, 0x4f, 0x65, 0xbc,
  0xe8, 0x3c, 0x6f, 0xbd, 0xf6, 0x2e, 0xd4, 0xbd, 0xd0, 0xec, 0xd8, 0x3d,
  0xec, 0xae, 0xb2, 0x3d, 0x15, 0xe2, 0x68, 0xbd, 0xb3, 0x3a, 0xfc, 0xbd,
  0xde, 0x79, 0x24, 0x3c, 0x8c, 0x65, 0x55, 0x3b, 0xd0, 0x39, 0xc3, 0xbc,
  0x89, 0x5c, 0x08, 0xbd, 0xee, 0x18, 0x47, 0xbd, 0xb3, 0xa3, 0x2b, 0x3b,
  0x06, 0x7a, 0x30, 0xbd, 0xa3, 0x30, 0x95, 0x3c, 0xfe, 0xfa, 0xf1, 0xbd,
  0x84, 0x32, 0x9a, 0xbc, 0xbe, 0xad, 0x8f, 0x3d, 0x72, 0xb9, 0x14, 0xbe,
  0xf1, 0x60, 0x43, 0x3d, 0x89, 0x49, 0x70, 0x3c, 0x7e, 0x4b, 0x8c, 0xbd,
  0x32, 0x1b, 0x6d, 0xbc, 0x03, 0xa2, 0xc2, 0x3c, 0x31, 0xcc, 0xc6, 0x3c,
  0x7a, 0x9c, 0x58, 0xbd, 0xbe, 0x83, 0xc4, 0xbd, 0xd3, 0x31, 0xc1, 0xbd,
  0x1a, 0x7e, 0xf4, 0x3a, 0x00, 0xb4, 0x7c, 0xbd, 0xf6, 0x06, 0xa2, 0x3d,
  0x03, 0x18, 0xc0, 0xbd, 0x7f, 0xd8, 0x51, 0x3d, 0x9f, 0x01, 0xa6, 0x3c,
  0x6c, 0x10, 0x72, 0x3d, 0x39, 0x49, 0x7b, 0x3d, 0xaf, 0x86, 0xd9, 0x3c,
  0x44, 0x9d, 0x1b, 0x3d, 0x84, 0x83, 0xe4, 0xbd, 0x27, 0x1c, 0x01, 0xbd,
  0xef, 0x7d, 0xf6, 0x3c, 0xba, 0xff, 0x0e, 0x3b, 0x5d, 0x2a, 0x8d, 0xbd,
  0xb8, 0x57, 0x95, 0x3d, 0x6f, 0x83, 0xe6, 0xbd, 0xdb, 0xa9, 0xc7, 0xbd,
  0x9c, 0x01, 0x64, 0xbd, 0x0e, 0x23, 0x24, 0xbd, 0xda, 0xe3, 0x5c, 0x3c,
  0x08, 0x4d, 0x6b, 0xbd, 0x91, 0x8c, 0x15, 0x3d, 0x38, 0x7d, 0x08, 0xbe,
  0x46, 0x5c, 0x33, 0x3c, 0xbe, 0xac, 0x60, 0x3d, 0xdb, 0x0c, 0x86, 0xbd,
  0x53, 0x62, 0x96, 0x3c, 0xd2, 0x51, 0x2f, 0x3d, 0xbe, 0x8b, 0xf9, 0xbc,
  0x20, 0xb2, 0x38, 0xbd, 0x56, 0x88, 0x91, 0x3d, 0x3b, 0xcf, 0x12, 0x3d,
  0xdb, 0xc2, 0xc3, 0xbd, 0x29, 0xe6, 0xf9, 0xbc, 0x65, 0x87, 0x92, 0xbd,
  0xa8, 0x57, 0xeb, 0x3c, 0x94, 0xe1, 0x22, 0xbd, 0x03, 0xc7, 0x39, 0xbd,
  0xea, 0xd4, 0x61, 0x3b, 0x36, 0xa0, 0x4c, 0x3d, 0xd9, 0x56, 0xa5, 0xbd,
  0x85, 0x8d, 0x0a, 0xbd, 0x3e, 0xf5, 0xab, 0xbb, 0xf7, 0x88, 0xcd, 0xbc,
  0xf5, 0x31, 0x90, 0x3d, 0xb8, 0xba, 0x62, 0xbd, 0x30, 0xc7, 0xbb, 0xbb,
  0xfc, 0xcc, 0x1b, 0xbd, 0xc0, 0x0a, 0x42, 0xbd, 0x61, 0x69, 0x9f, 0xbd,
  0xcd, 0x49, 0x9d, 0xbd, 0x7a, 0x4e, 0xf5, 0x3d, 0xe7, 0x38, 0xef, 0xbb,
  0xdc, 0x51, 0xe0, 0xbc, 0x00, 0xf9, 0x42, 0xbd, 0x72, 0x09, 0xd1, 0x3d,
  0xee, 0x2f, 0x18, 0xbd, 0x1a, 0x48, 0xbc, 0x3d, 0x43, 0x0c, 0x1d, 0x3d,
  0xe2, 0x33, 0x0e, 0x3c, 0x68, 0xde, 0x5f, 0xbd, 0x28, 0x8f, 0x54, 0x3c,
  0x64, 0xf5, 0x18, 0x3c, 0xbb, 0xe1, 0x1d, 0xbe, 0x47, 0xd1, 0xe2, 0xbd,
  0xff, 0xa7, 0xa4, 0xbd, 0x2c, 0x2f, 0x0e, 0x3e, 0xc7, 0x74, 0x4c, 0x3d,
  0xac, 0xfe, 0xc4, 0x3c, 0xa2, 0xb9, 0xb5, 0xbd, 0x1c, 0x9f, 0x8e, 0x3b,
  0x53, 0x3c, 0xb9, 0x3d, 0xa1, 0xdd, 0x24, 0x3d, 0x25, 0xff, 0x12, 0x3d,
  0x91, 0x6e, 0xb8, 0xbd, 0x55, 0xbf, 0x1e, 0x3d, 0x7a, 0x97, 0xa1, 0xbd,
  0x2c, 0x7b, 0x37, 0xbc, 0x08, 0x7c, 0x7b, 0xbd, 0x1d, 0x42, 0x55, 0x3d,
  0xa7, 0xd2, 0x1a, 0x3d, 0x01, 0xda, 0x84, 0x3d, 0xfc, 0x19, 0x55, 0xbd,
  0xa8, 0x4a, 0x50, 0xbb, 0xbd, 0xca, 0xb0, 0xbd, 0x5a, 0xee, 0xc6, 0x3d,
  0x99, 0xdb, 0x24, 0x3d, 0x5f, 0xc8, 0x12, 0xbe, 0x49, 0x37, 0xb3, 0xbb,
  0x4a, 0x2c, 0xad, 0x3d, 0x11, 0x96, 0xba, 0x3c, 0xec, 0xac, 0x3d, 0xbb,
  0x43, 0x0a, 0xbe, 0x3d, 0x04, 0x91, 0x09, 0x3b, 0x95, 0xe3, 0xe2, 0xbd,
  0x36, 0x05, 0x99, 0xbd, 0xeb, 0x1d, 0x75, 0x3c, 0x7e, 0x7d, 0x47, 0xb9,
  0x8e, 0x66, 0x0e, 0x3d, 0x72, 0x0e, 0xbd, 0xbd, 0x1c, 0xe2, 0x0b, 0x3d,
  0x6a, 0x0f, 0xb1, 0x3d, 0x96, 0x16, 0x71, 0x3d, 0xc1, 0x18, 0xa8, 0xbd,
  0x36, 0x53, 0x79, 0x3d, 0x24, 0x80, 0xfc, 0x3c, 0xb7, 0x84, 0x88, 0xbd,
  0x2f, 0xe0, 0xb1, 0x3d, 0x3e, 0x39, 0xc1, 0xbd, 0xf7, 0xb7, 0x33, 0xbd,
  0xde, 0x8d, 0x98, 0xbd, 0xdb, 0x2e, 0x7f, 0x3d, 0xb5, 0x26, 0x02, 0xbb,
  0x8b, 0x4b, 0x14, 0xbd, 0x62, 0x1d, 0x0c, 0x3d, 0xab, 0xa0, 0x86, 0x3d,
  0x70, 0xce, 0xe6, 0x3c, 0xa9, 0x53, 0xbc, 0xbd, 0x2c, 0xa6, 0x9d, 0x3a,
  0x1f, 0xda, 0x16, 0x3d, 0x44, 0x5f, 0x0e, 0xbd, 0x17, 0xfa, 0xb5, 0xbd,
  0x83, 0x31, 0x83, 0xbc, 0xfe, 0xcb, 0xd3, 0x3c, 0xf3, 0x13, 0xa4, 0x3c,
  0x2f, 0x3f, 0xc5, 0x3d, 0x9e, 0xa0, 0x49, 0xbd, 0x11, 0x8e, 0xb7, 0xbd,
  0x93, 0xcc, 0x30, 0x3d, 0x09, 0x28, 0x1b, 0xba, 0xe8, 0xbd, 0x4c, 0x3d,
  0xd8, 0x6b, 0xa6, 0xbd, 0xb3, 0x3b, 0x82, 0xbd, 0xed, 0xd9, 0xb6, 0xbc,
  0x5b, 0xb6, 0xa8, 0x3d, 0x0f, 0x66, 0xaa, 0xbd, 0xd8, 0xce, 0xcc, 0xbc,
  0xae, 0x4b, 0xef, 0x3c, 0x05, 0x63, 0x42, 0x3d, 0x61, 0xbe, 0x7f, 0xbd,
  0x2e, 0x37, 0x0d, 0x3b, 0x6c, 0x7a, 0xdd, 0xbc, 0x03, 0xfd, 0x3f, 0x3d,
  0x2e, 0xaa, 0xca, 0xbd, 0x7b, 0x69, 0x5c, 0x39, 0x5d, 0xb2, 0xe0, 0xbc,
  0xa7, 0xcf, 0xe6, 0xbc, 0xbb, 0x6a, 0xb7, 0xbd, 0xba, 0x71, 0x95, 0xbc,
  0x8c, 0xaa, 0x98, 0x3d, 0x88, 0x6f, 0xb4, 0xbc, 0x1d, 0xcb, 0x99, 0xba,
  0x02, 0x07, 0xbf, 0xbd, 0x5a, 0x9d, 0x33, 0xbd, 0xba, 0xc5, 0xba, 0xbd,
  0xc5, 0xa0, 0xa4, 0xbd, 0x29, 0x3c, 0xe8, 0xbd, 0x8e, 0xd6, 0x05, 0xbe,
  0x4b, 0x8b, 0x2f, 0x3d, 0x16, 0x60, 0x77, 0xbc, 0x0a, 0x66, 0x64, 0xbd,
  0xf0, 0x3e, 0xde, 0x3b, 0x0a, 0x9c, 0x3c, 0x3c, 0xe8, 0x87, 0x77, 0x3d,
  0x69, 0x4f, 0x16, 0xbd, 0xc6, 0x9b, 0xc1, 0xbd, 0xe5, 0xd6, 0xb9, 0xbb,
  0x24, 0x63, 0x6f, 0x3d, 0xd7, 0x3f, 0x9e, 0xbd, 0xbe, 0xfb, 0x07, 0x3e,
  0x82, 0xef, 0xe5, 0x3c, 0x79, 0x21, 0xc8, 0xbd, 0xf3, 0xb6, 0x24, 0xbe,
  0x3d, 0xe8, 0x36, 0x3d, 0x10, 0xca, 0x55, 0x3c, 0xbe, 0x0d, 0x9e, 0xbd,
  0x85, 0xe6, 0xab, 0x3d, 0xf7, 0x75, 0xa8, 0xbc, 0x09, 0xf0, 0x71, 0x3d,
  0xa6, 0xc9, 0xb1, 0x3c, 0xc0, 0xbc, 0x84, 0xbd, 0xe3, 0xb4, 0x08, 0xbe,
  0x76, 0x92, 0xb2, 0x3d, 0x97, 0x65, 0xc5, 0xbc, 0xd9, 0x5c, 0x28, 0xbd,
  0x0c, 0x81, 0xa9, 0xbd, 0xef, 0xca, 0x85, 0xbd, 0x56, 0xbc, 0x5a, 0xbc,
  0x6a, 0xf1, 0xd0, 0xbc, 0x9e, 0xaa, 0xd3, 0xbc, 0x98, 0x57, 0x84, 0xbd,
  0x54, 0x5d, 0x97, 0xbd, 0x72, 0x01, 0x60, 0x3c, 0xfd, 0xe3, 0x84, 0xbd,
  0x47, 0x77, 0x4f, 0xbc, 0xfb, 0xf6, 0x74, 0xbd, 0x31, 0xb9, 0x8b, 0x3d,
  0x93, 0x47, 0xa3, 0xbd, 0xf3, 0xac, 0xf1, 0xbc, 0x53, 0xcd, 0xd9, 0x3c,
  0xbd, 0x59, 0x0f, 0x3d, 0x6e, 0x1f, 0x02, 0xbe, 0x64, 0x83, 0xf4, 0xbd,
  0x91, 0x65, 0xcb, 0xbb, 0xf8, 0xc4, 0xb0, 0xbd, 0xa0, 0xfa, 0xbe, 0xbd,
  0x76, 0x1f, 0xf4, 0x3c, 0xd7, 0x1e, 0x08, 0xbe, 0x18, 0x3a, 0x97, 0x3c,
  0x55, 0x1f, 0xcc, 0xbd, 0xe5, 0x1a, 0x35, 0x3d, 0x09, 0x11, 0x34, 0xbd,
  0x82, 0x55, 0xd0, 0xb9, 0xff, 0xba, 0x56, 0x3c, 0x42, 0x86, 0x97, 0xbd,
  0x7d, 0x81, 0xed, 0xbb, 0x07, 0xb3, 0x4f, 0x3d, 0x68, 0x60, 0xf1, 0xbd,
  0xc3, 0xb2, 0x91, 0x3d, 0x6d, 0x85, 0xe8, 0xbd, 0x53, 0x91, 0xf2, 0xbc,
  0xf2, 0xb7, 0x56, 0xbd, 0x21, 0x95, 0x80, 0xbd, 0x54, 0xe3, 0xbd, 0x3d,
  0xbd, 0x3a, 0xf6, 0xbc, 0x52, 0x22, 0x06, 0xbe, 0x2e, 0x09, 0x49, 0xbd,
  0x44, 0xa4, 0xfb, 0x3c, 0x27, 0xed, 0x46, 0x3c, 0xfc, 0x44, 0x3b, 0x3e,
  0xb0, 0x0d, 0x3b, 0x3d, 0xeb, 0x3e, 0x07, 0xbc, 0x72, 0xdc, 0x8d, 0x3d,
  0x8a, 0x0a, 0x99, 0x3d, 0x69, 0x52, 0x71, 0x3c, 0xb7, 0xce, 0x46, 0xbb,
  0x5b, 0x7d, 0x99, 0x3d, 0xca, 0xc2, 0x66, 0x3c, 0x6b, 0x32, 0x5e, 0xbd,
  0x1d, 0x20, 0x6d, 0x3c, 0xb8, 0x4d, 0x31, 0x3b, 0x98, 0x32, 0x20, 0xbd,
  0x6c, 0x8a, 0x8d, 0xbb, 0x20, 0xd5, 0x10, 0x3d, 0x45, 0x61, 0xc4, 0xbd,
  0x15, 0x0a, 0x0d, 0x3d, 0x0f, 0x11, 0x88, 0xbd, 0x49, 0xbb, 0xad, 0xbd,
  0x2d, 0x33, 0xbc, 0xbd, 0x04, 0x75, 0x2b, 0xbd, 0xc4, 0x91, 0x11, 0xbb,
  0xa5, 0x11, 0x8e, 0x3d, 0xed, 0x10, 0x87, 0x3d, 0x41, 0x56, 0xc1, 0x3d,
  0xd8, 0x9d, 0x97, 0x3d, 0xc4, 0xb7, 0x05, 0x3d, 0x9e, 0xe5, 0x7f, 0x3d,
  0xe5, 0xd6, 0xb3, 0xbd, 0xd2, 0x8a, 0x38, 0xbd, 0x8c, 0xf2, 0x88, 0xbd,
  0x48, 0xd5, 0x9d, 0xbd, 0x39, 0xdc, 0x94, 0xbc, 0x11, 0x8d, 0xa2, 0xbc,
  0xac, 0xe2, 0x45, 0xba, 0x40, 0x9f, 0x00, 0xbd, 0xf2, 0x69, 0xfa, 0x3c,
  0x69, 0xbe, 0x1f, 0x3d, 0xf6, 0xc4, 0xdc, 0xbd, 0xae, 0x22, 0x62, 0x3d,
  0x16, 0x21, 0x7c, 0xbc, 0xdd, 0x59, 0xb0, 0x3d, 0xd0, 0xe5, 0x3d, 0x3d,
  0x0f, 0xef, 0x00, 0x3d, 0x00, 0xda, 0x0e, 0xbe, 0x9f, 0x01, 0xdd, 0x3c,
  0xfa, 0x76, 0x87, 0x3c, 0x44, 0xe2, 0x6e, 0x3d, 0x03, 0x54, 0xb7, 0x3d,
  0xf0, 0xfa, 0xcd, 0xbc, 0x46, 0xda, 0xa4, 0x3c, 0x67, 0x45, 0x4f, 0xbd,
  0x7d, 0x2c, 0x3c, 0x3c, 0x40, 0x8b, 0x59, 0xbc, 0xf0, 0x62, 0xa3, 0x3d,
  0x1a, 0xa8, 0x5d, 0x3d, 0x89, 0x5e, 0xac, 0xbb, 0x5d, 0xa0, 0x6d, 0x3d,
  0x14, 0x51, 0x0d, 0xbd, 0xd4, 0x06, 0x8a, 0x3d, 0x94, 0x7c, 0xb9, 0x3d,
  0x46, 0x76, 0xf1, 0x3d, 0x8d, 0xea, 0x2b, 0xbd, 0xc0, 0x13, 0x6c, 0x3d,
  0x54, 0x28, 0x90, 0x3d, 0xfc, 0x3a, 0x0f, 0xbe, 0xe5, 0xb5, 0x45, 0xbc,
  0x26, 0xe1, 0x3e, 0xbd, 0x0c, 0x86, 0xc2, 0xbc, 0x5b, 0x29, 0xca, 0x3d,
  0xca, 0x02, 0x17, 0xbd, 0xf9, 0x18, 0xaa, 0xbd, 0x8e, 0x4b, 0x8f, 0xbc,
  0x54, 0x8e, 0xc0, 0xbd, 0xb7, 0xe6, 0x53, 0xbd, 0xcb, 0xe8, 0x93, 0xbd,
  0x11, 0x18, 0x41, 0x3d, 0x2a, 0xf9, 0xf8, 0xbc, 0x9e, 0x0b, 0x3a, 0x3d,
  0xa7, 0x8c, 0x8f, 0x3d, 0x6f, 0x2d, 0x12, 0xbd, 0x6c, 0xfd, 0xe8, 0x3c,
  0x6c, 0xe9, 0xce, 0x3d, 0x6c, 0x23, 0xc0, 0x3c, 0xc5, 0xec, 0x8a, 0x3d,
  0x27, 0x09, 0xac, 0xbd, 0x6d, 0x27, 0xa3, 0x3d, 0x53, 0x96, 0x39, 0xbd,
  0xa8, 0x0c, 0x9a, 0xbd, 0x34, 0xdc, 0xff, 0x3c, 0x08, 0xf7, 0x95, 0x3c,
  0x0d, 0x5d, 0x0a, 0x3d, 0x87, 0xeb, 0x96, 0x3b, 0x90, 0x6b, 0xd9, 0x3a,
  0x91, 0x4e, 0x94, 0x3d, 0xfa, 0x3e, 0x40, 0xbd, 0xb7, 0x2f, 0xb1, 0x3a,
  0x79, 0x7e, 0x87, 0x3d, 0x72, 0x0c, 0x42, 0xbd, 0x16, 0x06, 0x89, 0x3c,
  0x32, 0xad, 0x73, 0xbc, 0x2c, 0xa6, 0xcf, 0x3d, 0x40, 0x8f, 0x7c, 0x3d,
  0x64, 0xc5, 0x60, 0x3d, 0x1f, 0xb7, 0x54, 0x3d, 0x0c, 0x12, 0x8a, 0xbb,
  0x64, 0x00, 0x1f, 0x3c, 0x86, 0xb8, 0x34, 0xbd, 0xcb, 0x4b, 0x84, 0x3d,
  0xd4, 0xfe, 0xb5, 0xbd, 0x23, 0x43, 0x31, 0x3d, 0xed, 0x28, 0xce, 0x3d,
  0xb8, 0x35, 0x3f, 0x3d, 0x40, 0x7e, 0x3a, 0xbd, 0xdb, 0x0e, 0x17, 0xbd,
  0x1a, 0x67, 0x35, 0xbb, 0x46, 0x49, 0x01, 0x3b, 0xb0, 0x86, 0xc5, 0xbd,
  0x3a, 0xbb, 0x95, 0x3d, 0x60, 0x45, 0xa2, 0xbc, 0x06, 0x56, 0x66, 0xbc,
  0xdd, 0x90, 0x94, 0xbd, 0xb2, 0xd4, 0xcd, 0xbd, 0x06, 0x79, 0x14, 0x3c,
  0x83, 0x6d, 0x7a, 0xbd, 0x3d, 0xd7, 0xd4, 0xbd, 0x26, 0x19, 0x1d, 0x3b,
  0x2d, 0x15, 0xd2, 0xbd, 0x1c, 0x87, 0xa5, 0xbd, 0xf4, 0x53, 0x9d, 0xbc,
  0x49, 0x12, 0x46, 0xbc, 0x9b, 0xcf, 0x5a, 0x3b, 0xef, 0xf2, 0x7b, 0x3d,
  0x5e, 0x2c, 0x91, 0xbd, 0x57, 0x20, 0xa4, 0x3d, 0x55, 0x2d, 0x01, 0xbc,
  0xeb, 0x22, 0x13, 0xbd, 0x21, 0x36, 0x07, 0x3e, 0xdf, 0x8f, 0xc9, 0xbc,
  0xff, 0xa9, 0xb0, 0x3d, 0xef, 0x69, 0x06, 0xbe, 0xd5, 0xa1, 0x9f, 0x3c,
  0x10, 0x6b, 0xa6, 0x3d, 0xbf, 0x67, 0x5f, 0xbc, 0xa5, 0x2a, 0x1f, 0x3d,
  0x02, 0xba, 0x97, 0xbd, 0x40, 0x2b, 0x88, 0xbb, 0x2b, 0x28, 0x31, 0xbc,
  0xa6, 0xb7, 0xe4, 0x3d, 0x61, 0x65, 0x0e, 0xbd, 0x20, 0x07, 0x4d, 0x3c,
  0x05, 0xfe, 0xb5, 0xbc, 0xb0, 0x2b, 0x64, 0xbc, 0x2b, 0x19, 0x06, 0x3d,
  0x9f, 0x4d, 0x84, 0x3d, 0xfe, 0xbe, 0x65, 0xbd, 0xf7, 0x06, 0x03, 0x3e,
  0x6c, 0x7e, 0x41, 0xbd, 0x15, 0x17, 0x30, 0xbd, 0x52, 0x46, 0x5b, 0xbd,
  0xf6, 0x92, 0xd1, 0x3d, 0xcf, 0x17, 0xa5, 0x3d, 0xd4, 0xff, 0x83, 0x3d,
  0x8e, 0x32, 0x81, 0xbc, 0xa5, 0x96, 0x85, 0x3d, 0xa3, 0x5c, 0xb1, 0x3b,
  0x5f, 0xd6, 0x68, 0xbd, 0x80, 0x7c, 0x4f, 0x3c, 0x96, 0x9d, 0x01, 0xbe,
  0xd2, 0xf3, 0x65, 0xbb, 0x9b, 0xea, 0x5d, 0xbc, 0x24, 0x47, 0x16, 0x3d,
  0x56, 0x25, 0x36, 0xbd, 0x10, 0x20, 0x11, 0xbd, 0xed, 0x39, 0x70, 0xbd,
  0x24, 0xd8, 0xb3, 0x3d, 0xca, 0x6b, 0xb8, 0x3c, 0xf4, 0x61, 0x74, 0x3d,
  0xd1, 0x83, 0x18, 0xb9, 0x3d, 0x02, 0x17, 0xbb, 0xdd, 0xa0, 0x7a, 0x3d,
  0xe0, 0xec, 0x34, 0x3d, 0x75, 0x1f, 0xbb, 0xbd, 0x76, 0x67, 0x4a, 0x3d,
  0x7f, 0x41, 0x11, 0xbd, 0x22, 0x06, 0x9c, 0xbd, 0xab, 0x9d, 0x08, 0xbe,
  0x2b, 0x78, 0x1f, 0x3d, 0x1c, 0x7c, 0xa1, 0xbd, 0x52, 0xe4, 0x67, 0xbd,
  0x2c, 0xd5, 0x53, 0x3d, 0x75, 0x01, 0x00, 0xbe, 0xcb, 0xb3, 0x8c, 0xbb,
  0xe8, 0x53, 0xbe, 0x3d, 0x6b, 0xcc, 0xed, 0x3b, 0x5f, 0x64, 0x3c, 0x3d,
  0xdf, 0x5e, 0x42, 0x3d, 0xbe, 0x1d, 0xd7, 0x3d, 0x15, 0xda, 0x31, 0xbc,
  0xbc, 0x30, 0x8c, 0x3d, 0xbe, 0x57, 0xbc, 0x3d, 0x3f, 0xe5, 0xd6, 0x3c,
  0x00, 0xf6, 0x45, 0xba, 0xb6, 0x46, 0x4a, 0x3d, 0x90, 0xf1, 0xae, 0xbc,
  0xa9, 0x19, 0x93, 0xbc, 0xf0, 0x3b, 0x02, 0xbd, 0xb7, 0xd1, 0x9c, 0x3d,
  0x30, 0x2a, 0xc9, 0x3a, 0x13, 0x22, 0x2f, 0x3d, 0x4f, 0x29, 0x9c, 0x3b,
  0xe2, 0x55, 0x5f, 0x3d, 0x11, 0x99, 0x65, 0x3d, 0xc0, 0x61, 0x29, 0xbd,
  0xee, 0x08, 0x60, 0xbd, 0xc9, 0xd1, 0xf0, 0x3c, 0x7f, 0xfb, 0x92, 0xbb,
  0xb4, 0xed, 0x84, 0x3d, 0x9e, 0x13, 0xa8, 0x3c, 0xf7, 0xd9, 0xc3, 0xbd,
  0x1e, 0x3f, 0xb6, 0xbc, 0xac, 0xe3, 0x5d, 0xbd, 0x2f, 0x17, 0xf5, 0xb9,
  0xbc, 0xf9, 0x0e, 0xbd, 0xd3, 0x5f, 0x2a, 0xbd, 0x87, 0x51, 0x2d, 0xbc,
  0x89, 0x4f, 0xb0, 0x3d, 0x9e, 0x7d, 0xf4, 0xbd, 0xd4, 0xd2, 0xee, 0x3c,
  0x51, 0x4b, 0x85, 0x3c, 0x22, 0xcb, 0xcc, 0xbc, 0x09, 0xd2, 0x3a, 0xbd,
  0xb2, 0xf9, 0x82, 0xbd, 0x7b, 0xd2, 0x46, 0xbd, 0xd6, 0xaf, 0x5b, 0x3c,
  0x76, 0x42, 0x0d, 0x3d, 0xd8, 0x58, 0x2f, 0x3d, 0xf1, 0x78, 0x14, 0xbd,
  0xb7, 0x10, 0x49, 0xbd, 0xf1, 0xc1, 0x92, 0x3c, 0x38, 0xf6, 0x09, 0xbd,
  0xd9, 0x1e, 0xb6, 0xbd, 0xec, 0x2e, 0x12, 0x3d, 0x7a, 0xf7, 0x31, 0x3d,
  0x4f, 0x39, 0x3b, 0xbd, 0x47, 0x5f, 0xec, 0x3a, 0x0b, 0xbc, 0x20, 0x3d,
  0xe2, 0x6c, 0xc1, 0xbd, 0x9d, 0x75, 0xfd, 0xbc, 0x46, 0x24, 0xf8, 0x3c,
  0x46, 0xb9, 0x5c, 0x3c, 0xc5, 0x8f, 0x1f, 0xbd, 0xc2, 0x3b, 0x9c, 0x3d,
  0x18, 0xa0, 0xc1, 0xbd, 0x30, 0x6e, 0x42, 0xbd, 0x83, 0x31, 0xbf, 0xbd,
  0xe4, 0x4a, 0x70, 0x3d, 0xf2, 0xdb, 0x8e, 0x3d, 0x38, 0x2d, 0x78, 0x3d,
  0xa4, 0xcf, 0x60, 0xbc, 0xf7, 0xc3, 0x98, 0x3c, 0x7d, 0x37, 0xa9, 0x3d,
  0x09, 0xbe, 0x8c, 0xbd, 0xb5, 0xa5, 0x71, 0x3c, 0xf7, 0xbf, 0xce, 0x3d,
  0xda, 0xaa, 0x8a, 0x3c, 0xa5, 0x85, 0xdb, 0x3d, 0xc0, 0xbe, 0x32, 0xbc,
  0x6a, 0x79, 0x2d, 0x3c, 0x57, 0xf0, 0x33, 0x3d, 0x74, 0xb0, 0x80, 0xbd,
  0x2d, 0xee, 0x95, 0xbd, 0x21, 0xa0, 0xe3, 0x3c, 0x2c, 0x69, 0x11, 0xbd,
  0xfd, 0x5b, 0xae, 0x3c, 0x36, 0x02, 0xbb, 0x3d, 0x69, 0xb4, 0x55, 0x3d,
  0xd6, 0x3c, 0xa9, 0x3c, 0xaf, 0xe4, 0x64, 0x3d, 0x65, 0x90, 0x56, 0x3d,
  0x60, 0x4f, 0xf4, 0x3c, 0x48, 0x99, 0x87, 0xbd, 0x68, 0x45, 0x74, 0xbd,
  0x47, 0x88, 0xf2, 0xbc, 0x97, 0x53, 0xb8, 0xbd, 0x3f, 0xcb, 0x89, 0x3a,
  0x61, 0x17, 0xba, 0xbc, 0xbb, 0x88, 0x06, 0x3d, 0xeb, 0xcc, 0x39, 0x3c,
  0x77, 0x70, 0x89, 0xbc, 0xf6, 0x01, 0xef, 0x3c, 0x94, 0xaa, 0xe8, 0x3d,
  0x31, 0x25, 0x95, 0xbc, 0xe9, 0x12, 0xfd, 0x3d, 0x6d, 0xa4, 0x96, 0x3d,
  0x31, 0xd2, 0xc0, 0xbd, 0x6d, 0x09, 0x0a, 0xbd, 0x8c, 0x16, 0xf0, 0xbd,
  0x88, 0x3d, 0x8d, 0x3d, 0x87, 0x71, 0x8f, 0x3d, 0x5a, 0x51, 0x79, 0x3d,
  0xcd, 0x0b, 0x84, 0x3d, 0xa7, 0x71, 0x95, 0x3d, 0xdf, 0xd9, 0x91, 0xbd,
  0x08, 0x12, 0x01, 0x3d, 0x25, 0x17, 0x87, 0x3d, 0xd5, 0xe3, 0x63, 0xbd,
  0x7e, 0x07, 0x96, 0xbd, 0xef, 0x56, 0x04, 0xbe, 0xaa, 0xac, 0xf9, 0x3c,
  0xd3, 0x05, 0x9d, 0xbd, 0x3f, 0x7f, 0xe4, 0x3d, 0xf0, 0x10, 0x9c, 0x3d,
  0x5a, 0xf0, 0x29, 0xbd, 0x78, 0x30, 0x8f, 0x3d, 0x6f, 0xe5, 0x06, 0x3e,
  0x39, 0xa9, 0x80, 0xbd, 0x6a, 0xb2, 0x4d, 0x3d, 0x30, 0x47, 0xfd, 0xbc,
  0xa9, 0x53, 0x8d, 0xbd, 0x47, 0x1d, 0xdf, 0x3d, 0xa4, 0xa2, 0x8d, 0xbc,
  0x08, 0xa5, 0x26, 0xbc, 0xce, 0xff, 0x9d, 0x3c, 0x58, 0x5b, 0x07, 0x3c,
  0x44, 0x85, 0x89, 0x3d, 0xf5, 0x5a, 0x6c, 0xbd, 0x37, 0x57, 0x60, 0x3c,
  0xdd, 0x16, 0xb5, 0x3d, 0x07, 0xc7, 0xe2, 0x3d, 0x35, 0x48, 0xf0, 0x3c,
  0xae, 0x5d, 0x98, 0x3d, 0xa7, 0xaa, 0x83, 0x3d, 0x69, 0x6b, 0x91, 0x3c,
  0x89, 0x1d, 0x81, 0xbd, 0x66, 0x7c, 0x5a, 0xbd, 0x0d, 0xc8, 0xd7, 0x3d,
  0x78, 0x99, 0xae, 0x3d, 0xd2, 0xea, 0x1b, 0xbe, 0x63, 0xcf, 0x02, 0x3d,
  0xfa, 0xf7, 0x98, 0xbc, 0xb5, 0x35, 0x91, 0xbd, 0xab, 0xad, 0x5e, 0x3d,
  0x3f, 0x74, 0x7e, 0xbc, 0x63, 0xda, 0xf3, 0xbd, 0x85, 0x6a, 0x3f, 0x3b,
  0x6f, 0x84, 0xc3, 0x3d, 0x19, 0xd8, 0x2f, 0xbd, 0xc4, 0x32, 0xef, 0x3d,
  0xbd, 0x14, 0xba, 0xbd, 0x16, 0xc7, 0x9f, 0xbd, 0xc4, 0xd6, 0x33, 0xbe,
  0x6b, 0xf5, 0xaa, 0x3d, 0x3f, 0x2b, 0x3f, 0xbd, 0xac, 0x5d, 0x01, 0x3e,
  0xc7, 0x74, 0xa5, 0xbc, 0x8a, 0x3f, 0x8e, 0xbb, 0xb7, 0xea, 0xcd, 0x3d,
  0x38, 0xf3, 0x22, 0xbd, 0x48, 0x7e, 0x77, 0x3d, 0x58, 0xe5, 0x85, 0xba,
  0xcd, 0x37, 0x96, 0xbd, 0x78, 0xce, 0xe5, 0xbd, 0xee, 0x44, 0xfe, 0x3d,
  0xa3, 0x92, 0xaf, 0xbd, 0x29, 0x4c, 0x72, 0x3d, 0xf2, 0xb7, 0xb3, 0x3d,
  0x79, 0x89, 0xad, 0x3d, 0xb6, 0xa0, 0x3d, 0xbd, 0xd4, 0xd8, 0x08, 0x3d,
  0x30, 0xf0, 0xaf, 0x3d, 0xe9, 0xb2, 0x79, 0xbd, 0x46, 0x57, 0x87, 0xbc,
  0xfb, 0xd4, 0x67, 0xbc, 0xf9, 0xb1, 0xd6, 0xbd, 0x6a, 0x75, 0xcc, 0xbd,
  0x70, 0xa7, 0x62, 0x3d, 0x0d, 0x8d, 0x59, 0xbd, 0x10, 0x64, 0x79, 0x3d,
  0x14, 0x06, 0x96, 0xbd, 0x02, 0xc3, 0x46, 0xbc, 0x72, 0xbe, 0x8b, 0xbc,
  0x2c, 0x7f, 0xb3, 0x3a, 0xb3, 0x8c, 0x7c, 0xbd, 0xe2, 0x4d, 0x87, 0xbc,
  0xfc, 0x7a, 0x25, 0xbc, 0x94, 0x37, 0x28, 0xbc, 0xe3, 0x32, 0xfd, 0xbd,
  0x6d, 0x61, 0xb3, 0x3b, 0x64, 0x81, 0x89, 0x3d, 0x9c, 0x78, 0x81, 0xbc,
  0xb8, 0x9a, 0x9d, 0xbd, 0xba, 0x09, 0xc2, 0xbc, 0x28, 0xa9, 0x93, 0x3d,
  0x49, 0x01, 0x43, 0x3d, 0x5c, 0x5b, 0xb9, 0x3d, 0x60, 0x31, 0x2e, 0xbd,
  0x57, 0xcf, 0x66, 0x3d, 0x74, 0xd8, 0xd4, 0x3d, 0xda, 0xea, 0x84, 0xbd,
  0xdf, 0x92, 0x39, 0x3c, 0xb5, 0xd9, 0xeb, 0x3d, 0x5d, 0x1a, 0x80, 0x3d,
  0x61, 0xc6, 0x91, 0x3d, 0x8a, 0xa6, 0x17, 0x3c, 0x01, 0x24, 0xe3, 0x3d,
  0x3c, 0x64, 0x42, 0x3d, 0x90, 0x3c, 0xd0, 0xbc, 0x5f, 0x13, 0x0a, 0xbd,
  0x48, 0xda, 0x03, 0xbd, 0xc1, 0xb0, 0x4d, 0xbc, 0xba, 0x34, 0x00, 0xbd,
  0x63, 0x60, 0x9a, 0xbd, 0x2e, 0x0d, 0xd6, 0x3d, 0x38, 0x9f, 0xb2, 0x3d,
  0x9f, 0xb1, 0x28, 0x3d, 0xec, 0xd5, 0xa2, 0xbd, 0x2b, 0x7f, 0x3a, 0x3d,
  0x64, 0xb9, 0x7e, 0xbc, 0xc1, 0x5e, 0x22, 0x3d, 0x04, 0x79, 0xeb, 0x3d,
  0x44, 0xe4, 0xaa, 0xbc, 0xa5, 0x17, 0x79, 0x3d, 0x4b, 0xc1, 0xd2, 0x3d,
  0x15, 0x8a, 0x17, 0xbd, 0xd8, 0xc7, 0x16, 0x3d, 0xa8, 0x6f, 0x93, 0xbb,
  0x87, 0xad, 0x40, 0xbd, 0x6b, 0x8d, 0x0c, 0xbd, 0xb9, 0x44, 0xd9, 0x3b,
  0x35, 0xcb, 0x9a, 0xbd, 0xc7, 0x41, 0x34, 0x3d, 0xdf, 0xe2, 0x3a, 0x3d,
  0xc8, 0x3c, 0x52, 0xbd, 0x4e, 0x63, 0x98, 0x3c, 0xde, 0x1a, 0x63, 0x3d,
  0x5d, 0xe2, 0x6a, 0x3d, 0x39, 0x96, 0x97, 0xbd, 0x0e, 0xf8, 0x63, 0xbd,
  0x21, 0x90, 0x0d, 0xbd, 0x65, 0x5f, 0x3a, 0x3d, 0x96, 0x34, 0x8d, 0xbd,
  0x8c, 0xb7, 0x0f, 0x3d, 0xcc, 0xd9, 0xb9, 0x3d, 0x80, 0x54, 0xbe, 0x3d,
  0xa4, 0x1c, 0xd0, 0x3d, 0x4e, 0x0c, 0x63, 0x3d, 0xcc, 0xd0, 0x90, 0xbd,
  0x0b, 0xcb, 0xbd, 0xbc, 0x2f, 0xbb, 0x85, 0x3d, 0x59, 0xdf, 0x95, 0x3d,
  0xdf, 0x33, 0xb4, 0x3d, 0x72, 0x5b, 0xda, 0x3d, 0xf1, 0xcd, 0xa1, 0x3c,
  0x65, 0xfe, 0xc8, 0xbd, 0x79, 0x2b, 0x9a, 0x3c, 0xa8, 0x96, 0x11, 0xbd,
  0xaa, 0xbb, 0x35, 0xbc, 0xcd, 0x1f, 0x6c, 0xbb, 0xd2, 0x7c, 0xfe, 0x3a,
  0xd9, 0x14, 0x9b, 0xbd, 0xbb, 0xd4, 0xfb, 0xbc, 0xe2, 0xe0, 0x0c, 0x3e,
  0xa7, 0x23, 0xef, 0x3c, 0xa0, 0xb9, 0x99, 0xbc, 0xc6, 0xa3, 0x75, 0x3d,
  0xc4, 0xa7, 0x8b, 0x3d, 0x4a, 0x58, 0x87, 0x3d, 0xcd, 0xfb, 0x22, 0xbd,
  0xd7, 0x0f, 0x66, 0xbd, 0xa6, 0x0f, 0x92, 0x3d, 0xce, 0xdd, 0x95, 0x3c,
  0x18, 0x59, 0x7f, 0xbd, 0x58, 0xd6, 0x91, 0xbd, 0x5f, 0x0c, 0xb2, 0x3d,
  0x73, 0x48, 0x98, 0x3d, 0xb8, 0xb5, 0x81, 0xbd, 0x72, 0xbf, 0x3c, 0xbc,
  0xc5, 0xdd, 0x8b, 0xbb, 0x7a, 0x02, 0x2c, 0xbd, 0x5c, 0x53, 0xa6, 0xbd,
  0xfb, 0xd2, 0x8d, 0x3d, 0xd3, 0x33, 0x11, 0x3d, 0x09, 0xd5, 0x28, 0x3d,
  0x6f, 0x33, 0x0c, 0x3c, 0x5c, 0xdb, 0x6f, 0x3d, 0xaa, 0x9c, 0xfc, 0xbc,
  0x00, 0xaf, 0x8a, 0x3c, 0x6f, 0x22, 0x46, 0x3d, 0x7f, 0xb7, 0x13, 0x3d,
  0x2c, 0xfc, 0x98, 0xbd, 0x26, 0xbf, 0x14, 0x3d, 0xa9, 0x8c, 0x8b, 0x3d,
  0xc6, 0x37, 0xe2, 0xbd, 0xdd, 0xb6, 0x86, 0x3d, 0xc3, 0xae, 0x48, 0x3d,
  0x53, 0xcb, 0x85, 0x3d, 0x02, 0x5a, 0xba, 0x3c, 0xf2, 0xe1, 0x0c, 0xbc,
  0xe6, 0xd6, 0x89, 0x3d, 0xc9, 0x3d, 0x15, 0x3d, 0x7f, 0x49, 0xa1, 0xbd,
  0x5e, 0xf2, 0x87, 0x3d, 0xd2, 0x1e, 0x95, 0x3b, 0x8f, 0x04, 0x9f, 0xbd,
  0xc1, 0xe4, 0x65, 0xbd, 0xff, 0x53, 0x9c, 0x3a, 0x3e, 0xd0, 0xb3, 0x3c,
  0xdf, 0x3d, 0xca, 0xbd, 0x2a, 0xdb, 0xf7, 0x3c, 0x8b, 0xe2, 0xa0, 0x3d,
  0x5e, 0xce, 0x63, 0x3d, 0x62, 0x5d, 0xdb, 0xbb, 0x83, 0x32, 0xcf, 0x3d,
  0x85, 0xbe, 0x07, 0x3b, 0x3d, 0x6d, 0x6e, 0x3d, 0x7f, 0xb0, 0x8b, 0x3d,
  0x1d, 0x53, 0xfa, 0x3b, 0x40, 0xe4, 0x74, 0x3c, 0xca, 0x83, 0x5d, 0x3c,
  0xc4, 0x0d, 0xdb, 0xbc, 0x82, 0x97, 0xf2, 0x3d, 0xb6, 0x9c, 0x68, 0x3d,
  0x91, 0x59, 0xa1, 0x3d, 0xb1, 0x4d, 0x92, 0xbd, 0xcb, 0xa3, 0xb7, 0x3d,
  0x8d, 0xdd, 0x37, 0xbd, 0x96, 0xc7, 0x8e, 0x3d, 0x95, 0x27, 0x8d, 0x3d,
  0xd1, 0xb3, 0xb4, 0xbd, 0x43, 0x7c, 0x2d, 0x3e, 0x9e, 0x60, 0xce, 0xbc,
  0x24, 0xd3, 0x32, 0x3d, 0xf4, 0xdc, 0x1e, 0x3e, 0x44, 0x60, 0x91, 0x3d,
  0x2b, 0xc9, 0x29, 0x3d, 0xe0, 0xb1, 0x83, 0xbd, 0x4f, 0x7d, 0xb1, 0x3d,
  0x0e, 0x34, 0xa3, 0x3d, 0x78, 0x5e, 0xeb, 0xbc, 0xd8, 0xd7, 0x2f, 0x3d,
  0xd5, 0x50, 0xc7, 0x3b, 0xd4, 0x68, 0x18, 0x3e, 0xcc, 0xce, 0x68, 0x3d,
  0x6a, 0x69, 0x5d, 0xbd, 0xb8, 0x0c, 0x48, 0xbc, 0x37, 0x2b, 0xb7, 0xbc,
  0x92, 0x81, 0x7e, 0xbd, 0x62, 0xbf, 0x34, 0x3c, 0x06, 0x2a, 0x9a, 0xbd,
  0x34, 0xe3, 0x93, 0xbb, 0x9f, 0x9d, 0x75, 0xbd, 0x6c, 0xc4, 0xd8, 0x3a,
  0xbe, 0xcf, 0x8b, 0xb9, 0x7d, 0xe5, 0x58, 0x3d, 0xf8, 0x55, 0x6e, 0x3d,
  0x97, 0x59, 0xaf, 0x3c, 0x18, 0xc4, 0x23, 0xbd, 0x84, 0x8c, 0x1b, 0x3c,
  0x5a, 0xbe, 0x79, 0x3d, 0x95, 0x59, 0x3e, 0x3d, 0x13, 0xed, 0xd3, 0x3d,
  0xbf, 0x71, 0x5f, 0x3d, 0x29, 0x29, 0xf5, 0x3d, 0xaa, 0x36, 0xdc, 0x3c,
  0x7f, 0x06, 0x97, 0x3d, 0x9c, 0x54, 0x80, 0xbb, 0x2e, 0xaf, 0xc9, 0x3d,
  0x87, 0x8f, 0xbc, 0x3d, 0x7a, 0x30, 0x87, 0xbd, 0x84, 0xd3, 0x3e, 0x3d,
  0x63, 0xfb, 0x3b, 0xbc, 0xb9, 0x5b, 0x25, 0xbd, 0xf4, 0x4b, 0xaf, 0x3d,
  0x4e, 0x79, 0x0a, 0x3d, 0xff, 0x5d, 0x16, 0xbd, 0xed, 0xc6, 0xc5, 0x3d,
  0x0e, 0x8b, 0xb8, 0x3d, 0x2a, 0xdc, 0xb0, 0x3d, 0x88, 0x9c, 0x4f, 0xbc,
  0x39, 0xcb, 0xa6, 0xbd, 0xce, 0xc7, 0x78, 0xbd, 0x9e, 0x39, 0x8e, 0xbd,
  0x17, 0xae, 0x66, 0xbd, 0x96, 0x31, 0xc4, 0xbd, 0x1e, 0x0a, 0x45, 0x3d,
  0xc9, 0x09, 0x80, 0xbd, 0x4d, 0x7c, 0xf0, 0x3c, 0xd9, 0xbe, 0xaa, 0xbd,
  0x48, 0xbd, 0x89, 0x3d, 0x9b, 0xf5, 0xdb, 0x3c, 0xec, 0x2d, 0xa2, 0xbd,
  0xcf, 0x4c, 0x2f, 0x3d, 0xdb, 0x5a, 0xee, 0x3d, 0x86, 0xdb, 0xa8, 0xbc,
  0x72, 0xcf, 0x6b, 0x3d, 0x38, 0x41, 0x45, 0x3d, 0x4d, 0xee, 0xa5, 0x3c,
  0x65, 0x58, 0x73, 0x3b, 0xac, 0x03, 0xce, 0x3d, 0xcb, 0x8d, 0x0a, 0xbd,
  0x19, 0x77, 0xda, 0xbb, 0xad, 0x26, 0xad, 0x3c, 0xe8, 0x91, 0x8c, 0x3c,
  0x8c, 0x8f, 0xae, 0xbc, 0x40, 0x6f, 0x68, 0x3a, 0x9f, 0x20, 0xf4, 0x3d,
  0xdf, 0x68, 0xc3, 0x3c, 0xb7, 0xbd, 0xd8, 0x3d, 0xb8, 0x49, 0x8f, 0x3d,
  0x3c, 0x29, 0x8a, 0xbd, 0x1e, 0xc4, 0x51, 0xbd, 0x3e, 0xd6, 0xc3, 0xbd,
  0xb8, 0xf6, 0x78, 0xbd, 0x47, 0x46, 0x3a, 0x3d, 0x78, 0x45, 0x72, 0xbd,
  0x9d, 0xc7, 0xbd, 0xbd, 0xb0, 0xc7, 0x8d, 0xbc, 0xed, 0x92, 0x10, 0x3d,
  0xfe, 0x87, 0x9c, 0x3c, 0xc2, 0x38, 0x11, 0xbd, 0x2f, 0xf5, 0xea, 0x3d,
  0x0a, 0x0a, 0x3e, 0xbd, 0xed, 0x21, 0xde, 0x3d, 0x2b, 0x25, 0xe0, 0xbc,
  0xeb, 0xed, 0x90, 0xbc, 0x23, 0x4c, 0xe0, 0x3c, 0xf2, 0x34, 0x8f, 0xbc,
  0x21, 0xa3, 0xfb, 0xbc, 0x36, 0x7c, 0x01, 0xbe, 0xcd, 0x4b, 0xe5, 0xbc,
  0x00, 0x5c, 0xb9, 0x3d, 0x3e, 0x8b, 0xd0, 0x3b, 0xd0, 0x06, 0xac, 0xbb,
  0x50, 0x8e, 0x6e, 0x3d, 0x04, 0xf6, 0x74, 0x3d, 0x39, 0x15, 0xf7, 0x3d,
  0xc7, 0x83, 0x9b, 0xbb, 0x8d, 0xd2, 0xb7, 0xbc, 0x14, 0xb9, 0x04, 0x3e,
  0xb6, 0xf3, 0xc4, 0xbd, 0x16, 0xaf, 0x8f, 0xbd, 0x31, 0x97, 0xe6, 0xbc,
  0x29, 0x7d, 0x25, 0x3d, 0x29, 0xec, 0x26, 0x3d, 0x91, 0x81, 0xba, 0x3d,
  0xa4, 0x50, 0xf9, 0x3c, 0x93, 0x83, 0xec, 0x3d, 0x64, 0xc4, 0xb9, 0xbd,
  0xe0, 0xb7, 0x19, 0xbc, 0x01, 0xcb, 0xfb, 0xbd, 0xb3, 0x53, 0xc1, 0x3c,
  0x44, 0xff, 0xdd, 0x3d, 0x65, 0x25, 0x16, 0x3d, 0x5f, 0x8e, 0x90, 0x3d,
  0x8a, 0x0c, 0x12, 0xbd, 0x13, 0x80, 0x81, 0x3d, 0x95, 0x89, 0x6e, 0xbd,
  0xa5, 0x7f, 0xa4, 0xbd, 0x7c, 0x0a, 0x93, 0xbd, 0xf4, 0x52, 0x95, 0x3d,
  0xf2, 0x7f, 0x9c, 0x3d, 0x78, 0xe7, 0x99, 0xbd, 0x29, 0x6d, 0x84, 0x3c,
  0x12, 0x0e, 0xd8, 0xbd, 0xc1, 0x5b, 0xa8, 0xbc, 0x78, 0xb4, 0x84, 0x3d,
  0x36, 0x54, 0x57, 0x3d, 0x3a, 0x66, 0xa3, 0x3d, 0x58, 0x4d, 0xae, 0x3b,
  0x38, 0xe3, 0xef, 0xbd, 0x50, 0xe7, 0xad, 0x3d, 0x55, 0x7e, 0x97, 0xbd,
  0xbd, 0x69, 0xc8, 0x3d, 0xbc, 0xd0, 0xa4, 0xbc, 0xc7, 0xb2, 0x07, 0x3d,
  0xb9, 0x8c, 0x33, 0xbd, 0xdb, 0xd2, 0xf7, 0xbd, 0x5b, 0x49, 0x02, 0xbd,
  0x58, 0x5d, 0x78, 0x3c, 0x8e, 0x23, 0xe6, 0x3c, 0x42, 0xf8, 0x94, 0x3d,
  0xe8, 0x35, 0x69, 0x3d, 0x71, 0xce, 0x1d, 0x3d, 0xdf, 0x22, 0x2c, 0xbd,
  0x6b, 0xb6, 0x53, 0x3d, 0x56, 0xeb, 0x03, 0x3e, 0xae, 0xf2, 0xed, 0x3d,
  0x5e, 0x27, 0x55, 0x3d, 0xd0, 0x9b, 0x88, 0x3d, 0x31, 0x86, 0x0a, 0x3e,
  0x72, 0x8c, 0xb5, 0xbd, 0x7a, 0x11, 0x34, 0x3d, 0x9b, 0xd5, 0x8f, 0x3c,
  0xcb, 0x2b, 0x9a, 0xbd, 0x29, 0xeb, 0x54, 0x3d, 0x27, 0xe5, 0x92, 0x3d,
  0x51, 0x26, 0x18, 0x3d, 0x1e, 0x04, 0x30, 0x3d, 0x07, 0x19, 0xdf, 0x3b,
  0xf3, 0xda, 0xa2, 0x3d, 0x62, 0x51, 0xf9, 0x3c, 0xf2, 0x7b, 0x3a, 0xbd,
  0xc2, 0x38, 0xf2, 0x3c, 0xc8, 0x51, 0x24, 0x3d, 0xa4, 0x20, 0x1d, 0x3c,
  0x7d, 0xb2, 0x30, 0xbb, 0x50, 0xed, 0xf1, 0x3d, 0x2b, 0x06, 0x96, 0xbd,
  0xf5, 0x54, 0xaf, 0xbd, 0x26, 0x31, 0xa2, 0x3d, 0x0b, 0xb3, 0xc4, 0x3d,
  0x91, 0xb7, 0x1d, 0x3d, 0xe1, 0x2c, 0xb4, 0x3b, 0x29, 0xd0, 0x05, 0x39,
  0xf1, 0x7c, 0x84, 0x3d, 0x93, 0x91, 0xab, 0x3c, 0xca, 0x32, 0xf6, 0xbd,
  0xa4, 0x66, 0x8c, 0xbc, 0xaf, 0xd9, 0x8b, 0x3d, 0x9b, 0x92, 0x18, 0x3d,
  0x0b, 0xdd, 0x96, 0x3b, 0x9e, 0x06, 0x17, 0xbd, 0xfa, 0x71, 0x21, 0x3d,
  0x70, 0x70, 0xe0, 0x3c, 0xe7, 0xa9, 0xa4, 0x3d, 0xc1, 0x3e, 0x3b, 0x3d,
  0xeb, 0x38, 0x76, 0xbd, 0xbb, 0xf7, 0x69, 0x3a, 0x65, 0xeb, 0x23, 0xbc,
  0x9b, 0x85, 0xf9, 0xbc, 0x8f, 0xca, 0x66, 0x3d, 0xd8, 0xbc, 0xd3, 0xbd,
  0x60, 0x4a, 0x1f, 0xbd, 0x5b, 0xb5, 0x79, 0xbd, 0x17, 0xee, 0x82, 0x3d,
  0xb9, 0x59, 0x4b, 0xbb, 0xc2, 0x1a, 0x71, 0xbd, 0xcc, 0x03, 0xb0, 0xbd,
  0x6f, 0xc7, 0x7c, 0x3d, 0x73, 0xb9, 0x4b, 0x3d, 0x47, 0x78, 0x6b, 0xba,
  0x61, 0xdf, 0x9b, 0x3d, 0x1c, 0xb5, 0xc3, 0x3c, 0xb6, 0x4e, 0x86, 0xbd,
  0x23, 0xb9, 0xe4, 0xbd, 0xb9, 0xce, 0x3f, 0x3d, 0x34, 0xbd, 0x84, 0x3c,
  0x28, 0x59, 0x3e, 0xbd, 0x22, 0x2c, 0xba, 0x3d, 0x85, 0x6c, 0x41, 0x3d,
  0x8c, 0x80, 0xa3, 0xbd, 0x80, 0x18, 0x0f, 0xbb, 0x32, 0xad, 0x1b, 0xbe,
  0x1e, 0xdc, 0x57, 0xbd, 0xe1, 0x88, 0xb8, 0x3c, 0x5e, 0xe7, 0x1f, 0x3d,
  0x9a, 0x7a, 0x11, 0xbd, 0x79, 0xd1, 0xaf, 0x3b, 0x7d, 0x82, 0x40, 0x3d,
  0x5e, 0x9b, 0x6c, 0xbd, 0x15, 0x96, 0x36, 0x3d, 0x08, 0x80, 0x5f, 0x3d,
  0x47, 0xf1, 0x85, 0xbd, 0xd8, 0xb7, 0xc3, 0x3b, 0x5d, 0x42, 0x2b, 0x3d,
  0xfb, 0x44, 0x05, 0xbd, 0xa9, 0x12, 0xaa, 0x3b, 0x5f, 0x0c, 0x73, 0xbd,
  0x85, 0xc5, 0xb8, 0xbc, 0x41, 0xee, 0x68, 0xbc, 0x7b, 0xa5, 0x3c, 0x3d,
  0x6f, 0x23, 0xc6, 0x37, 0x6b, 0x73, 0xdc, 0xbc, 0x00, 0xbc, 0xed, 0x3b,
  0xc9, 0x93, 0x88, 0x3d, 0xec, 0x2e, 0x20, 0xbd, 0x5c, 0xbb, 0xac, 0x3c,
  0x20, 0x87, 0x08, 0x3d, 0x43, 0x0b, 0x71, 0x3c, 0x03, 0x8e, 0x83, 0xbd,
  0x0a, 0xdf, 0x2c, 0xbb, 0x1c, 0xaf, 0xff, 0x3b, 0x6e, 0x61, 0xb5, 0x3d,
  0x7d, 0x4f, 0xb9, 0x3c, 0x35, 0xed, 0xf6, 0x3c, 0x7d, 0x7c, 0xdc, 0xbd,
  0x43, 0xb1, 0x32, 0x3d, 0xed, 0x44, 0xb3, 0x3d, 0xab, 0x73, 0xe7, 0x3c,
  0xdb, 0xc3, 0x2c, 0xbd, 0xfb, 0xb9, 0x82, 0x3d, 0x26, 0x9c, 0xe8, 0x3d,
  0xc1, 0xb5, 0x21, 0xbd, 0x16, 0x6a, 0x82, 0x3c, 0x7a, 0x51, 0x47, 0xbc,
  0xb4, 0x80, 0x51, 0xbd, 0x97, 0x63, 0x8a, 0x3d, 0x65, 0xb8, 0x86, 0x3d,
  0x12, 0x18, 0xdd, 0xbd, 0xe4, 0x81, 0x1f, 0x3c, 0xcb, 0x92, 0x90, 0xbd,
  0xd4, 0xd1, 0x56, 0xbd, 0xcd, 0x99, 0xdd, 0x3d, 0x62, 0x8e, 0xa0, 0xbc,
  0xba, 0x6f, 0x97, 0x3d, 0x93, 0x84, 0x90, 0xbd, 0x6b, 0xab, 0x7d, 0xbc,
  0xc4, 0x1c, 0x89, 0xbc, 0xbc, 0x49, 0x51, 0xbd, 0x68, 0x63, 0xa7, 0x3d,
  0xa6, 0x9c, 0x0c, 0xbd, 0xfc, 0x81, 0x97, 0xbd, 0x2b, 0x7c, 0x9d, 0xbc,
  0x7b, 0x8d, 0xf4, 0x3c, 0x27, 0x9a, 0x66, 0xbd, 0x8b, 0x10, 0x7e, 0xbc,
  0xf7, 0xa8, 0xb4, 0xbc, 0x87, 0x38, 0xa9, 0x3c, 0x00, 0x9e, 0x2b, 0x3d,
  0x3a, 0x79, 0xba, 0xbd, 0x94, 0xa5, 0x29, 0x3d, 0xf5, 0x8e, 0xc9, 0x3c,
  0x43, 0x37, 0x66, 0x3d, 0x30, 0x32, 0x2b, 0x3c, 0x62, 0x4a, 0x7e, 0xbd,
  0xaa, 0x8a, 0x92, 0x3d, 0x6e, 0x38, 0x97, 0xbc, 0xb4, 0x61, 0x9b, 0x3c,
  0x84, 0x12, 0xc8, 0xbc, 0x82, 0x3c, 0x02, 0x3d, 0xb4, 0x5a, 0x51, 0x3d,
  0x69, 0xdb, 0x55, 0x3c, 0x3e, 0xb8, 0x8c, 0xbd, 0x07, 0x88, 0xb4, 0xbd,
  0x24, 0xfd, 0x11, 0x3d, 0x54, 0xa0, 0x46, 0x3d, 0xd3, 0xba, 0xd7, 0xbb,
  0x5b, 0x13, 0x96, 0x3d, 0x80, 0x6b, 0xde, 0xbb, 0xef, 0xc3, 0xbb, 0x3b,
  0x47, 0x5d, 0x8d, 0x3d, 0xba, 0x6c, 0x0f, 0xbe, 0xf4, 0xb8, 0xdf, 0xbc,
  0x9e, 0x95, 0xd7, 0x3d, 0x99, 0xdd, 0x8c, 0x3d, 0x40, 0x35, 0xa7, 0x3c,
  0x8e, 0xc6, 0xd9, 0x3c, 0xcd, 0xe1, 0x46, 0x3d, 0xca, 0xb3, 0xca, 0x3b,
  0x74, 0xa9, 0x80, 0x3d, 0x9a, 0x26, 0xd4, 0x3c, 0xbb, 0xa4, 0xe9, 0x3c,
  0x39, 0x97, 0x6c, 0xbc, 0xc8, 0xd3, 0xcc, 0xbc, 0x0a, 0xcd, 0x96, 0xbd,
  0x62, 0xb9, 0x13, 0x3d, 0xc5, 0x45, 0xef, 0x3d, 0x90, 0x20, 0x4d, 0x3d,
  0x38, 0x55, 0x9e, 0x3d, 0x70, 0x70, 0x9b, 0x3d, 0x58, 0xe8, 0x61, 0x3d,
  0x62, 0x9f, 0x98, 0xbc, 0x95, 0xdc, 0xb3, 0x3d, 0xd5, 0x91, 0x1e, 0x3c,
  0xf2, 0x35, 0x84, 0xbd, 0x91, 0x9c, 0x5d, 0x3b, 0x56, 0x6c, 0x9b, 0x3d,
  0xd9, 0xfe, 0xdb, 0xbd, 0x24, 0x11, 0xd5, 0x3d, 0xb1, 0x0b, 0x6a, 0xbd,
  0xb3, 0x2e, 0xa1, 0xbc, 0x42, 0x70, 0x02, 0xbc, 0xde, 0x51, 0xc3, 0x3c,
  0xbd, 0xbe, 0x92, 0xbd, 0x29, 0xf6, 0x18, 0xbb, 0xa6, 0x57, 0x25, 0x3d,
  0x00, 0x4f, 0x02, 0x3d, 0x3d, 0x05, 0x0f, 0xbd, 0x0a, 0x85, 0x80, 0x3d,
  0x78, 0x0f, 0x4d, 0xbd, 0x48, 0x32, 0x8e, 0xbc, 0xdc, 0x5b, 0x1e, 0xbd,
  0x96, 0xc1, 0x6e, 0x3d, 0x85, 0x77, 0xb9, 0x3d, 0xdb, 0xc1, 0xcf, 0xbb,
  0x7b, 0x1d, 0x1b, 0xbc, 0xec, 0xc4, 0x26, 0x3c, 0x1b, 0x5b, 0x8e, 0xbd,
  0xd9, 0x29, 0x53, 0xbd, 0x06, 0x01, 0x85, 0x3d, 0x59, 0xf7, 0x75, 0x3b,
  0x4a, 0xfa, 0x16, 0x3d, 0xaf, 0x6b, 0x09, 0x3e, 0x26, 0xdf, 0xb3, 0x3d,
  0x81, 0xba, 0xdb, 0xbd, 0x57, 0xe9, 0x3a, 0xbc, 0xcc, 0xc8, 0xc8, 0x3c,
  0x97, 0x61, 0x3b, 0xbc, 0xab, 0x98, 0x3f, 0x3b, 0x9d, 0x70, 0x15, 0xbd,
  0xe5, 0x84, 0x4f, 0x3b, 0x62, 0xf9, 0x9f, 0xbc, 0xd4, 0xd3, 0xaf, 0xbd,
  0x60, 0xc4, 0xc2, 0x3c, 0x3c, 0x65, 0xe4, 0xbd, 0x9c, 0x64, 0xdc, 0xbc,
  0x04, 0x69, 0x4b, 0xbc, 0xfe, 0xdb, 0x6c, 0x3c, 0xaf, 0x46, 0x40, 0xbd,
  0x18, 0x55, 0x5e, 0xbc, 0x6b, 0x0e, 0x8e, 0xbd, 0x86, 0x79, 0x14, 0x3d,
  0x89, 0x86, 0x5d, 0xbd, 0xbe, 0x06, 0x56, 0xbc, 0xaf, 0x83, 0xff, 0xbc,
  0x9f, 0x76, 0x8c, 0xbc, 0x0e, 0xd3, 0x4b, 0x3e, 0xbd, 0xbf, 0x8d, 0x3d,
  0x1f, 0x1a, 0x02, 0x3d, 0x22, 0xb1, 0x59, 0x3d, 0x18, 0x8f, 0xd9, 0xbb,
  0xcb, 0xdf, 0x0a, 0x3c, 0x99, 0x37, 0x0c, 0xbd, 0x58, 0x0a, 0x07, 0xbc,
  0xde, 0xcf, 0x6e, 0xbd, 0xf7, 0x8a, 0x01, 0x3d, 0x51, 0x41, 0x93, 0xbb,
  0xf1, 0xb0, 0x00, 0xbc, 0x78, 0x1f, 0x8d, 0x3d, 0x90, 0xe0, 0x03, 0x3b,
  0x94, 0x63, 0x2b, 0xbd, 0xf0, 0xde, 0x2d, 0x3d, 0x5d, 0x8a, 0x76, 0xbd,
  0xf9, 0x2f, 0xce, 0xbd, 0xa5, 0x05, 0x1e, 0xbb, 0x39, 0x13, 0xcb, 0xbd,
  0xc5, 0xfc, 0x7b, 0x3b, 0x67, 0x93, 0x7a, 0x3b, 0xe0, 0xbf, 0x56, 0xbd,
  0xe1, 0xee, 0x1d, 0x3c, 0x01, 0x79, 0x7f, 0x3c, 0x04, 0x53, 0xb4, 0xbd,
  0x43, 0x95, 0x31, 0xbd, 0xdd, 0xc3, 0x0b, 0xbb, 0x3b, 0xd8, 0xfe, 0x3c,
  0xc9, 0x4b, 0x15, 0x3d, 0xf8, 0xc2, 0xdf, 0xbd, 0x67, 0xfa, 0x21, 0xbd,
  0x02, 0x2d, 0xc1, 0x3d, 0xf4, 0x54, 0x87, 0xbd, 0xa6, 0xf1, 0x89, 0x3d,
  0x86, 0x5e, 0x9a, 0x3c, 0xf3, 0x96, 0xe0, 0xbd, 0x82, 0x2e, 0x5c, 0xbd,
  0xf2, 0x83, 0xa5, 0xbd, 0x8d, 0x0c, 0x68, 0x3c, 0xfc, 0xd9, 0x6b, 0xbc,
  0xd1, 0x7e, 0xbb, 0x3d, 0xd9, 0x08, 0x3f, 0xbc, 0x5e, 0xcb, 0xb8, 0xbc,
  0xe2, 0x59, 0x4b, 0x3c, 0xb0, 0x6e, 0x55, 0x3d, 0x37, 0xb5, 0x89, 0x3d,
  0x92, 0xbe, 0xad, 0x3a, 0x0a, 0xad, 0x42, 0xbc, 0x9c, 0xc6, 0xa2, 0xbd,
  0x0c, 0xd5, 0xbb, 0xbd, 0xaa, 0x0b, 0xc2, 0xbd, 0x14, 0x2e, 0x93, 0xbd,
  0x24, 0x4c, 0xe2, 0x3c, 0xaa, 0x75, 0x5a, 0x3d, 0x78, 0x85, 0x86, 0x3d,
  0xa7, 0xe0, 0xa8, 0xbd, 0xfa, 0xf9, 0xe4, 0x3d, 0xca, 0x3c, 0x0b, 0xbe,
  0x6e, 0x0e, 0x3a, 0x3d, 0x75, 0x98, 0xe4, 0x3c, 0x0a, 0x2a, 0xed, 0xbd,
  0x2b, 0x93, 0x1a, 0x3d, 0xbc, 0x4e, 0x1c, 0x3e, 0xe2, 0x54, 0x57, 0xbd,
  0x36, 0x54, 0xd6, 0xbd, 0x78, 0x0d, 0x8f, 0xbb, 0x0d, 0x2e, 0x59, 0x3b,
  0x53, 0xf7, 0x60, 0xbb, 0x0b, 0x6d, 0x73, 0xbd, 0xa2, 0xf3, 0x1a, 0xbd,
  0x26, 0x8f, 0xa3, 0xbd, 0x16, 0xa0, 0x95, 0x3d, 0xe2, 0x88, 0x98, 0x3d,
  0xa9, 0x5c, 0x4f, 0xbd, 0xb5, 0xec, 0xb3, 0x3b, 0xcf, 0xbf, 0xc2, 0x3d,
  0x1b, 0x2f, 0x58, 0x3d, 0x75, 0x7c, 0xf2, 0xbc, 0xae, 0x73, 0xfa, 0xbd,
  0xe2, 0x19, 0x07, 0xbc, 0x6f, 0x06, 0x81, 0xbd, 0xfa, 0xea, 0x84, 0x3d,
  0x83, 0x8f, 0x8c, 0x3d, 0x26, 0x48, 0xbd, 0xbb, 0xcd, 0x6f, 0x0f, 0x3d,
  0xdd, 0x0d, 0x2b, 0xbb, 0xbf, 0xec, 0xc6, 0xbd, 0x2a, 0x0f, 0x15, 0xbe,
  0xcf, 0x09, 0x0e, 0xbd, 0xf0, 0x0f, 0xab, 0x3d, 0x2d, 0x81, 0x8e, 0x3d,
  0x0e, 0x5d, 0x95, 0x3d, 0x51, 0x78, 0xcb, 0xbc, 0x21, 0x29, 0x92, 0x3d,
  0xb7, 0x5a, 0xcb, 0x3b, 0x7b, 0x30, 0x08, 0x3d, 0x3e, 0x1e, 0x29, 0x3d,
  0xd7, 0x1d, 0x5a, 0xbd, 0xad, 0xe5, 0x59, 0x3d, 0xc4, 0x84, 0xbf, 0x3d,
  0xc6, 0x47, 0xa7, 0x3c, 0xdc, 0x53, 0x94, 0x3d, 0xc0, 0xaf, 0x5e, 0xbd,
  0x6e, 0xbe, 0x2d, 0xbd, 0x57, 0x38, 0x68, 0xbd, 0x11, 0xc5, 0xa8, 0xbd,
  0xfe, 0x01, 0x87, 0x3d, 0x69, 0xc9, 0xad, 0x3d, 0x3e, 0xa1, 0x8f, 0x3c,
  0x07, 0x28, 0x57, 0x3c, 0x98, 0xb7, 0x09, 0xbe, 0xf3, 0xf7, 0x48, 0x3c,
  0xcd, 0xe3, 0x87, 0x3d, 0x74, 0xaa, 0xab, 0xbd, 0x57, 0x7c, 0x0b, 0xbe,
  0x12, 0x28, 0xa5, 0x3d, 0x6c, 0x0f, 0xff, 0xbc, 0x92, 0xdd, 0x03, 0xbd,
  0x5e, 0xf0, 0xa2, 0xbc, 0x29, 0x31, 0x6d, 0x3d, 0x90, 0xc8, 0xac, 0x3c,
  0x65, 0x86, 0xc4, 0xbd, 0x3f, 0x06, 0xe6, 0xbc, 0xa8, 0x28, 0xed, 0xbd,
  0x90, 0xe8, 0xc9, 0xbd, 0xdc, 0xea, 0x35, 0xbe, 0x99, 0xb1, 0x5e, 0x3d,
  0xa6, 0xdc, 0x8a, 0xbd, 0x5b, 0xac, 0x0c, 0x3d, 0xa1, 0x40, 0x15, 0x3c,
  0x28, 0xa5, 0xa5, 0xbb, 0xa7, 0x32, 0xc6, 0xbd, 0xb2, 0x16, 0xfe, 0xbc,
  0xba, 0xfe, 0xff, 0xff, 0x04, 0x00, 0x00, 0x00, 0x08, 0x00, 0x00, 0x00,
  0xff, 0xff, 0xff, 0xff, 0x01, 0x02, 0x00, 0x00, 0xce, 0xfe, 0xff, 0xff,
  0x04, 0x00, 0x00, 0x00, 0x0c, 0x00, 0x00, 0x00, 0xd6, 0xf1, 0x5b, 0x3e,
  0xf4, 0x7a, 0x5a, 0xbe, 0xc5, 0x22, 0xbe, 0x3d, 0xe6, 0xfe, 0xff, 0xff,
  0x04, 0x00, 0x00, 0x00, 0x6c, 0x00, 0x00, 0x00, 0x7c, 0xad, 0xe2, 0xbd,
  0x67, 0x77, 0x90, 0x3d, 0x50, 0xb3, 0x58, 0xbe, 0x20, 0xd5, 0x8d, 0x3d,
  0x54, 0x4b, 0x80, 0x3e, 0xa8, 0x32, 0x41, 0xbe, 0x8e, 0x3d, 0x08, 0x3d,
  0x04, 0x7f, 0x41, 0x3e, 0x34, 0xbf, 0xb3, 0xbe, 0x89, 0x14, 0x50, 0x3e,
  0x22, 0xf3, 0x9f, 0xbd, 0x89, 0xcf, 0xd4, 0xbe, 0xb4, 0xcf, 0xc4, 0xbe,
  0x8e, 0x9e, 0xbc, 0x3d, 0x1d, 0x8f, 0x99, 0xbe, 0xbc, 0x1f, 0xbb, 0x3e,
  0x70, 0x53, 0x82, 0xbd, 0xeb, 0xf5, 0x6b, 0x3e, 0x75, 0x8e, 0x4d, 0x3c,
  0x60, 0xbb, 0xab, 0xbe, 0xa6, 0x0c, 0x23, 0xbe, 0xa9, 0xd0, 0x93, 0xbe,
  0xfd, 0xe8, 0x59, 0xbe, 0x57, 0xe7, 0xc0, 0x3e, 0x24, 0x47, 0xc2, 0x3e,
  0x7f, 0xac, 0x9a, 0xbe, 0xfa, 0x03, 0x55, 0x3e, 0x5e, 0xff, 0xff, 0xff,
  0x04, 0x00, 0x00, 0x00, 0x0c, 0x00, 0x00, 0x00, 0xbc, 0x6e, 0x21, 0xbe,
  0x93, 0x70, 0x98, 0xba, 0xa0, 0x0b, 0x11, 0xba, 0xb0, 0xf9, 0xff, 0xff,
  0xb4, 0xf9, 0xff, 0xff, 0x0f, 0x00, 0x00, 0x00, 0x4d, 0x4c, 0x49, 0x52,
  0x20, 0x43, 0x6f, 0x6e, 0x76, 0x65, 0x72, 0x74, 0x65, 0x64, 0x2e, 0x00,
  0x01, 0x00, 0x00, 0x00, 0x14, 0x00, 0x00, 0x00, 0x00, 0x00, 0x0e, 0x00,
  0x18, 0x00, 0x14, 0x00, 0x10, 0x00, 0x0c, 0x00, 0x08, 0x00, 0x04, 0x00,
  0x0e, 0x00, 0x00, 0x00, 0x14, 0x00, 0x00, 0x00, 0x1c, 0x00, 0x00, 0x00,
  0x88, 0x01, 0x00, 0x00, 0x8c, 0x01, 0x00, 0x00, 0x90, 0x01, 0x00, 0x00,
  0x04, 0x00, 0x00, 0x00, 0x6d, 0x61, 0x69, 0x6e, 0x00, 0x00, 0x00, 0x00,
  0x05, 0x00, 0x00, 0x00, 0x20, 0x01, 0x00, 0x00, 0xbc, 0x00, 0x00, 0x00,
  0x84, 0x00, 0x00, 0x00, 0x40, 0x00, 0x00, 0x00, 0x04, 0x00, 0x00, 0x00,
  0x62, 0xff, 0xff, 0xff, 0x1c, 0x00, 0x00, 0x00, 0x00, 0x00, 0x00, 0x09,
  0x1c, 0x00, 0x00, 0x00, 0x20, 0x00, 0x00, 0x00, 0x04, 0x00, 0x00, 0x00,
  0x00, 0x00, 0x06, 0x00, 0x08, 0x00, 0x04, 0x00, 0x06, 0x00, 0x00, 0x00,
  0x00, 0x00, 0x80, 0x3f, 0x01, 0x00, 0x00, 0x00, 0x0a, 0x00, 0x00, 0x00,
  0x01, 0x00, 0x00, 0x00, 0x09, 0x00, 0x00, 0x00, 0x9a, 0xff, 0xff, 0xff,
  0x14, 0x00, 0x00, 0x00, 0x00, 0x00, 0x00, 0x08, 0x10, 0x00, 0x00, 0x00,
  0x14, 0x00, 0x00, 0x00, 0x03, 0x00, 0x00, 0x00, 0x70, 0xfa, 0xff, 0xff,
  0x01, 0x00, 0x00, 0x00, 0x09, 0x00, 0x00, 0x00, 0x03, 0x00, 0x00, 0x00,
  0x08, 0x00, 0x00, 0x00, 0x05, 0x00, 0x00, 0x00, 0x03, 0x00, 0x00, 0x00,
  0x00, 0x00, 0x0a, 0x00, 0x10, 0x00, 0x0c, 0x00, 0x08, 0x00, 0x04, 0x00,
  0x0a, 0x00, 0x00, 0x00, 0x0c, 0x00, 0x00, 0x00, 0x10, 0x00, 0x00, 0x00,
  0x02, 0x00, 0x00, 0x00, 0x01, 0x00, 0x00, 0x00, 0x08, 0x00, 0x00, 0x00,
  0x02, 0x00, 0x00, 0x00, 0x07, 0x00, 0x00, 0x00, 0x04, 0x00, 0x00, 0x00,
  0x00, 0x00, 0x0e, 0x00, 0x1a, 0x00, 0x14, 0x00, 0x10, 0x00, 0x0c, 0x00,
  0x0b, 0x00, 0x04, 0x00, 0x0e, 0x00, 0x00, 0x00, 0x24, 0x00, 0x00, 0x00,
  0x00, 0x00, 0x00, 0x05, 0x34, 0x00, 0x00, 0x00, 0x38, 0x00, 0x00, 0x00,
  0x01, 0x00, 0x00, 0x00, 0x00, 0x00, 0x0e, 0x00, 0x18, 0x00, 0x17, 0x00,
  0x10, 0x00, 0x0c, 0x00, 0x08, 0x00, 0x04, 0x00, 0x0e, 0x00, 0x00, 0x00,
  0x02, 0x00, 0x00, 0x00, 0x04, 0x00, 0x00, 0x00, 0x02, 0x00, 0x00, 0x00,
  0x04, 0x00, 0x00, 0x00, 0x00, 0x00, 0x00, 0x01, 0x01, 0x00, 0x00, 0x00,
  0x07, 0x00, 0x00, 0x00, 0x01, 0x00, 0x00, 0x00, 0x06, 0x00, 0x00, 0x00,
  0x00, 0x00, 0x0e, 0x00, 0x14, 0x00, 0x00, 0x00, 0x10, 0x00, 0x0c, 0x00,
  0x0b, 0x00, 0x04, 0x00, 0x0e, 0x00, 0x00, 0x00, 0x1c, 0x00, 0x00, 0x00,
  0x00, 0x00, 0x00, 0x01, 0x28, 0x00, 0x00, 0x00, 0x2c, 0x00, 0x00, 0x00,
  0x0c, 0x00, 0x14, 0x00, 0x13, 0x00, 0x0c, 0x00, 0x08, 0x00, 0x07, 0x00,
  0x0c, 0x00, 0x00, 0x00, 0x00, 0x00, 0x00, 0x01, 0x01, 0x00, 0x00, 0x00,
  0x01, 0x00, 0x00, 0x00, 0x00, 0x00, 0x00, 0x01, 0x01, 0x00, 0x00, 0x00,
  0x06, 0x00, 0x00, 0x00, 0x03, 0x00, 0x00, 0x00, 0x00, 0x00, 0x00, 0x00,
  0x02, 0x00, 0x00, 0x00, 0x01, 0x00, 0x00, 0x00, 0x01, 0x00, 0x00, 0x00,
  0x0a, 0x00, 0x00, 0x00, 0x01, 0x00, 0x00, 0x00, 0x00, 0x00, 0x00, 0x00,
  0x0b, 0x00, 0x00, 0x00, 0x44, 0x04, 0x00, 0x00, 0xd4, 0x03, 0x00, 0x00,
  0x68, 0x03, 0x00, 0x00, 0x14, 0x03, 0x00, 0x00, 0xc8, 0x02, 0x00, 0x00,
  0x68, 0x02, 0x00, 0x00, 0xa4, 0x01, 0x00, 0x00, 0x30, 0x01, 0x00, 0x00,
  0xd4, 0x00, 0x00, 0x00, 0x60, 0x00, 0x00, 0x00, 0x04, 0x00, 0x00, 0x00,
  0xfe, 0xfb, 0xff, 0xff, 0x00, 0x00, 0x00, 0x01, 0x14, 0x00, 0x00, 0x00,
  0x1c, 0x00, 0x00, 0x00, 0x1c, 0x00, 0x00, 0x00, 0x0b, 0x00, 0x00, 0x00,
  0x34, 0x00, 0x00, 0x00, 0x02, 0x00, 0x00, 0x00, 0xff, 0xff, 0xff, 0xff,
  0x03, 0x00, 0x00, 0x00, 0xe0, 0xfb, 0xff, 0xff, 0x19, 0x00, 0x00, 0x00,
  0x53, 0x74, 0x61, 0x74, 0x65, 0x66, 0x75, 0x6c, 0x50, 0x61, 0x72, 0x74,
  0x69, 0x74, 0x69, 0x6f, 0x6e, 0x65, 0x64, 0x43, 0x61, 0x6c, 0x6c, 0x3a,
  0x30, 0x00, 0x00, 0x00, 0x02, 0x00, 0x00, 0x00, 0x01, 0x00, 0x00, 0x00,
  0x03, 0x00, 0x00, 0x00, 0x56, 0xfc, 0xff, 0xff, 0x00, 0x00, 0x00, 0x01,
  0x14, 0x00, 0x00, 0x00, 0x1c, 0x00, 0x00, 0x00, 0x1c, 0x00, 0x00, 0x00,
  0x0a, 0x00, 0x00, 0x00, 0x4c, 0x00, 0x00, 0x00, 0x02, 0x00, 0x00, 0x00,
  0xff, 0xff, 0xff, 0xff, 0x03, 0x00, 0x00, 0x00, 0x38, 0xfc, 0xff, 0xff,
  0x30, 0x00, 0x00, 0x00, 0x73, 0x65, 0x71, 0x75, 0x65, 0x6e, 0x74, 0x69,
  0x61, 0x6c, 0x2f, 0x64, 0x65, 0x6e, 0x73, 0x65, 0x2f, 0x4d, 0x61, 0x74,
  0x4d, 0x75, 0x6c, 0x3b, 0x73, 0x65, 0x71, 0x75, 0x65, 0x6e, 0x74, 0x69,
  0x61, 0x6c, 0x2f, 0x64, 0x65, 0x6e, 0x73, 0x65, 0x2f, 0x42, 0x69, 0x61,
  0x73, 0x41, 0x64, 0x64, 0x00, 0x00, 0x00, 0x00, 0x02, 0x00, 0x00, 0x00,
  0x01, 0x00, 0x00, 0x00, 0x03, 0x00, 0x00, 0x00, 0xc6, 0xfc, 0xff, 0xff,
  0x00, 0x00, 0x00, 0x01, 0x14, 0x00, 0x00, 0x00, 0x1c, 0x00, 0x00, 0x00,
  0x1c, 0x00, 0x00, 0x00, 0x09, 0x00, 0x00, 0x00, 0x34, 0x00, 0x00, 0x00,
  0x02, 0x00, 0x00, 0x00, 0xff, 0xff, 0xff, 0xff, 0x01, 0x02, 0x00, 0x00,
  0xa8, 0xfc, 0xff, 0xff, 0x1a, 0x00, 0x00, 0x00, 0x73, 0x65, 0x71, 0x75,
  0x65, 0x6e, 0x74, 0x69, 0x61, 0x6c, 0x2f, 0x66, 0x6c, 0x61, 0x74, 0x74,
  0x65, 0x6e, 0x2f, 0x52, 0x65, 0x73, 0x68, 0x61, 0x70, 0x65, 0x00, 0x00,
  0x02, 0x00, 0x00, 0x00, 0x01, 0x00, 0x00, 0x00, 0x01, 0x02, 0x00, 0x00,
  0x1e, 0xfd, 0xff, 0xff, 0x00, 0x00, 0x00, 0x01, 0x14, 0x00, 0x00, 0x00,
  0x24, 0x00, 0x00, 0x00, 0x24, 0x00, 0x00, 0x00, 0x08, 0x00, 0x00, 0x00,
  0x44, 0x00, 0x00, 0x00, 0x04, 0x00, 0x00, 0x00, 0xff, 0xff, 0xff, 0xff,
  0x13, 0x00, 0x00, 0x00, 0x09, 0x00, 0x00, 0x00, 0x03, 0x00, 0x00, 0x00,
  0x08, 0xfd, 0xff, 0xff, 0x20, 0x00, 0x00, 0x00, 0x73, 0x65, 0x71, 0x75,
  0x65, 0x6e, 0x74, 0x69, 0x61, 0x6c, 0x2f, 0x6d, 0x61, 0x78, 0x5f, 0x70,
  0x6f, 0x6f, 0x6c, 0x69, 0x6e, 0x67, 0x32, 0x64, 0x2f, 0x4d, 0x61, 0x78,
  0x50, 0x6f, 0x6f, 0x6c, 0x00, 0x00, 0x00, 0x00, 0x04, 0x00, 0x00, 0x00,
  0x01, 0x00, 0x00, 0x00, 0x13, 0x00, 0x00, 0x00, 0x09, 0x00, 0x00, 0x00,
  0x03, 0x00, 0x00, 0x00, 0x8e, 0xfd, 0xff, 0xff, 0x00, 0x00, 0x00, 0x01,
  0x14, 0x00, 0x00, 0x00, 0x24, 0x00, 0x00, 0x00, 0x24, 0x00, 0x00, 0x00,
  0x07, 0x00, 0x00, 0x00, 0x94, 0x00, 0x00, 0x00, 0x04, 0x00, 0x00, 0x00,
  0xff, 0xff, 0xff, 0xff, 0x26, 0x00, 0x00, 0x00, 0x26, 0x00, 0x00, 0x00,
  0x03, 0x00, 0x00, 0x00, 0x78, 0xfd, 0xff, 0xff, 0x72, 0x00, 0x00, 0x00,
  0x73, 0x65, 0x71, 0x75, 0x65, 0x6e, 0x74, 0x69, 0x61, 0x6c, 0x2f, 0x63,
  0x6f, 0x6e, 0x76, 0x32, 0x64, 0x2f, 0x52, 0x65, 0x6c, 0x75, 0x3b, 0x73,
  0x65, 0x71, 0x75, 0x65, 0x6e, 0x74, 0x69, 0x61, 0x6c, 0x2f, 0x63, 0x6f,
  0x6e, 0x76, 0x32, 0x64, 0x2f, 0x42, 0x69, 0x61, 0x73, 0x41, 0x64, 0x64,
  0x3b, 0x73, 0x65, 0x71, 0x75, 0x65, 0x6e, 0x74, 0x69, 0x61, 0x6c, 0x2f,
  0x63, 0x6f, 0x6e, 0x76, 0x32, 0x64, 0x2f, 0x43, 0x6f, 0x6e, 0x76, 0x32,
  0x44, 0x3b, 0x73, 0x65, 0x71, 0x75, 0x65, 0x6e, 0x74, 0x69, 0x61, 0x6c,
  0x2f, 0x63, 0x6f, 0x6e, 0x76, 0x32, 0x64, 0x2f, 0x42, 0x69, 0x61, 0x73,
  0x41, 0x64, 0x64, 0x2f, 0x52, 0x65, 0x61, 0x64, 0x56, 0x61, 0x72, 0x69,
  0x61, 0x62, 0x6c, 0x65, 0x4f, 0x70, 0x00, 0x00, 0x04, 0x00, 0x00, 0x00,
  0x01, 0x00, 0x00, 0x00, 0x26, 0x00, 0x00, 0x00, 0x26, 0x00, 0x00, 0x00,
  0x03, 0x00, 0x00, 0x00, 0xba, 0xfe, 0xff, 0xff, 0x00, 0x00, 0x00, 0x01,
  0x10, 0x00, 0x00, 0x00, 0x10, 0x00, 0x00, 0x00, 0x06, 0x00, 0x00, 0x00,
  0x24, 0x00, 0x00, 0x00, 0x20, 0xfe, 0xff, 0xff, 0x17, 0x00, 0x00, 0x00,
  0x73, 0x65, 0x71, 0x75, 0x65, 0x6e, 0x74, 0x69, 0x61, 0x6c, 0x2f, 0x64,
  0x65, 0x6e, 0x73, 0x65, 0x2f, 0x4d, 0x61, 0x74, 0x4d, 0x75, 0x6c, 0x00,
  0x02, 0x00, 0x00, 0x00, 0x03, 0x00, 0x00, 0x00, 0x01, 0x02, 0x00, 0x00,
  0x00, 0x00, 0x16, 0x00, 0x1c, 0x00, 0x18, 0x00, 0x17, 0x00, 0x10, 0x00,
  0x0c, 0x00, 0x08, 0x00, 0x00, 0x00, 0x00, 0x00, 0x00, 0x00, 0x07, 0x00,
  0x16, 0x00, 0x00, 0x00, 0x00, 0x00, 0x00, 0x01, 0x14, 0x00, 0x00, 0x00,
  0x14, 0x00, 0x00, 0x00, 0x05, 0x00, 0x00, 0x00, 0x00, 0x00, 0x00, 0x02,
  0x28, 0x00, 0x00, 0x00, 0x80, 0xfe, 0xff, 0xff, 0x18, 0x00, 0x00, 0x00,
  0x73, 0x65, 0x71, 0x75, 0x65, 0x6e, 0x74, 0x69, 0x61, 0x6c, 0x2f, 0x66,
  0x6c, 0x61, 0x74, 0x74, 0x65, 0x6e, 0x2f, 0x43, 0x6f, 0x6e, 0x73, 0x74,
  0x00, 0x00, 0x00, 0x00, 0x01, 0x00, 0x00, 0x00, 0x02, 0x00, 0x00, 0x00,
  0x5e, 0xff, 0xff, 0xff, 0x00, 0x00, 0x00, 0x01, 0x10, 0x00, 0x00, 0x00,
  0x10, 0x00, 0x00, 0x00, 0x04, 0x00, 0x00, 0x00, 0x34, 0x00, 0x00, 0x00,
  0xc4, 0xfe, 0xff, 0xff, 0x27, 0x00, 0x00, 0x00, 0x73, 0x65, 0x71, 0x75,
  0x65, 0x6e, 0x74, 0x69, 0x61, 0x6c, 0x2f, 0x64, 0x65, 0x6e, 0x73, 0x65,
  0x2f, 0x42, 0x69, 0x61, 0x73, 0x41, 0x64, 0x64, 0x2f, 0x52, 0x65, 0x61,
  0x64, 0x56, 0x61, 0x72, 0x69, 0x61, 0x62, 0x6c, 0x65, 0x4f, 0x70, 0x00,
  0x01, 0x00, 0x00, 0x00, 0x03, 0x00, 0x00, 0x00, 0xae, 0xff, 0xff, 0xff,
  0x00, 0x00, 0x00, 0x01, 0x10, 0x00, 0x00, 0x00, 0x10, 0x00, 0x00, 0x00,
  0x03, 0x00, 0x00, 0x00, 0x28, 0x00, 0x00, 0x00, 0x14, 0xff, 0xff, 0xff,
  0x18, 0x00, 0x00, 0x00, 0x73, 0x65, 0x71, 0x75, 0x65, 0x6e, 0x74, 0x69,
  0x61, 0x6c, 0x2f, 0x63, 0x6f, 0x6e, 0x76, 0x32, 0x64, 0x2f, 0x43, 0x6f,
  0x6e, 0x76, 0x32, 0x44, 0x00, 0x00, 0x00, 0x00, 0x04, 0x00, 0x00, 0x00,
  0x03, 0x00, 0x00, 0x00, 0x03, 0x00, 0x00, 0x00, 0x03, 0x00, 0x00, 0x00,
  0x01, 0x00, 0x00, 0x00, 0x00, 0x00, 0x16, 0x00, 0x18, 0x00, 0x14, 0x00,
  0x00, 0x00, 0x10, 0x00, 0x0c, 0x00, 0x08, 0x00, 0x00, 0x00, 0x00, 0x00,
  0x00, 0x00, 0x07, 0x00, 0x16, 0x00, 0x00, 0x00, 0x00, 0x00, 0x00, 0x01,
  0x10, 0x00, 0x00, 0x00, 0x10, 0x00, 0x00, 0x00, 0x02, 0x00, 0x00, 0x00,
  0x38, 0x00, 0x00, 0x00, 0x7c, 0xff, 0xff, 0xff, 0x28, 0x00, 0x00, 0x00,
  0x73, 0x65, 0x71, 0x75, 0x65, 0x6e, 0x74, 0x69, 0x61, 0x6c, 0x2f, 0x63,
  0x6f, 0x6e, 0x76, 0x32, 0x64, 0x2f, 0x42, 0x69, 0x61, 0x73, 0x41, 0x64,
  0x64, 0x2f, 0x52, 0x65, 0x61, 0x64, 0x56, 0x61, 0x72, 0x69, 0x61, 0x62,
  0x6c, 0x65, 0x4f, 0x70, 0x00, 0x00, 0x00, 0x00, 0x01, 0x00, 0x00, 0x00,
  0x03, 0x00, 0x00, 0x00, 0x00, 0x00, 0x16, 0x00, 0x1c, 0x00, 0x18, 0x00,
  0x00, 0x00, 0x14, 0x00, 0x10, 0x00, 0x0c, 0x00, 0x00, 0x00, 0x00, 0x00,
  0x08, 0x00, 0x07, 0x00, 0x16, 0x00, 0x00, 0x00, 0x00, 0x00, 0x00, 0x01,
  0x14, 0x00, 0x00, 0x00, 0x28, 0x00, 0x00, 0x00, 0x28, 0x00, 0x00, 0x00,
  0x01, 0x00, 0x00, 0x00, 0x44, 0x00, 0x00, 0x00, 0x04, 0x00, 0x00, 0x00,
  0xff, 0xff, 0xff, 0xff, 0x28, 0x00, 0x00, 0x00, 0x28, 0x00, 0x00, 0x00,
  0x01, 0x00, 0x00, 0x00, 0x04, 0x00, 0x04, 0x00, 0x04, 0x00, 0x00, 0x00,
  0x1e, 0x00, 0x00, 0x00, 0x73, 0x65, 0x72, 0x76, 0x69, 0x6e, 0x67, 0x5f,
  0x64, 0x65, 0x66, 0x61, 0x75, 0x6c, 0x74, 0x5f, 0x63, 0x6f, 0x6e, 0x76,
  0x32, 0x64, 0x5f, 0x69, 0x6e, 0x70, 0x75, 0x74, 0x3a, 0x30, 0x00, 0x00,
  0x04, 0x00, 0x00, 0x00, 0x01, 0x00, 0x00, 0x00, 0x28, 0x00, 0x00, 0x00,
  0x28, 0x00, 0x00, 0x00, 0x01, 0x00, 0x00, 0x00, 0x05, 0x00, 0x00, 0x00,
  0x50, 0x00, 0x00, 0x00, 0x34, 0x00, 0x00, 0x00, 0x24, 0x00, 0x00, 0x00,
  0x14, 0x00, 0x00, 0x00, 0x04, 0x00, 0x00, 0x00, 0xd0, 0xff, 0xff, 0xff,
  0x19, 0x00, 0x00, 0x00, 0x00, 0x00, 0x00, 0x19, 0xdc, 0xff, 0xff, 0xff,
  0x09, 0x00, 0x00, 0x00, 0x00, 0x00, 0x00, 0x09, 0xe8, 0xff, 0xff, 0xff,
  0x16, 0x00, 0x00, 0x00, 0x00, 0x00, 0x00, 0x16, 0xf4, 0xff, 0xff, 0xff,
  0x11, 0x00, 0x00, 0x00, 0x00, 0x00, 0x00, 0x11, 0x0c, 0x00, 0x0c, 0x00,
  0x0b, 0x00, 0x00, 0x00, 0x00, 0x00, 0x04, 0x00, 0x0c, 0x00, 0x00, 0x00,
  0x03, 0x00, 0x00, 0x00, 0x00, 0x00, 0x00, 0x03
};

#endif //MODEL.H_H