#ifndef MODEL.H_H
#define MODEL.H_H


const unsigned int model.h_len = 5208;
const unsigned char model.h[] = {
 0x20, 0x00, 0x00, 0x00, 0x54, 0x46, 0x4c, 0x33, 0x00, 0x00, 0x00, 0x00,
  0x14, 0x00, 0x20, 0x00, 0x1c, 0x00, 0x18, 0x00, 0x14, 0x00, 0x10, 0x00,
  0x0c, 0x00, 0x00, 0x00, 0x08, 0x00, 0x04, 0x00, 0x14, 0x00, 0x00, 0x00,
  0x1c, 0x00, 0x00, 0x00, 0x88, 0x00, 0x00, 0x00, 0xe0, 0x00, 0x00, 0x00,
  0x4c, 0x0a, 0x00, 0x00, 0x5c, 0x0a, 0x00, 0x00, 0x94, 0x13, 0x00, 0x00,
  0x03, 0x00, 0x00, 0x00, 0x01, 0x00, 0x00, 0x00, 0x04, 0x00, 0x00, 0x00,
  0xd2, 0xf4, 0xff, 0xff, 0x0c, 0x00, 0x00, 0x00, 0x1c, 0x00, 0x00, 0x00,
  0x38, 0x00, 0x00, 0x00, 0x0f, 0x00, 0x00, 0x00, 0x73, 0x65, 0x72, 0x76,
  0x69, 0x6e, 0x67, 0x5f, 0x64, 0x65, 0x66, 0x61, 0x75, 0x6c, 0x74, 0x00,
  0x01, 0x00, 0x00, 0x00, 0x04, 0x00, 0x00, 0x00, 0x94, 0xff, 0xff, 0xff,
  0x0c, 0x00, 0x00, 0x00, 0x04, 0x00, 0x00, 0x00, 0x05, 0x00, 0x00, 0x00,
  0x64, 0x65, 0x6e, 0x73, 0x65, 0x00, 0x00, 0x00, 0x01, 0x00, 0x00, 0x00,
  0x04, 0x00, 0x00, 0x00, 0x72, 0xf5, 0xff, 0xff, 0x04, 0x00, 0x00, 0x00,
  0x0c, 0x00, 0x00, 0x00, 0x63, 0x6f, 0x6e, 0x76, 0x32, 0x64, 0x5f, 0x69,
  0x6e, 0x70, 0x75, 0x74, 0x00, 0x00, 0x00, 0x00, 0x02, 0x00, 0x00, 0x00,
  0x34, 0x00, 0x00, 0x00, 0x04, 0x00, 0x00, 0x00, 0xdc, 0xff, 0xff, 0xff,
  0x0f, 0x00, 0x00, 0x00, 0x04, 0x00, 0x00, 0x00, 0x13, 0x00, 0x00, 0x00,
  0x43, 0x4f, 0x4e, 0x56, 0x45, 0x52, 0x53, 0x49, 0x4f, 0x4e, 0x5f, 0x4d,
  0x45, 0x54, 0x41, 0x44, 0x41, 0x54, 0x41, 0x00, 0x08, 0x00, 0x0c, 0x00,
  0x08, 0x00, 0x04, 0x00, 0x08, 0x00, 0x00, 0x00, 0x0e, 0x00, 0x00, 0x00,
  0x04, 0x00, 0x00, 0x00, 0x13, 0x00, 0x00, 0x00, 0x6d, 0x69, 0x6e, 0x5f,
  0x72, 0x75, 0x6e, 0x74, 0x69, 0x6d, 0x65, 0x5f, 0x76, 0x65, 0x72, 0x73,
  0x69, 0x6f, 0x6e, 0x00, 0x10, 0x00, 0x00, 0x00, 0x68, 0x09, 0x00, 0x00,
  0x60, 0x09, 0x00, 0x00, 0x48, 0x09, 0x00, 0x00, 0x2c, 0x09, 0x00, 0x00,
  0x18, 0x01, 0x00, 0x00, 0xf8, 0x00, 0x00, 0x00, 0xc4, 0x00, 0x00, 0x00,
  0xbc, 0x00, 0x00, 0x00, 0xb4, 0x00, 0x00, 0x00, 0xac, 0x00, 0x00, 0x00,
  0xa4, 0x00, 0x00, 0x00, 0x9c, 0x00, 0x00, 0x00, 0x94, 0x00, 0x00, 0x00,
  0x8c, 0x00, 0x00, 0x00, 0x6c, 0x00, 0x00, 0x00, 0x04, 0x00, 0x00, 0x00,
  0x2e, 0xf6, 0xff, 0xff, 0x04, 0x00, 0x00, 0x00, 0x58, 0x00, 0x00, 0x00,
  0x0c, 0x00, 0x00, 0x00, 0x08, 0x00, 0x0e, 0x00, 0x08, 0x00, 0x04, 0x00,
  0x08, 0x00, 0x00, 0x00, 0x10, 0x00, 0x00, 0x00, 0x28, 0x00, 0x00, 0x00,
  0x00, 0x00, 0x06, 0x00, 0x08, 0x00, 0x04, 0x00, 0x06, 0x00, 0x00, 0x00,
  0x04, 0x00, 0x00, 0x00, 0x01, 0x00, 0x00, 0x00, 0xeb, 0x03, 0x00, 0x00,
  0x00, 0x00, 0x0a, 0x00, 0x10, 0x00, 0x0c, 0x00, 0x08, 0x00, 0x04, 0x00,
  0x0a, 0x00, 0x00, 0x00, 0x02, 0x00, 0x00, 0x00, 0x02, 0x00, 0x00, 0x00,
  0x04, 0x00, 0x00, 0x00, 0x06, 0x00, 0x00, 0x00, 0x32, 0x2e, 0x31, 0x35,
  0x2e, 0x30, 0x00, 0x00, 0x92, 0xf6, 0xff, 0xff, 0x04, 0x00, 0x00, 0x00,
  0x10, 0x00, 0x00, 0x00, 0x31, 0x2e, 0x31, 0x34, 0x2e, 0x30, 0x00, 0x00,
  0x00, 0x00, 0x00, 0x00, 0x00, 0x00, 0x00, 0x00, 0xe8, 0xee, 0xff, 0xff,
  0xec, 0xee, 0xff, 0xff, 0xf0, 0xee, 0xff, 0xff, 0xf4, 0xee, 0xff, 0xff,
  0xf8, 0xee, 0xff, 0xff, 0xfc, 0xee, 0xff, 0xff, 0x00, 0xef, 0xff, 0xff,
  0xca, 0xf6, 0xff, 0xff, 0x04, 0x00, 0x00, 0x00, 0x24, 0x00, 0x00, 0x00,
  0x9a, 0x23, 0xf8, 0x57, 0xa4, 0x61, 0x3b, 0x06, 0x81, 0x13, 0xb5, 0x14,
  0xe1, 0xa0, 0xc1, 0x8f, 0xaa, 0x7f, 0xf8, 0x07, 0x6b, 0x85, 0x0b, 0x7f,
  0xca, 0xa2, 0xba, 0xe2, 0x78, 0x26, 0x48, 0xc1, 0xc5, 0xb3, 0x81, 0x2f,
  0xfa, 0xf6, 0xff, 0xff, 0x04, 0x00, 0x00, 0x00, 0x10, 0x00, 0x00, 0x00,
  0xe5, 0xff, 0xff, 0xff, 0x57, 0x00, 0x00, 0x00, 0xe3, 0xff, 0xff, 0xff,
  0x0d, 0x00, 0x00, 0x00, 0x16, 0xf7, 0xff, 0xff, 0x04, 0x00, 0x00, 0x00,
  0x04, 0x08, 0x00, 0x00, 0x19, 0xe5, 0xd3, 0x01, 0xfd, 0xd3, 0xcb, 0xe9,
  0x10, 0xff, 0x0c, 0x0e, 0xf6, 0xd0, 0x13, 0x11, 0x20, 0xf5, 0xd4, 0x08,
  0xee, 0xfd, 0xcf, 0x04, 0x13, 0x1d, 0xdc, 0xff, 0xf5, 0x58, 0xe9, 0xe0,
  0x16, 0x1f, 0xdc, 0xf6, 0xdf, 0xf4, 0xe2, 0xdc, 0x15, 0xfe, 0x21, 0x0d,
  0x08, 0xb3, 0xdf, 0xf9, 0xeb, 0xe4, 0x14, 0xc7, 0xe0, 0x0d, 0xd6, 0x17,
  0x10, 0x11, 0xc8, 0xd6, 0xe5, 0x39, 0x00, 0xf1, 0xe8, 0xcd, 0xdf, 0xed,
  0xe3, 0x1e, 0xe1, 0x2b, 0xd9, 0x0b, 0xff, 0xfd, 0xfb, 0xe3, 0xdf, 0xd2,
  0xdb, 0x1e, 0x0f, 0xca, 0xfc, 0xd9, 0xd5, 0x10, 0x27, 0x13, 0xeb, 0x10,
  0x22, 0xdb, 0xe9, 0xe3, 0xeb, 0xde, 0x1b, 0xc7, 0xd6, 0xe4, 0xf0, 0xc9,
  0x11, 0xd9, 0xec, 0x2e, 0xd7, 0x1a, 0xc9, 0xfc, 0xde, 0xa3, 0xe1, 0x01,
  0x21, 0xf6, 0xea, 0xf9, 0xfc, 0x81, 0xed, 0xfb, 0x00, 0xdd, 0x10, 0xd9,
  0x13, 0xdf, 0xf3, 0x03, 0x23, 0x19, 0xd1, 0xd3, 0x0b, 0x22, 0x07, 0xdd,
  0xed, 0xec, 0xe0, 0x15, 0xe0, 0xe7, 0x00, 0x08, 0x09, 0x07, 0xee, 0xe3,
  0xf7, 0xd8, 0x1f, 0x11, 0x01, 0x04, 0x24, 0xec, 0xe3, 0xfd, 0xd1, 0x09,
  0xdc, 0xb9, 0xd8, 0x0e, 0x05, 0xc7, 0x12, 0xd0, 0xda, 0xfb, 0x03, 0xcc,
  0x29, 0x07, 0x16, 0xe7, 0x25, 0x12, 0x07, 0xdb, 0xfd, 0x1e, 0x1f, 0xe9,
  0xff, 0xbf, 0xfd, 0x00, 0x05, 0x16, 0x25, 0x14, 0x00, 0xee, 0xda, 0xef,
  0x25, 0xdd, 0xdc, 0xda, 0xe1, 0xed, 0xe0, 0xe6, 0xd8, 0xa6, 0xff, 0xd2,
  0xf9, 0xf8, 0xf3, 0xd1, 0xfe, 0x13, 0x06, 0x0f, 0x09, 0xd0, 0xe0, 0x29,
  0x30, 0xd4, 0x0b, 0xf6, 0x19, 0xd0, 0xec, 0x1a, 0xda, 0xa9, 0xef, 0x23,
  0x17, 0xf7, 0x1c, 0x0a, 0xfe, 0x0b, 0xe8, 0xf9, 0xe6, 0xc6, 0xe4, 0x3a,
  0x22, 0xdd, 0xe3, 0x21, 0xe9, 0x0c, 0x19, 0xe6, 0xf0, 0xc8, 0xe7, 0xe9,
  0x06, 0xdb, 0xca, 0xc0, 0x2f, 0xe7, 0x16, 0xc9, 0xe4, 0xc9, 0xd7, 0x1a,
  0x06, 0xa3, 0xf3, 0xf3, 0x27, 0x17, 0x00, 0x14, 0x0b, 0xc6, 0xf3, 0x08,
  0xf9, 0x0b, 0xf3, 0xf0, 0x29, 0x33, 0xd7, 0xe4, 0xfe, 0xc8, 0x11, 0xe6,
  0x05, 0x07, 0xf5, 0xdc, 0x2d, 0xd6, 0xfe, 0x1a, 0xe6, 0x19, 0x0d, 0xc4,
  0xe6, 0x05, 0xc7, 0x00, 0xfa, 0x28, 0xf0, 0x04, 0xfc, 0xe6, 0x14, 0xcd,
  0xdb, 0x3a, 0x1f, 0x1a, 0xee, 0xd1, 0xe1, 0xf1, 0x00, 0xd1, 0xd6, 0xc4,
  0xe9, 0xe6, 0x09, 0x16, 0xee, 0xb6, 0xef, 0xd3, 0x05, 0xcc, 0x0b, 0x0c,
  0x2c, 0xd9, 0xec, 0xed, 0xe7, 0x37, 0xe8, 0x15, 0x04, 0xba, 0x19, 0xe8,
  0x1f, 0x36, 0xf4, 0x0b, 0xf1, 0x0d, 0xee, 0x02, 0xeb, 0xf6, 0xec, 0x25,
  0x20, 0xfb, 0x22, 0xde, 0xf7, 0xde, 0x04, 0xdf, 0x15, 0x08, 0x1b, 0x19,
  0x18, 0xea, 0x0b, 0x0e, 0x25, 0xdf, 0xe1, 0xda, 0x1b, 0x38, 0x0d, 0x12,
  0x19, 0x57, 0xef, 0xcb, 0xed, 0x1b, 0x1b, 0x2d, 0x21, 0xb5, 0xd1, 0xf1,
  0xf1, 0xdc, 0xce, 0x07, 0xe1, 0xf0, 0x04, 0xe5, 0x04, 0xb3, 0x04, 0xd9,
  0x0b, 0xfd, 0xf6, 0x09, 0x01, 0x3e, 0xd5, 0xe8, 0x17, 0xca, 0xf5, 0xf3,
  0x05, 0x15, 0xd2, 0x0e, 0xfd, 0x1d, 0xf8, 0xdd, 0x26, 0xcd, 0xe9, 0xfa,
  0xf0, 0xde, 0xf9, 0xea, 0xfd, 0x0d, 0xf1, 0xff, 0xf5, 0xbf, 0x07, 0x2c,
  0x24, 0xfc, 0xef, 0xe7, 0xe4, 0xef, 0x14, 0xde, 0xd6, 0xb2, 0xe6, 0xd0,
  0x18, 0xf9, 0xd2, 0xfc, 0x03, 0x05, 0x07, 0xfb, 0x2a, 0xda, 0x01, 0x03,
  0x1f, 0xef, 0x18, 0x17, 0x24, 0x11, 0xfd, 0xd2, 0x0d, 0xb2, 0x13, 0xe2,
  0xdf, 0x0e, 0xd8, 0x22, 0xf4, 0x07, 0xe8, 0xef, 0x10, 0xb7, 0x03, 0x1e,
  0xe3, 0x08, 0x17, 0x06, 0xed, 0xcf, 0xdf, 0x16, 0xdb, 0xd1, 0x04, 0xe8,
  0x27, 0x13, 0xcf, 0xe6, 0xf1, 0xc6, 0x1b, 0xd8, 0xda, 0x14, 0xea, 0x1d,
  0x17, 0x00, 0xee, 0x00, 0xe1, 0xdb, 0xe1, 0xe3, 0xee, 0x23, 0x22, 0x1a,
  0xfa, 0x0e, 0x0a, 0xef, 0x30, 0xda, 0x01, 0x11, 0xf3, 0xae, 0x14, 0xf5,
  0xf8, 0xec, 0x1c, 0x14, 0xe9, 0xc5, 0x1e, 0xcd, 0xf7, 0x25, 0x10, 0xfd,
  0x10, 0xfb, 0xf5, 0xef, 0x20, 0x11, 0xe8, 0xd3, 0xd5, 0x18, 0x0d, 0xe6,
  0xde, 0x08, 0xec, 0xf1, 0xed, 0x01, 0x0c, 0xef, 0xdf, 0xd5, 0xd1, 0xeb,
  0xf2, 0xf4, 0x02, 0xdd, 0x30, 0xde, 0xcb, 0xde, 0x09, 0xf5, 0xfd, 0x00,
  0x02, 0xd4, 0xc8, 0x06, 0xff, 0xce, 0xd8, 0xfd, 0x0c, 0x21, 0x2f, 0x23,
  0x08, 0x16, 0xf1, 0x0d, 0x2a, 0xe4, 0x10, 0x29, 0xf4, 0xf2, 0xf0, 0xef,
  0xec, 0xd3, 0x25, 0x50, 0xe0, 0xe9, 0x1f, 0xf5, 0x0f, 0xe5, 0x19, 0x27,
  0xfe, 0xc8, 0xf9, 0xff, 0x19, 0xdf, 0x01, 0xfa, 0xf0, 0xee, 0x19, 0x12,
  0xd5, 0x64, 0xf6, 0xf9, 0xea, 0x0e, 0x26, 0x0b, 0xfe, 0xd6, 0x06, 0xe6,
  0x12, 0xe8, 0xef, 0xf3, 0xd8, 0xd5, 0xdb, 0xfe, 0x07, 0xe9, 0xfe, 0xc1,
  0x29, 0xda, 0x1a, 0xe7, 0x1b, 0xd0, 0x18, 0xf4, 0x24, 0xde, 0xf7, 0xce,
  0x17, 0xce, 0x2a, 0x13, 0x02, 0xf1, 0xe5, 0xef, 0x1f, 0xcb, 0xd1, 0xcc,
  0xd5, 0x0e, 0x21, 0x03, 0xfa, 0xf3, 0xff, 0x2a, 0x20, 0xe7, 0x1f, 0x12,
  0x24, 0x0c, 0x05, 0x09, 0x19, 0x1c, 0xea, 0x13, 0x22, 0xe2, 0xf0, 0x13,
  0x0e, 0x4a, 0xf7, 0x0b, 0xe2, 0xbc, 0xd2, 0x06, 0x0c, 0x1b, 0x04, 0xed,
  0x01, 0x35, 0xde, 0x04, 0xf5, 0xd3, 0x12, 0x04, 0x1f, 0x16, 0x23, 0xfe,
  0xe8, 0xec, 0xfc, 0xd5, 0x13, 0xdf, 0x0f, 0xda, 0x24, 0xf2, 0xef, 0x12,
  0xdd, 0x21, 0x0d, 0xee, 0x10, 0x1b, 0x15, 0xef, 0x0c, 0xbc, 0x07, 0x12,
  0x07, 0xdb, 0x11, 0x1a, 0xf1, 0x0d, 0xea, 0xd4, 0xdd, 0xe9, 0x06, 0xfa,
  0xf0, 0xee, 0x11, 0xda, 0xf2, 0xca, 0xdc, 0xd3, 0x0a, 0x18, 0x29, 0xf1,
  0xe0, 0xc7, 0x14, 0x2d, 0xf5, 0xf7, 0xed, 0xe8, 0x20, 0x04, 0x21, 0x34,
  0x0a, 0xf9, 0xff, 0x10, 0xed, 0xd6, 0x16, 0x00, 0x05, 0xe0, 0xff, 0x0e,
  0xfe, 0x1b, 0x24, 0x00, 0xe1, 0xf4, 0xfc, 0x19, 0x0f, 0x05, 0x05, 0x07,
  0x16, 0xf4, 0x14, 0x1b, 0xe6, 0x23, 0xf2, 0xf7, 0x1d, 0x13, 0xf0, 0xe8,
  0x06, 0xd9, 0x12, 0x03, 0xe8, 0xe8, 0xf3, 0x02, 0x01, 0x21, 0xe1, 0x08,
  0x28, 0xcb, 0xf8, 0x00, 0xd9, 0x3a, 0x19, 0x27, 0xf4, 0xc9, 0xf0, 0xd3,
  0x1f, 0x04, 0xed, 0xf0, 0xef, 0xea, 0xec, 0xe7, 0x06, 0xcf, 0x0e, 0xf9,
  0x11, 0xe1, 0xfc, 0xf6, 0x1d, 0x07, 0xf9, 0xf0, 0xed, 0xce, 0x12, 0x03,
  0xea, 0xe3, 0xd9, 0xfe, 0x15, 0x1f, 0x10, 0xf5, 0xe7, 0xb0, 0x0a, 0xcf,
  0x14, 0xe3, 0xd4, 0x15, 0xf5, 0xc4, 0xe4, 0x19, 0x20, 0xfa, 0x09, 0x1e,
  0x04, 0xfa, 0xf0, 0xff, 0x06, 0xf2, 0xe2, 0x29, 0x1a, 0x14, 0x05, 0x0b,
  0xe2, 0x14, 0xeb, 0x02, 0x00, 0x15, 0x21, 0xd3, 0x1a, 0xe5, 0x22, 0xd1,
  0xee, 0xeb, 0xd9, 0x0f, 0xd6, 0xfe, 0x11, 0x0b, 0x22, 0xcb, 0xe6, 0x14,
  0x01, 0x02, 0xfc, 0xef, 0x05, 0x3f, 0x06, 0xd7, 0xe4, 0x04, 0x0f, 0xf8,
  0x14, 0x03, 0x16, 0x06, 0x07, 0xcc, 0x16, 0x1a, 0x26, 0x10, 0xdc, 0xe2,
  0xf4, 0x15, 0xf8, 0x25, 0xfe, 0x05, 0xe2, 0x04, 0x08, 0x1b, 0xff, 0x0d,
  0x16, 0x0d, 0x1e, 0xe0, 0x0e, 0x2f, 0xec, 0xe8, 0xf4, 0x03, 0x08, 0xfe,
  0xf1, 0xe0, 0x01, 0xfa, 0xe3, 0xe7, 0x0a, 0xf6, 0x00, 0xe8, 0x28, 0xe8,
  0xe3, 0x0e, 0x0b, 0xe0, 0x00, 0x25, 0x16, 0xcc, 0x02, 0x3e, 0x1b, 0xe5,
  0xf1, 0x01, 0x3b, 0x29, 0x03, 0x05, 0xe5, 0x40, 0xfb, 0x13, 0x12, 0xf3,
  0xdb, 0x26, 0xd1, 0x01, 0x19, 0xfe, 0x04, 0xf6, 0xf4, 0x06, 0xf8, 0xfc,
  0x16, 0xe7, 0x06, 0x0c, 0xec, 0xd5, 0x12, 0xe9, 0xd9, 0x42, 0x13, 0xfc,
  0xe7, 0xc0, 0x02, 0x03, 0x1c, 0x07, 0xff, 0x0a, 0x0f, 0xef, 0x01, 0x1c,
  0xe1, 0x15, 0x15, 0xe1, 0x0d, 0x31, 0x20, 0xd0, 0xe3, 0xda, 0xff, 0x1c,
  0xe9, 0x13, 0xf7, 0x1f, 0xf3, 0xc7, 0xd8, 0xc2, 0xfc, 0x1d, 0x1b, 0x01,
  0xf8, 0x02, 0xf6, 0x2a, 0xf7, 0xe9, 0x09, 0x35, 0x15, 0xe8, 0x2d, 0xf9,
  0x1d, 0x20, 0x00, 0xde, 0x11, 0xdd, 0xeb, 0x05, 0xe7, 0xdc, 0x0f, 0xef,
  0xfe, 0x32, 0xec, 0x0d, 0xe8, 0xde, 0xe9, 0xe6, 0xf2, 0xe3, 0x03, 0x05,
  0x10, 0xeb, 0x27, 0x06, 0x15, 0x06, 0xe1, 0x02, 0x21, 0x3d, 0x20, 0x09,
  0xe1, 0x3d, 0xff, 0x09, 0xf4, 0x07, 0x09, 0xf5, 0xea, 0xf4, 0x31, 0x32,
  0x13, 0x11, 0xf5, 0x19, 0x21, 0xd5, 0x17, 0x1a, 0xfa, 0xdb, 0x17, 0x00,
  0x16, 0xe5, 0x14, 0x14, 0x0a, 0x04, 0xeb, 0x00, 0x02, 0x29, 0xf5, 0x0f,
  0xeb, 0x01, 0xee, 0xe5, 0x1c, 0x05, 0x08, 0x18, 0x19, 0x16, 0x21, 0x09,
  0xf1, 0xf4, 0x0d, 0xf0, 0x06, 0xc2, 0x1e, 0xe4, 0xd8, 0x0d, 0x25, 0xf1,
  0xe5, 0x03, 0xfb, 0x04, 0x23, 0xf6, 0x02, 0x07, 0xea, 0x02, 0x0c, 0x10,
  0xfe, 0xff, 0x08, 0x27, 0x1e, 0x29, 0x0e, 0x11, 0xe0, 0x02, 0x0d, 0x21,
  0x1d, 0x0b, 0xfb, 0x07, 0x12, 0xe5, 0x21, 0x03, 0x0c, 0x39, 0x2c, 0x19,
  0x12, 0x1c, 0xe5, 0x3c, 0x07, 0x1a, 0x1e, 0xee, 0x30, 0x19, 0x33, 0x09,
  0xe8, 0xd2, 0x3e, 0x16, 0x02, 0xed, 0xe7, 0xf5, 0xe1, 0xf1, 0x1c, 0x31,
  0xf8, 0x17, 0x2d, 0xf6, 0xeb, 0x0a, 0xee, 0xfc, 0xe6, 0x14, 0xf5, 0xf1,
  0x05, 0x18, 0x03, 0x23, 0x14, 0x6e, 0x08, 0x08, 0x10, 0x12, 0x15, 0x05,
  0x26, 0xd7, 0x03, 0x37, 0x0b, 0x3e, 0x0c, 0x10, 0x1c, 0x10, 0xfa, 0x3b,
  0xdf, 0xe3, 0xfe, 0x2b, 0x09, 0xd8, 0x06, 0x0a, 0x18, 0xd8, 0x2f, 0x23,
  0x1f, 0xe1, 0x1a, 0x12, 0x05, 0x31, 0x2c, 0x33, 0xdb, 0x20, 0xe1, 0xfe,
  0x00, 0x29, 0x11, 0xfd, 0x04, 0x3a, 0x0a, 0xd9, 0xef, 0xee, 0xfb, 0xf4,
  0xe7, 0xd7, 0x1c, 0x2c, 0x10, 0xc3, 0x04, 0xf9, 0x09, 0x00, 0x04, 0x28,
  0x05, 0x27, 0x27, 0xf8, 0xdc, 0x10, 0x0e, 0x16, 0x0e, 0x3a, 0x2b, 0xea,
  0x23, 0x27, 0xe5, 0xe7, 0xe4, 0x2f, 0x26, 0x1b, 0xe1, 0x34, 0xec, 0x0d,
  0x14, 0xc0, 0xeb, 0x07, 0x11, 0x47, 0xd5, 0xfe, 0x03, 0x45, 0xe4, 0x24,
  0xe5, 0xd0, 0x06, 0x0b, 0xcf, 0x0c, 0x20, 0xd5, 0x0d, 0xfd, 0xf1, 0xee,
  0x13, 0x39, 0x0f, 0x1a, 0x0b, 0x28, 0xf4, 0x1a, 0x00, 0x37, 0xf9, 0x1b,
  0x03, 0xe5, 0x1c, 0xf7, 0x19, 0x30, 0xdc, 0x10, 0x37, 0xe2, 0x02, 0x25,
  0xf9, 0xf3, 0xf4, 0xd6, 0x01, 0xda, 0x0b, 0x13, 0x1f, 0x27, 0x08, 0x25,
  0xf0, 0xf3, 0xde, 0xf3, 0x05, 0xfe, 0xf1, 0x0e, 0x17, 0xef, 0xef, 0x44,
  0xf6, 0x0e, 0xef, 0x15, 0x07, 0x1d, 0xfa, 0xf3, 0xee, 0xfd, 0x29, 0x0f,
  0x02, 0x1e, 0x01, 0x05, 0x09, 0xf6, 0xfb, 0x18, 0x05, 0x36, 0x1b, 0xe4,
  0xef, 0x24, 0x18, 0x09, 0xf5, 0x20, 0xe8, 0xf8, 0x11, 0x16, 0x22, 0x0a,
  0xe5, 0x1b, 0x2b, 0x27, 0xeb, 0x1d, 0x00, 0x13, 0x21, 0xee, 0xf3, 0xee,
  0xe7, 0xf0, 0x0f, 0x16, 0xea, 0xd7, 0x13, 0x17, 0x0b, 0xed, 0xef, 0xe6,
  0x2b, 0x17, 0x26, 0x3b, 0xf5, 0xfc, 0x13, 0x1b, 0x05, 0x20, 0xed, 0xd3,
  0x11, 0xe0, 0xe7, 0x1a, 0x01, 0xd7, 0x0c, 0x30, 0x12, 0x23, 0x03, 0xe6,
  0x09, 0x02, 0x2a, 0x2e, 0x20, 0x0d, 0x21, 0x0a, 0xe2, 0xfb, 0xfb, 0x03,
  0x04, 0x17, 0x1d, 0xef, 0xf5, 0x0d, 0x1c, 0xf7, 0xd2, 0x11, 0xdc, 0xee,
  0x02, 0x28, 0x19, 0x23, 0x1c, 0xfe, 0xe4, 0x04, 0x16, 0x0e, 0x10, 0x1e,
  0xeb, 0x29, 0xf9, 0xe3, 0xfc, 0x2d, 0xda, 0xe3, 0xe6, 0x3c, 0x1b, 0x26,
  0xf7, 0xf3, 0x11, 0xf4, 0x02, 0xe6, 0xe1, 0x21, 0x0d, 0x15, 0xfc, 0x2b,
  0xfc, 0x3f, 0xfc, 0x16, 0x08, 0x17, 0xda, 0x26, 0x25, 0xf5, 0xf8, 0xfd,
  0xed, 0xf1, 0x1f, 0x2f, 0xfb, 0x13, 0x01, 0xca, 0xf6, 0x15, 0x0b, 0xcc,
  0xe5, 0xe9, 0xfc, 0xe9, 0x10, 0xe2, 0x1e, 0x15, 0xfa, 0x1e, 0x06, 0x13,
  0x19, 0x06, 0xeb, 0x02, 0xe2, 0x1d, 0x11, 0x1b, 0x1f, 0x00, 0x13, 0xf3,
  0x0e, 0xd8, 0x02, 0x12, 0x0b, 0xcf, 0xf3, 0x1d, 0xfc, 0xe3, 0xf9, 0xda,
  0xed, 0x09, 0x18, 0xf6, 0x08, 0xb7, 0x1b, 0xf3, 0xfa, 0x1d, 0xfb, 0x1f,
  0x1b, 0xed, 0x0d, 0x04, 0xe1, 0x29, 0xe9, 0xe7, 0x14, 0x04, 0x1d, 0x14,
  0x12, 0xfa, 0xe9, 0xed, 0xe2, 0xdd, 0x06, 0xf2, 0xeb, 0xe7, 0xdf, 0x01,
  0x0d, 0x04, 0xff, 0x2d, 0x18, 0xce, 0xdc, 0xdf, 0xd5, 0x1e, 0xf0, 0x30,
  0x20, 0x41, 0xff, 0xfa, 0xff, 0x13, 0xfe, 0xdc, 0x2b, 0xc7, 0x1a, 0xfa,
  0xe7, 0xd7, 0x1d, 0xfd, 0x23, 0x33, 0xd2, 0xf5, 0x12, 0xf9, 0xec, 0xd4,
  0xe3, 0x27, 0x02, 0x22, 0x27, 0x01, 0xe7, 0x39, 0xfc, 0x00, 0x17, 0xe3,
  0x12, 0x00, 0xca, 0xe3, 0xf3, 0x18, 0x06, 0xea, 0xde, 0x22, 0x13, 0x18,
  0x11, 0x49, 0xef, 0x07, 0x03, 0x04, 0x10, 0xdf, 0x1f, 0xf2, 0x14, 0xff,
  0x29, 0xb6, 0xfa, 0xed, 0x22, 0xfa, 0xda, 0xe9, 0xfd, 0x07, 0xee, 0x0f,
  0xeb, 0xb4, 0x01, 0xf7, 0xe1, 0x00, 0x36, 0x06, 0xe2, 0xfe, 0x28, 0xf4,
  0x01, 0x28, 0x2b, 0x12, 0xfa, 0x38, 0x1a, 0xeb, 0x02, 0xd2, 0xde, 0xde,
  0x0f, 0xe6, 0x11, 0x22, 0xe5, 0xdb, 0x01, 0xec, 0xe3, 0x30, 0x2a, 0x0c,
  0x11, 0xd5, 0xf9, 0x1c, 0xf9, 0x25, 0xdf, 0xdb, 0x19, 0x0c, 0x2c, 0x19,
  0xe6, 0xe5, 0x17, 0xee, 0x07, 0x20, 0x28, 0xfe, 0xef, 0x01, 0x00, 0xe0,
  0xe6, 0xf2, 0xea, 0xd5, 0xdc, 0xc5, 0xfb, 0x13, 0xfe, 0x19, 0x10, 0xea,
  0x0e, 0x00, 0x0a, 0xf4, 0xf7, 0x08, 0x0a, 0x3a, 0x1d, 0x30, 0x0a, 0xf0,
  0x0e, 0x22, 0xdf, 0xdf, 0x15, 0xd4, 0x25, 0x29, 0xf4, 0xf2, 0xe2, 0x30,
  0x24, 0xfa, 0xe5, 0x2c, 0x1f, 0xc2, 0x26, 0x10, 0xed, 0xc7, 0x1e, 0x21,
  0xf9, 0xfe, 0x23, 0xf1, 0xff, 0x07, 0x02, 0xdd, 0xed, 0xf0, 0xea, 0xc1,
  0xf4, 0x0d, 0x10, 0xff, 0x07, 0xc5, 0x06, 0xf7, 0xfc, 0x1d, 0x00, 0x17,
  0xec, 0xf7, 0xf1, 0x05, 0xf4, 0xd3, 0xdc, 0xf1, 0xdc, 0x01, 0xdf, 0xf7,
  0x11, 0xd0, 0x03, 0x19, 0x0f, 0x10, 0xfc, 0x11, 0x1c, 0xe1, 0xff, 0xf2,
  0x06, 0xf7, 0xdd, 0xd2, 0xf6, 0xf1, 0x18, 0x12, 0x13, 0x1f, 0xbf, 0xf2,
  0xf8, 0xf6, 0x1a, 0x10, 0xe0, 0xc0, 0x11, 0xd2, 0x28, 0x0f, 0xdf, 0xfa,
  0xd5, 0xe8, 0xdd, 0xed, 0x07, 0x3d, 0x06, 0x02, 0xf4, 0xe6, 0x0e, 0xf4,
  0x06, 0xb5, 0x1a, 0xfe, 0x19, 0xcf, 0x0e, 0x0b, 0xe1, 0x0b, 0xec, 0x09,
  0xf3, 0xf9, 0xfe, 0xca, 0x27, 0xec, 0x2c, 0xd9, 0xea, 0xe0, 0xec, 0xe5,
  0xe1, 0xdb, 0x07, 0xf6, 0xed, 0x1f, 0x05, 0x02, 0x1a, 0x33, 0xde, 0xd7,
  0x0e, 0xfc, 0x04, 0xee, 0x0a, 0xec, 0xcc, 0x10, 0xe6, 0x14, 0x0b, 0xd9,
  0xe8, 0xd5, 0xda, 0xe2, 0xf9, 0xcc, 0x16, 0x02, 0xdc, 0x12, 0xf9, 0xfe,
  0x03, 0xb2, 0xd9, 0xf3, 0x0c, 0x08, 0x1c, 0xf7, 0x17, 0xb0, 0xe6, 0xcb,
  0x00, 0xe2, 0xfb, 0x0e, 0xd0, 0x2a, 0xf2, 0x0c, 0x0a, 0xb1, 0x1d, 0xd7,
  0x05, 0xc6, 0x03, 0x06, 0x23, 0xb5, 0xf5, 0x25, 0x24, 0xe1, 0xf3, 0xe3,
  0x24, 0x21, 0xf9, 0x00, 0x26, 0xff, 0xff, 0xff, 0x04, 0x00, 0x00, 0x00,
  0x0c, 0x00, 0x00, 0x00, 0xa2, 0x00, 0x00, 0x00, 0x59, 0xff, 0xff, 0xff,
  0x3f, 0x00, 0x00, 0x00, 0x3e, 0xff, 0xff, 0xff, 0x04, 0x00, 0x00, 0x00,
  0x08, 0x00, 0x00, 0x00, 0xff, 0xff, 0xff, 0xff, 0xac, 0x02, 0x00, 0x00,
  0x8c, 0xf7, 0xff, 0xff, 0x90, 0xf7, 0xff, 0xff, 0x0f, 0x00, 0x00, 0x00,
  0x4d, 0x4c, 0x49, 0x52, 0x20, 0x43, 0x6f, 0x6e, 0x76, 0x65, 0x72, 0x74,
  0x65, 0x64, 0x2e, 0x00, 0x01, 0x00, 0x00, 0x00, 0x14, 0x00, 0x00, 0x00,
  0x00, 0x00, 0x0e, 0x00, 0x18, 0x00, 0x14, 0x00, 0x10, 0x00, 0x0c, 0x00,
  0x08, 0x00, 0x04, 0x00, 0x0e, 0x00, 0x00, 0x00, 0x14, 0x00, 0x00, 0x00,
  0x1c, 0x00, 0x00, 0x00, 0xc8, 0x01, 0x00, 0x00, 0xcc, 0x01, 0x00, 0x00,
  0xd0, 0x01, 0x00, 0x00, 0x04, 0x00, 0x00, 0x00, 0x6d, 0x61, 0x69, 0x6e,
  0x00, 0x00, 0x00, 0x00, 0x07, 0x00, 0x00, 0x00, 0x90, 0x01, 0x00, 0x00,
  0x30, 0x01, 0x00, 0x00, 0xcc, 0x00, 0x00, 0x00, 0xa4, 0x00, 0x00, 0x00,
  0x60, 0x00, 0x00, 0x00, 0x24, 0x00, 0x00, 0x00, 0x04, 0x00, 0x00, 0x00,
  0x96, 0xfe, 0xff, 0xff, 0x08, 0x00, 0x00, 0x00, 0x0c, 0x00, 0x00, 0x00,
  0x01, 0x00, 0x00, 0x00, 0x0c, 0x00, 0x00, 0x00, 0x01, 0x00, 0x00, 0x00,
  0x0b, 0x00, 0x00, 0x00, 0x12, 0xff, 0xff, 0xff, 0x1c, 0x00, 0x00, 0x00,
  0x00, 0x00, 0x00, 0x09, 0x1c, 0x00, 0x00, 0x00, 0x20, 0x00, 0x00, 0x00,
  0x05, 0x00, 0x00, 0x00, 0x00, 0x00, 0x06, 0x00, 0x08, 0x00, 0x04, 0x00,
  0x06, 0x00, 0x00, 0x00, 0x00, 0x00, 0x80, 0x3f, 0x01, 0x00, 0x00, 0x00,
  0x0b, 0x00, 0x00, 0x00, 0x01, 0x00, 0x00, 0x00, 0x0a, 0x00, 0x00, 0x00,
  0x4a, 0xff, 0xff, 0xff, 0x14, 0x00, 0x00, 0x00, 0x00, 0x00, 0x00, 0x08,
  0x10, 0x00, 0x00, 0x00, 0x14, 0x00, 0x00, 0x00, 0x04, 0x00, 0x00, 0x00,
  0x70, 0xf8, 0xff, 0xff, 0x01, 0x00, 0x00, 0x00, 0x0a, 0x00, 0x00, 0x00,
  0x03, 0x00, 0x00, 0x00, 0x09, 0x00, 0x00, 0x00, 0x03, 0x00, 0x00, 0x00,
  0x02, 0x00, 0x00, 0x00, 0x00, 0x00, 0x0a, 0x00, 0x10, 0x00, 0x0c, 0x00,
  0x08, 0x00, 0x04, 0x00, 0x0a, 0x00, 0x00, 0x00, 0x0c, 0x00, 0x00, 0x00,
  0x10, 0x00, 0x00, 0x00, 0x03, 0x00, 0x00, 0x00, 0x01, 0x00, 0x00, 0x00,
  0x09, 0x00, 0x00, 0x00, 0x02, 0x00, 0x00, 0x00, 0x08, 0x00, 0x00, 0x00,
  0x01, 0x00, 0x00, 0x00, 0xae, 0xff, 0xff, 0xff, 0x24, 0x00, 0x00, 0x00,
  0x00, 0x00, 0x00, 0x05, 0x34, 0x00, 0x00, 0x00, 0x38, 0x00, 0x00, 0x00,
  0x02, 0x00, 0x00, 0x00, 0x00, 0x00, 0x0e, 0x00, 0x18, 0x00, 0x17, 0x00,
  0x10, 0x00, 0x0c, 0x00, 0x08, 0x00, 0x04, 0x00, 0x0e, 0x00, 0x00, 0x00,
  0x02, 0x00, 0x00, 0x00, 0x04, 0x00, 0x00, 0x00, 0x02, 0x00, 0x00, 0x00,
  0x04, 0x00, 0x00, 0x00, 0x00, 0x00, 0x00, 0x01, 0x01, 0x00, 0x00, 0x00,
  0x08, 0x00, 0x00, 0x00, 0x01, 0x00, 0x00, 0x00, 0x07, 0x00, 0x00, 0x00,
  0x00, 0x00, 0x0e, 0x00, 0x18, 0x00, 0x14, 0x00, 0x10, 0x00, 0x0c, 0x00,
  0x0b, 0x00, 0x04, 0x00, 0x0e, 0x00, 0x00, 0x00, 0x20, 0x00, 0x00, 0x00,
  0x00, 0x00, 0x00, 0x01, 0x2c, 0x00, 0x00, 0x00, 0x30, 0x00, 0x00, 0x00,
  0x01, 0x00, 0x00, 0x00, 0x0c, 0x00, 0x14, 0x00, 0x13, 0x00, 0x0c, 0x00,
  0x08, 0x00, 0x07, 0x00, 0x0c, 0x00, 0x00, 0x00, 0x00, 0x00, 0x00, 0x01,
  0x01, 0x00, 0x00, 0x00, 0x01, 0x00, 0x00, 0x00, 0x00, 0x00, 0x00, 0x01,
  0x01, 0x00, 0x00, 0x00, 0x07, 0x00, 0x00, 0x00, 0x03, 0x00, 0x00, 0x00,
  0x06, 0x00, 0x00, 0x00, 0x05, 0x00, 0x00, 0x00, 0x04, 0x00, 0x00, 0x00,
  0x00, 0x00, 0x0a, 0x00, 0x0c, 0x00, 0x00, 0x00, 0x08, 0x00, 0x04, 0x00,
  0x0a, 0x00, 0x00, 0x00, 0x08, 0x00, 0x00, 0x00, 0x0c, 0x00, 0x00, 0x00,
  0x01, 0x00, 0x00, 0x00, 0x06, 0x00, 0x00, 0x00, 0x01, 0x00, 0x00, 0x00,
  0x00, 0x00, 0x00, 0x00, 0x01, 0x00, 0x00, 0x00, 0x0c, 0x00, 0x00, 0x00,
  0x01, 0x00, 0x00, 0x00, 0x00, 0x00, 0x00, 0x00, 0x0d, 0x00, 0x00, 0x00,
  0xa0, 0x06, 0x00, 0x00, 0x38, 0x06, 0x00, 0x00, 0xac, 0x05, 0x00, 0x00,
  0x40, 0x05, 0x00, 0x00, 0xa4, 0x04, 0x00, 0x00, 0x08, 0x04, 0x00, 0x00,
  0x84, 0x03, 0x00, 0x00, 0xa0, 0x02, 0x00, 0x00, 0x0c, 0x02, 0x00, 0x00,
  0x90, 0x01, 0x00, 0x00, 0xfc, 0x00, 0x00, 0x00, 0x80, 0x00, 0x00, 0x00,
  0x04, 0x00, 0x00, 0x00, 0xaa, 0xf9, 0xff, 0xff, 0x00, 0x00, 0x00, 0x01,
  0x18, 0x00, 0x00, 0x00, 0x20, 0x00, 0x00, 0x00, 0x3c, 0x00, 0x00, 0x00,
  0x0d, 0x00, 0x00, 0x00, 0x00, 0x00, 0x00, 0x03, 0x50, 0x00, 0x00, 0x00,
  0x02, 0x00, 0x00, 0x00, 0xff, 0xff, 0xff, 0xff, 0x03, 0x00, 0x00, 0x00,
  0x8c, 0xf9, 0xff, 0xff, 0x08, 0x00, 0x00, 0x00, 0x10, 0x00, 0x00, 0x00,
  0x01, 0x00, 0x00, 0x00, 0x00, 0x00, 0x00, 0x00, 0x00, 0x00, 0x00, 0x00,
  0x01, 0x00, 0x00, 0x00, 0x00, 0x00, 0x80, 0x3b, 0x19, 0x00, 0x00, 0x00,
  0x53, 0x74, 0x61, 0x74, 0x65, 0x66, 0x75, 0x6c, 0x50, 0x61, 0x72, 0x74,
  0x69, 0x74, 0x69, 0x6f, 0x6e, 0x65, 0x64, 0x43, 0x61, 0x6c, 0x6c, 0x3a,
  0x30, 0x00, 0x00, 0x00, 0x02, 0x00, 0x00, 0x00, 0x01, 0x00, 0x00, 0x00,
  0x03, 0x00, 0x00, 0x00, 0x22, 0xfa, 0xff, 0xff, 0x00, 0x00, 0x00, 0x01,
  0x18, 0x00, 0x00, 0x00, 0x20, 0x00, 0x00, 0x00, 0x3c, 0x00, 0x00, 0x00,
  0x0c, 0x00, 0x00, 0x00, 0x00, 0x00, 0x00, 0x09, 0x50, 0x00, 0x00, 0x00,
  0x02, 0x00, 0x00, 0x00, 0xff, 0xff, 0xff, 0xff, 0x03, 0x00, 0x00, 0x00,
  0x04, 0xfa, 0xff, 0xff, 0x08, 0x00, 0x00, 0x00, 0x10, 0x00, 0x00, 0x00,
  0x01, 0x00, 0x00, 0x00, 0x80, 0xff, 0xff, 0xff, 0xff, 0xff, 0xff, 0xff,
  0x01, 0x00, 0x00, 0x00, 0x00, 0x00, 0x80, 0x3b, 0x1a, 0x00, 0x00, 0x00,
  0x53, 0x74, 0x61, 0x74, 0x65, 0x66, 0x75, 0x6c, 0x50, 0x61, 0x72, 0x74,
  0x69, 0x74, 0x69, 0x6f, 0x6e, 0x65, 0x64, 0x43, 0x61, 0x6c, 0x6c, 0x3a,
  0x30, 0x31, 0x00, 0x00, 0x02, 0x00, 0x00, 0x00, 0x01, 0x00, 0x00, 0x00,
  0x03, 0x00, 0x00, 0x00, 0x9a, 0xfa, 0xff, 0xff, 0x00, 0x00, 0x00, 0x01,
  0x18, 0x00, 0x00, 0x00, 0x20, 0x00, 0x00, 0x00, 0x3c, 0x00, 0x00, 0x00,
  0x0b, 0x00, 0x00, 0x00, 0x00, 0x00, 0x00, 0x09, 0x68, 0x00, 0x00, 0x00,
  0x02, 0x00, 0x00, 0x00, 0xff, 0xff, 0xff, 0xff, 0x03, 0x00, 0x00, 0x00,
  0x7c, 0xfa, 0xff, 0xff, 0x08, 0x00, 0x00, 0x00, 0x10, 0x00, 0x00, 0x00,
  0x01, 0x00, 0x00, 0x00, 0x1f, 0x00, 0x00, 0x00, 0x00, 0x00, 0x00, 0x00,
  0x01, 0x00, 0x00, 0x00, 0x6c, 0x46, 0x3f, 0x3f, 0x30, 0x00, 0x00, 0x00,
  0x73, 0x65, 0x71, 0x75, 0x65, 0x6e, 0x74, 0x69, 0x61, 0x6c, 0x2f, 0x64,
  0x65, 0x6e, 0x73, 0x65, 0x2f, 0x4d, 0x61, 0x74, 0x4d, 0x75, 0x6c, 0x3b,
  0x73, 0x65, 0x71, 0x75, 0x65, 0x6e, 0x74, 0x69, 0x61, 0x6c, 0x2f, 0x64,
  0x65, 0x6e, 0x73, 0x65, 0x2f, 0x42, 0x69, 0x61, 0x73, 0x41, 0x64, 0x64,
  0x00, 0x00, 0x00, 0x00, 0x02, 0x00, 0x00, 0x00, 0x01, 0x00, 0x00, 0x00,
  0x03, 0x00, 0x00, 0x00, 0x2a, 0xfb, 0xff, 0xff, 0x00, 0x00, 0x00, 0x01,
  0x18, 0x00, 0x00, 0x00, 0x20, 0x00, 0x00, 0x00, 0x3c, 0x00, 0x00, 0x00,
  0x0a, 0x00, 0x00, 0x00, 0x00, 0x00, 0x00, 0x09, 0x50, 0x00, 0x00, 0x00,
  0x02, 0x00, 0x00, 0x00, 0xff, 0xff, 0xff, 0xff, 0xac, 0x02, 0x00, 0x00,
  0x0c, 0xfb, 0xff, 0xff, 0x08, 0x00, 0x00, 0x00, 0x10, 0x00, 0x00, 0x00,
  0x01, 0x00, 0x00, 0x00, 0x80, 0xff, 0xff, 0xff, 0xff, 0xff, 0xff, 0xff,
  0x01, 0x00, 0x00, 0x00, 0x11, 0xc8, 0x0d, 0x3f, 0x1a, 0x00, 0x00, 0x00,
  0x73, 0x65, 0x71, 0x75, 0x65, 0x6e, 0x74, 0x69, 0x61, 0x6c, 0x2f, 0x66,
  0x6c, 0x61, 0x74, 0x74, 0x65, 0x6e, 0x2f, 0x52, 0x65, 0x73, 0x68, 0x61,
  0x70, 0x65, 0x00, 0x00, 0x02, 0x00, 0x00, 0x00, 0x01, 0x00, 0x00, 0x00,
  0xac, 0x02, 0x00, 0x00, 0xa2, 0xfb, 0xff, 0xff, 0x00, 0x00, 0x00, 0x01,
  0x18, 0x00, 0x00, 0x00, 0x28, 0x00, 0x00, 0x00, 0x44, 0x00, 0x00, 0x00,
  0x09, 0x00, 0x00, 0x00, 0x00, 0x00, 0x00, 0x09, 0x60, 0x00, 0x00, 0x00,
  0x04, 0x00, 0x00, 0x00, 0xff, 0xff, 0xff, 0xff, 0x13, 0x00, 0x00, 0x00,
  0x09, 0x00, 0x00, 0x00, 0x04, 0x00, 0x00, 0x00, 0x8c, 0xfb, 0xff, 0xff,
  0x08, 0x00, 0x00, 0x00, 0x10, 0x00, 0x00, 0x00, 0x01, 0x00, 0x00, 0x00,
  0x80, 0xff, 0xff, 0xff, 0xff, 0xff, 0xff, 0xff, 0x01, 0x00, 0x00, 0x00,
  0x11, 0xc8, 0x0d, 0x3f, 0x20, 0x00, 0x00, 0x00, 0x73, 0x65, 0x71, 0x75,
  0x65, 0x6e, 0x74, 0x69, 0x61, 0x6c, 0x2f, 0x6d, 0x61, 0x78, 0x5f, 0x70,
  0x6f, 0x6f, 0x6c, 0x69, 0x6e, 0x67, 0x32, 0x64, 0x2f, 0x4d, 0x61, 0x78,
  0x50, 0x6f, 0x6f, 0x6c, 0x00, 0x00, 0x00, 0x00, 0x04, 0x00, 0x00, 0x00,
  0x01, 0x00, 0x00, 0x00, 0x13, 0x00, 0x00, 0x00, 0x09, 0x00, 0x00, 0x00,
  0x04, 0x00, 0x00, 0x00, 0x32, 0xfc, 0xff, 0xff, 0x00, 0x00, 0x00, 0x01,
  0x18, 0x00, 0x00, 0x00, 0x28, 0x00, 0x00, 0x00, 0x44, 0x00, 0x00, 0x00,
  0x08, 0x00, 0x00, 0x00, 0x00, 0x00, 0x00, 0x09, 0xb0, 0x00, 0x00, 0x00,
  0x04, 0x00, 0x00, 0x00, 0xff, 0xff, 0xff, 0xff, 0x26, 0x00, 0x00, 0x00,
  0x26, 0x00, 0x00, 0x00, 0x04, 0x00, 0x00, 0x00, 0x1c, 0xfc, 0xff, 0xff,
  0x08, 0x00, 0x00, 0x00, 0x10, 0x00, 0x00, 0x00, 0x01, 0x00, 0x00, 0x00,
  0x80, 0xff, 0xff, 0xff, 0xff, 0xff, 0xff, 0xff, 0x01, 0x00, 0x00, 0x00,
  0x11, 0xc8, 0x0d, 0x3f, 0x72, 0x00, 0x00, 0x00, 0x73, 0x65, 0x71, 0x75,
  0x65, 0x6e, 0x74, 0x69, 0x61, 0x6c, 0x2f, 0x63, 0x6f, 0x6e, 0x76, 0x32,
  0x64, 0x2f, 0x52, 0x65, 0x6c, 0x75, 0x3b, 0x73, 0x65, 0x71, 0x75, 0x65,
  0x6e, 0x74, 0x69, 0x61, 0x6c, 0x2f, 0x63, 0x6f, 0x6e, 0x76, 0x32, 0x64,
  0x2f, 0x42, 0x69, 0x61, 0x73, 0x41, 0x64, 0x64, 0x3b, 0x73, 0x65, 0x71,
  0x75, 0x65, 0x6e, 0x74, 0x69, 0x61, 0x6c, 0x2f, 0x63, 0x6f, 0x6e, 0x76,
  0x32, 0x64, 0x2f, 0x43, 0x6f, 0x6e, 0x76, 0x32, 0x44, 0x3b, 0x73, 0x65,
  0x71, 0x75, 0x65, 0x6e, 0x74, 0x69, 0x61, 0x6c, 0x2f, 0x63, 0x6f, 0x6e,
  0x76, 0x32, 0x64, 0x2f, 0x42, 0x69, 0x61, 0x73, 0x41, 0x64, 0x64, 0x2f,
  0x52, 0x65, 0x61, 0x64, 0x56, 0x61, 0x72, 0x69, 0x61, 0x62, 0x6c, 0x65,
  0x4f, 0x70, 0x00, 0x00, 0x04, 0x00, 0x00, 0x00, 0x01, 0x00, 0x00, 0x00,
  0x26, 0x00, 0x00, 0x00, 0x26, 0x00, 0x00, 0x00, 0x04, 0x00, 0x00, 0x00,
  0x12, 0xfd, 0xff, 0xff, 0x00, 0x00, 0x00, 0x01, 0x18, 0x00, 0x00, 0x00,
  0x28, 0x00, 0x00, 0x00, 0x48, 0x00, 0x00, 0x00, 0x07, 0x00, 0x00, 0x00,
  0x00, 0x00, 0x00, 0x09, 0x50, 0x00, 0x00, 0x00, 0x04, 0x00, 0x00, 0x00,
  0xff, 0xff, 0xff, 0xff, 0x28, 0x00, 0x00, 0x00, 0x28, 0x00, 0x00, 0x00,
  0x01, 0x00, 0x00, 0x00, 0xfc, 0xfc, 0xff, 0xff, 0x08, 0x00, 0x00, 0x00,
  0x14, 0x00, 0x00, 0x00, 0x01, 0x00, 0x00, 0x00, 0x80, 0xff, 0xff, 0xff,
  0xff, 0xff, 0xff, 0xff, 0x00, 0x00, 0x00, 0x00, 0x01, 0x00, 0x00, 0x00,
  0x00, 0x00, 0x80, 0x3f, 0x0c, 0x00, 0x00, 0x00, 0x74, 0x66, 0x6c, 0x2e,
  0x71, 0x75, 0x61, 0x6e, 0x74, 0x69, 0x7a, 0x65, 0x00, 0x00, 0x00, 0x00,
  0x04, 0x00, 0x00, 0x00, 0x01, 0x00, 0x00, 0x00, 0x28, 0x00, 0x00, 0x00,
  0x28, 0x00, 0x00, 0x00, 0x01, 0x00, 0x00, 0x00, 0xf6, 0xfd, 0xff, 0xff,
  0x00, 0x00, 0x00, 0x01, 0x14, 0x00, 0x00, 0x00, 0x58, 0x00, 0x00, 0x00,
  0x06, 0x00, 0x00, 0x00, 0x00, 0x00, 0x00, 0x09, 0x6c, 0x00, 0x00, 0x00,
  0x64, 0xfd, 0xff, 0xff, 0x08, 0x00, 0x00, 0x00, 0x2c, 0x00, 0x00, 0x00,
  0x04, 0x00, 0x00, 0x00, 0x00, 0x00, 0x00, 0x00, 0x00, 0x00, 0x00, 0x00,
  0x00, 0x00, 0x00, 0x00, 0x00, 0x00, 0x00, 0x00, 0x00, 0x00, 0x00, 0x00,
  0x00, 0x00, 0x00, 0x00, 0x00, 0x00, 0x00, 0x00, 0x00, 0x00, 0x00, 0x00,
  0x00, 0x00, 0x00, 0x00, 0x04, 0x00, 0x00, 0x00, 0x20, 0x28, 0x3a, 0x3b,
  0xff, 0x62, 0x1c, 0x3b, 0x9a, 0xaf, 0x13, 0x3b, 0x4b, 0xf5, 0x39, 0x3b,
  0x18, 0x00, 0x00, 0x00, 0x73, 0x65, 0x71, 0x75, 0x65, 0x6e, 0x74, 0x69,
  0x61, 0x6c, 0x2f, 0x63, 0x6f, 0x6e, 0x76, 0x32, 0x64, 0x2f, 0x43, 0x6f,
  0x6e, 0x76, 0x32, 0x44, 0x00, 0x00, 0x00, 0x00, 0x04, 0x00, 0x00, 0x00,
  0x04, 0x00, 0x00, 0x00, 0x03, 0x00, 0x00, 0x00, 0x03, 0x00, 0x00, 0x00,
  0x01, 0x00, 0x00, 0x00, 0x8e, 0xfe, 0xff, 0xff, 0x00, 0x00, 0x00, 0x01,
  0x14, 0x00, 0x00, 0x00, 0x54, 0x00, 0x00, 0x00, 0x05, 0x00, 0x00, 0x00,
  0x00, 0x00, 0x00, 0x02, 0x78, 0x00, 0x00, 0x00, 0xfc, 0xfd, 0xff, 0xff,
  0x08, 0x00, 0x00, 0x00, 0x28, 0x00, 0x00, 0x00, 0x04, 0x00, 0x00, 0x00,
  0x00, 0x00, 0x00, 0x00, 0x00, 0x00, 0x00, 0x00, 0x00, 0x00, 0x00, 0x00,
  0x00, 0x00, 0x00, 0x00, 0x00, 0x00, 0x00, 0x00, 0x00, 0x00, 0x00, 0x00,
  0x00, 0x00, 0x00, 0x00, 0x00, 0x00, 0x00, 0x00, 0x04, 0x00, 0x00, 0x00,
  0x20, 0x28, 0x3a, 0x3b, 0xff, 0x62, 0x1c, 0x3b, 0x9a, 0xaf, 0x13, 0x3b,
  0x4b, 0xf5, 0x39, 0x3b, 0x28, 0x00, 0x00, 0x00, 0x73, 0x65, 0x71, 0x75,
  0x65, 0x6e, 0x74, 0x69, 0x61, 0x6c, 0x2f, 0x63, 0x6f, 0x6e, 0x76, 0x32,
  0x64, 0x2f, 0x42, 0x69, 0x61, 0x73, 0x41, 0x64, 0x64, 0x2f, 0x52, 0x65,
  0x61, 0x64, 0x56, 0x61, 0x72, 0x69, 0x61, 0x62, 0x6c, 0x65, 0x4f, 0x70,
  0x00, 0x00, 0x00, 0x00, 0x01, 0x00, 0x00, 0x00, 0x04, 0x00, 0x00, 0x00,
  0x26, 0xff, 0xff, 0xff, 0x00, 0x00, 0x00, 0x01, 0x14, 0x00, 0x00, 0x00,
  0x34, 0x00, 0x00, 0x00, 0x04, 0x00, 0x00, 0x00, 0x00, 0x00, 0x00, 0x09,
  0x44, 0x00, 0x00, 0x00, 0x94, 0xfe, 0xff, 0xff, 0x08, 0x00, 0x00, 0x00,
  0x14, 0x00, 0x00, 0x00, 0x01, 0x00, 0x00, 0x00, 0x00, 0x00, 0x00, 0x00,
  0x00, 0x00, 0x00, 0x00, 0x00, 0x00, 0x00, 0x00, 0x01, 0x00, 0x00, 0x00,
  0x38, 0x49, 0x04, 0x3b, 0x17, 0x00, 0x00, 0x00, 0x73, 0x65, 0x71, 0x75,
  0x65, 0x6e, 0x74, 0x69, 0x61, 0x6c, 0x2f, 0x64, 0x65, 0x6e, 0x73, 0x65,
  0x2f, 0x4d, 0x61, 0x74, 0x4d, 0x75, 0x6c, 0x00, 0x02, 0x00, 0x00, 0x00,
  0x03, 0x00, 0x00, 0x00, 0xac, 0x02, 0x00, 0x00, 0x8e, 0xff, 0xff, 0xff,
  0x00, 0x00, 0x00, 0x01, 0x14, 0x00, 0x00, 0x00, 0x30, 0x00, 0x00, 0x00,
  0x03, 0x00, 0x00, 0x00, 0x00, 0x00, 0x00, 0x02, 0x50, 0x00, 0x00, 0x00,
  0xfc, 0xfe, 0xff, 0xff, 0x08, 0x00, 0x00, 0x00, 0x10, 0x00, 0x00, 0x00,
  0x01, 0x00, 0x00, 0x00, 0x00, 0x00, 0x00, 0x00, 0x00, 0x00, 0x00, 0x00,
  0x01, 0x00, 0x00, 0x00, 0x6c, 0x87, 0x92, 0x3a, 0x27, 0x00, 0x00, 0x00,
  0x73, 0x65, 0x71, 0x75, 0x65, 0x6e, 0x74, 0x69, 0x61, 0x6c, 0x2f, 0x64,
  0x65, 0x6e, 0x73, 0x65, 0x2f, 0x42, 0x69, 0x61, 0x73, 0x41, 0x64, 0x64,
  0x2f, 0x52, 0x65, 0x61, 0x64, 0x56, 0x61, 0x72, 0x69, 0x61, 0x62, 0x6c,
  0x65, 0x4f, 0x70, 0x00, 0x01, 0x00, 0x00, 0x00, 0x03, 0x00, 0x00, 0x00,
  0x00, 0x00, 0x16, 0x00, 0x1c, 0x00, 0x18, 0x00, 0x17, 0x00, 0x10, 0x00,
  0x0c, 0x00, 0x08, 0x00, 0x00, 0x00, 0x00, 0x00, 0x00, 0x00, 0x07, 0x00,
  0x16, 0x00, 0x00, 0x00, 0x00, 0x00, 0x00, 0x01, 0x18, 0x00, 0x00, 0x00,
  0x18, 0x00, 0x00, 0x00, 0x02, 0x00, 0x00, 0x00, 0x00, 0x00, 0x00, 0x02,
  0x2c, 0x00, 0x00, 0x00, 0x04, 0x00, 0x04, 0x00, 0x04, 0x00, 0x00, 0x00,
  0x18, 0x00, 0x00, 0x00, 0x73, 0x65, 0x71, 0x75, 0x65, 0x6e, 0x74, 0x69,
  0x61, 0x6c, 0x2f, 0x66, 0x6c, 0x61, 0x74, 0x74, 0x65, 0x6e, 0x2f, 0x43,
  0x6f, 0x6e, 0x73, 0x74, 0x00, 0x00, 0x00, 0x00, 0x01, 0x00, 0x00, 0x00,
  0x02, 0x00, 0x00, 0x00, 0x00, 0x00, 0x16, 0x00, 0x20, 0x00, 0x1c, 0x00,
  0x1b, 0x00, 0x14, 0x00, 0x10, 0x00, 0x0c, 0x00, 0x00, 0x00, 0x00, 0x00,
  0x08, 0x00, 0x07, 0x00, 0x16, 0x00, 0x00, 0x00, 0x00, 0x00, 0x00, 0x01,
  0x18, 0x00, 0x00, 0x00, 0x34, 0x00, 0x00, 0x00, 0x54, 0x00, 0x00, 0x00,
  0x01, 0x00, 0x00, 0x00, 0x00, 0x00, 0x00, 0x03, 0x6c, 0x00, 0x00, 0x00,
  0x04, 0x00, 0x00, 0x00, 0xff, 0xff, 0xff, 0xff, 0x28, 0x00, 0x00, 0x00,
  0x28, 0x00, 0x00, 0x00, 0x01, 0x00, 0x00, 0x00, 0x0c, 0x00, 0x0c, 0x00,
  0x00, 0x00, 0x00, 0x00, 0x08, 0x00, 0x04, 0x00, 0x0c, 0x00, 0x00, 0x00,
  0x08, 0x00, 0x00, 0x00, 0x14, 0x00, 0x00, 0x00, 0x01, 0x00, 0x00, 0x00,
  0x00, 0x00, 0x00, 0x00, 0x00, 0x00, 0x00, 0x00, 0x00, 0x00, 0x00, 0x00,
  0x01, 0x00, 0x00, 0x00, 0x00, 0x00, 0x80, 0x3f, 0x1e, 0x00, 0x00, 0x00,
  0x73, 0x65, 0x72, 0x76, 0x69, 0x6e, 0x67, 0x5f, 0x64, 0x65, 0x66, 0x61,
  0x75, 0x6c, 0x74, 0x5f, 0x63, 0x6f, 0x6e, 0x76, 0x32, 0x64, 0x5f, 0x69,
  0x6e, 0x70, 0x75, 0x74, 0x3a, 0x30, 0x00, 0x00, 0x04, 0x00, 0x00, 0x00,
  0x01, 0x00, 0x00, 0x00, 0x28, 0x00, 0x00, 0x00, 0x28, 0x00, 0x00, 0x00,
  0x01, 0x00, 0x00, 0x00, 0x06, 0x00, 0x00, 0x00, 0x7c, 0x00, 0x00, 0x00,
  0x5c, 0x00, 0x00, 0x00, 0x3c, 0x00, 0x00, 0x00, 0x2c, 0x00, 0x00, 0x00,
  0x18, 0x00, 0x00, 0x00, 0x04, 0x00, 0x00, 0x00, 0xc4, 0xff, 0xff, 0xff,
  0x19, 0x00, 0x00, 0x00, 0x02, 0x00, 0x00, 0x00, 0x00, 0x00, 0x00, 0x19,
  0xd4, 0xff, 0xff, 0xff, 0x09, 0x00, 0x00, 0x00, 0x04, 0x00, 0x00, 0x00,
  0x00, 0x00, 0x00, 0x09, 0xc8, 0xff, 0xff, 0xff, 0x16, 0x00, 0x00, 0x00,
  0x00, 0x00, 0x00, 0x16, 0xf0, 0xff, 0xff, 0xff, 0x11, 0x00, 0x00, 0x00,
  0x02, 0x00, 0x00, 0x00, 0x00, 0x00, 0x00, 0x11, 0x0c, 0x00, 0x10, 0x00,
  0x0f, 0x00, 0x00, 0x00, 0x08, 0x00, 0x04, 0x00, 0x0c, 0x00, 0x00, 0x00,
  0x03, 0x00, 0x00, 0x00, 0x03, 0x00, 0x00, 0x00, 0x00, 0x00, 0x00, 0x03,
  0x0c, 0x00, 0x0c, 0x00, 0x0b, 0x00, 0x00, 0x00, 0x00, 0x00, 0x04, 0x00,
  0x0c, 0x00, 0x00, 0x00, 0x72, 0x00, 0x00, 0x00, 0x00, 0x00, 0x00, 0x72
 
};

#endif //MODEL.H_H