#ifndef MODEL_H
#define MODEL_H


unsigned int model_len = 5088;
unsigned char model_arr[] = {
 0x1c, 0x00, 0x00, 0x00, 0x54, 0x46, 0x4c, 0x33, 0x14, 0x00, 0x20, 0x00,
  0x1c, 0x00, 0x18, 0x00, 0x14, 0x00, 0x10, 0x00, 0x0c, 0x00, 0x00, 0x00,
  0x08, 0x00, 0x04, 0x00, 0x14, 0x00, 0x00, 0x00, 0x1c, 0x00, 0x00, 0x00,
  0x8c, 0x00, 0x00, 0x00, 0xe4, 0x00, 0x00, 0x00, 0x44, 0x08, 0x00, 0x00,
  0x54, 0x08, 0x00, 0x00, 0x0c, 0x13, 0x00, 0x00, 0x03, 0x00, 0x00, 0x00,
  0x01, 0x00, 0x00, 0x00, 0x04, 0x00, 0x00, 0x00, 0xd6, 0xf6, 0xff, 0xff,
  0x0c, 0x00, 0x00, 0x00, 0x1c, 0x00, 0x00, 0x00, 0x3c, 0x00, 0x00, 0x00,
  0x0f, 0x00, 0x00, 0x00, 0x73, 0x65, 0x72, 0x76, 0x69, 0x6e, 0x67, 0x5f,
  0x64, 0x65, 0x66, 0x61, 0x75, 0x6c, 0x74, 0x00, 0x01, 0x00, 0x00, 0x00,
  0x04, 0x00, 0x00, 0x00, 0x90, 0xff, 0xff, 0xff, 0x0c, 0x00, 0x00, 0x00,
  0x04, 0x00, 0x00, 0x00, 0x0b, 0x00, 0x00, 0x00, 0x71, 0x75, 0x61, 0x6e,
  0x74, 0x5f, 0x64, 0x65, 0x6e, 0x73, 0x65, 0x00, 0x01, 0x00, 0x00, 0x00,
  0x04, 0x00, 0x00, 0x00, 0x7a, 0xf7, 0xff, 0xff, 0x04, 0x00, 0x00, 0x00,
  0x0c, 0x00, 0x00, 0x00, 0x63, 0x6f, 0x6e, 0x76, 0x32, 0x64, 0x5f, 0x69,
  0x6e, 0x70, 0x75, 0x74, 0x00, 0x00, 0x00, 0x00, 0x02, 0x00, 0x00, 0x00,
  0x34, 0x00, 0x00, 0x00, 0x04, 0x00, 0x00, 0x00, 0xdc, 0xff, 0xff, 0xff,
  0x0f, 0x00, 0x00, 0x00, 0x04, 0x00, 0x00, 0x00, 0x13, 0x00, 0x00, 0x00,
  0x43, 0x4f, 0x4e, 0x56, 0x45, 0x52, 0x53, 0x49, 0x4f, 0x4e, 0x5f, 0x4d,
  0x45, 0x54, 0x41, 0x44, 0x41, 0x54, 0x41, 0x00, 0x08, 0x00, 0x0c, 0x00,
  0x08, 0x00, 0x04, 0x00, 0x08, 0x00, 0x00, 0x00, 0x0e, 0x00, 0x00, 0x00,
  0x04, 0x00, 0x00, 0x00, 0x13, 0x00, 0x00, 0x00, 0x6d, 0x69, 0x6e, 0x5f,
  0x72, 0x75, 0x6e, 0x74, 0x69, 0x6d, 0x65, 0x5f, 0x76, 0x65, 0x72, 0x73,
  0x69, 0x6f, 0x6e, 0x00, 0x10, 0x00, 0x00, 0x00, 0x5c, 0x07, 0x00, 0x00,
  0x54, 0x07, 0x00, 0x00, 0x3c, 0x07, 0x00, 0x00, 0x20, 0x07, 0x00, 0x00,
  0x04, 0x07, 0x00, 0x00, 0xfc, 0x06, 0x00, 0x00, 0xd0, 0x06, 0x00, 0x00,
  0xc8, 0x06, 0x00, 0x00, 0xc0, 0x06, 0x00, 0x00, 0xb8, 0x06, 0x00, 0x00,
  0xa4, 0x00, 0x00, 0x00, 0x9c, 0x00, 0x00, 0x00, 0x94, 0x00, 0x00, 0x00,
  0x8c, 0x00, 0x00, 0x00, 0x6c, 0x00, 0x00, 0x00, 0x04, 0x00, 0x00, 0x00,
  0x36, 0xf8, 0xff, 0xff, 0x04, 0x00, 0x00, 0x00, 0x58, 0x00, 0x00, 0x00,
  0x0c, 0x00, 0x00, 0x00, 0x08, 0x00, 0x0e, 0x00, 0x08, 0x00, 0x04, 0x00,
  0x08, 0x00, 0x00, 0x00, 0x10, 0x00, 0x00, 0x00, 0x28, 0x00, 0x00, 0x00,
  0x00, 0x00, 0x06, 0x00, 0x08, 0x00, 0x04, 0x00, 0x06, 0x00, 0x00, 0x00,
  0x04, 0x00, 0x00, 0x00, 0x01, 0x00, 0x00, 0x00, 0xd0, 0x07, 0x00, 0x00,
  0x00, 0x00, 0x0a, 0x00, 0x10, 0x00, 0x0c, 0x00, 0x08, 0x00, 0x04, 0x00,
  0x0a, 0x00, 0x00, 0x00, 0x02, 0x00, 0x00, 0x00, 0x02, 0x00, 0x00, 0x00,
  0x04, 0x00, 0x00, 0x00, 0x06, 0x00, 0x00, 0x00, 0x32, 0x2e, 0x31, 0x35,
  0x2e, 0x30, 0x00, 0x00, 0x9a, 0xf8, 0xff, 0xff, 0x04, 0x00, 0x00, 0x00,
  0x10, 0x00, 0x00, 0x00, 0x31, 0x2e, 0x31, 0x34, 0x2e, 0x30, 0x00, 0x00,
  0x00, 0x00, 0x00, 0x00, 0x00, 0x00, 0x00, 0x00, 0xd0, 0xee, 0xff, 0xff,
  0xd4, 0xee, 0xff, 0xff, 0xd8, 0xee, 0xff, 0xff, 0xc2, 0xf8, 0xff, 0xff,
  0x04, 0x00, 0x00, 0x00, 0x03, 0x06, 0x00, 0x00, 0xd2, 0x57, 0xba, 0x00,
  0xcf, 0xd7, 0xf3, 0xd7, 0xda, 0xec, 0x0e, 0xcd, 0x24, 0xec, 0x07, 0x22,
  0x69, 0xc2, 0xdc, 0xe5, 0xa7, 0x03, 0xf5, 0xcf, 0x32, 0x23, 0x09, 0x11,
  0x0f, 0xc7, 0x20, 0xcc, 0x07, 0x15, 0x16, 0xf2, 0xe1, 0xf2, 0xe8, 0xeb,
  0xd3, 0x0a, 0xcc, 0x03, 0xfc, 0xce, 0x41, 0xff, 0x14, 0x15, 0x1b, 0xfb,
  0x2f, 0x14, 0xce, 0x15, 0xf6, 0xf8, 0xa5, 0xfd, 0x23, 0xb8, 0xdd, 0x3b,
  0x20, 0xda, 0xea, 0xf6, 0xdb, 0xe8, 0xd5, 0xe5, 0x00, 0xf0, 0xa2, 0xe6,
  0xc1, 0x0d, 0xc9, 0x20, 0xbe, 0xec, 0x48, 0xc8, 0xcf, 0x21, 0xb3, 0x29,
  0xef, 0xbe, 0xe3, 0xad, 0xcc, 0xcf, 0x24, 0x00, 0x1a, 0xd0, 0xff, 0x0e,
  0xe7, 0xfe, 0x04, 0xe6, 0x10, 0xd9, 0x21, 0x12, 0x17, 0x4d, 0xff, 0xd5,
  0x13, 0x18, 0x1d, 0xbb, 0x0a, 0x2d, 0xdb, 0xf9, 0xd0, 0xd9, 0xf0, 0xe6,
  0xd0, 0xcc, 0xfd, 0x15, 0xf7, 0x03, 0xef, 0xc1, 0x27, 0x29, 0xc9, 0xed,
  0xfd, 0x03, 0xdb, 0x2d, 0x16, 0x0f, 0xac, 0xc1, 0x21, 0xd2, 0x12, 0x10,
  0xc6, 0xdd, 0x14, 0xf8, 0xd4, 0xe2, 0xbe, 0x1f, 0xe2, 0xcd, 0xee, 0xfe,
  0xd9, 0xf9, 0x05, 0xdb, 0xf2, 0xe1, 0xa4, 0xb6, 0x32, 0x9f, 0xf0, 0xfb,
  0xad, 0x17, 0xd7, 0xd9, 0x11, 0xce, 0xc8, 0xd6, 0xff, 0x58, 0xe1, 0xf7,
  0xc2, 0xcd, 0x35, 0x01, 0x0d, 0xf2, 0xcb, 0x11, 0x13, 0x37, 0xea, 0x18,
  0xf1, 0xda, 0x31, 0xf9, 0xb4, 0xe1, 0x23, 0xec, 0x27, 0x0f, 0xd2, 0xeb,
  0x14, 0xe0, 0x0d, 0x99, 0x01, 0xf8, 0xe9, 0xe1, 0x17, 0x0e, 0x02, 0x1a,
  0xe5, 0xec, 0x14, 0xd5, 0x27, 0x14, 0xc3, 0x11, 0xef, 0x00, 0xd1, 0x18,
  0xd5, 0xed, 0xdc, 0x40, 0xfc, 0xc0, 0xa7, 0xf2, 0x25, 0xd5, 0xb9, 0x28,
  0x2e, 0xc8, 0x15, 0xcf, 0x21, 0x2a, 0xf9, 0xf3, 0x0d, 0x0f, 0xd0, 0xe2,
  0xed, 0xf9, 0x10, 0xe8, 0x16, 0x10, 0x2f, 0x26, 0x24, 0xc4, 0xc0, 0x18,
  0x5a, 0xb7, 0xe9, 0x2e, 0x0f, 0xe6, 0xe8, 0xe8, 0xf1, 0xf0, 0xb9, 0xd6,
  0xca, 0xef, 0x0e, 0xe6, 0xe3, 0x0a, 0xf7, 0xe4, 0xfe, 0xff, 0xd5, 0x29,
  0x81, 0xb0, 0xff, 0x6d, 0xfb, 0xfb, 0xd8, 0xe9, 0xea, 0xd8, 0xbd, 0x0a,
  0xc1, 0x11, 0xf9, 0x12, 0xdc, 0x35, 0x25, 0xd4, 0x08, 0xc9, 0xdc, 0xfd,
  0x79, 0xf6, 0xfd, 0xca, 0xdd, 0x24, 0x75, 0xf2, 0xca, 0xd7, 0xe0, 0x30,
  0xd0, 0xc1, 0xf5, 0x10, 0x03, 0x31, 0x1e, 0xe3, 0x1d, 0x05, 0x01, 0xfb,
  0xe4, 0x05, 0x19, 0xd9, 0x0e, 0x02, 0x20, 0x1d, 0xd0, 0xfd, 0xca, 0xcc,
  0xce, 0x01, 0x0f, 0x9e, 0x20, 0x0c, 0xe2, 0xb4, 0xeb, 0xcb, 0x21, 0x22,
  0x15, 0xc9, 0xee, 0xec, 0x17, 0xe3, 0xc4, 0xc7, 0x10, 0x2d, 0xd9, 0x16,
  0xfb, 0x08, 0x1e, 0xb5, 0xfb, 0xe8, 0x98, 0xee, 0xd8, 0x29, 0x10, 0xee,
  0xab, 0xc5, 0x1d, 0xcc, 0x23, 0x02, 0xcc, 0xc8, 0xff, 0xec, 0x00, 0xdd,
  0xae, 0xd0, 0x23, 0xb1, 0xb1, 0x13, 0xc7, 0x1e, 0xd2, 0x10, 0xf3, 0x1a,
  0xd4, 0x0b, 0xd4, 0xdc, 0xdf, 0x19, 0xcd, 0xbb, 0xd6, 0xcb, 0x16, 0x26,
  0xce, 0xf7, 0x06, 0xf0, 0x20, 0xe8, 0xd9, 0xec, 0xe8, 0xdc, 0xbf, 0x23,
  0xf0, 0xf4, 0x25, 0xba, 0xca, 0x32, 0xd8, 0x08, 0xd0, 0xc6, 0x1a, 0x2b,
  0xfe, 0xe4, 0xe5, 0xfc, 0x10, 0xfb, 0x38, 0xef, 0xdd, 0xc1, 0xc1, 0x24,
  0x1c, 0x17, 0x2e, 0xfc, 0xf5, 0xd0, 0xfb, 0xf3, 0x14, 0xd5, 0xca, 0x1a,
  0xcb, 0x22, 0xd9, 0x1d, 0xf7, 0x22, 0x09, 0x12, 0xec, 0xe4, 0x08, 0xe5,
  0x1b, 0xbe, 0x05, 0x04, 0xde, 0xd7, 0x10, 0xda, 0x22, 0xd4, 0xc8, 0x27,
  0xd5, 0xbe, 0xd8, 0x35, 0xd4, 0xd4, 0xef, 0xe4, 0xf8, 0xc9, 0xde, 0xdc,
  0xe1, 0xb0, 0xdc, 0x57, 0xc9, 0x14, 0x2d, 0xcf, 0xdb, 0x9e, 0x13, 0xc6,
  0x0d, 0x0f, 0xf8, 0x45, 0x28, 0x15, 0x30, 0x01, 0x34, 0xbf, 0x03, 0x14,
  0xf2, 0x2c, 0xfa, 0x01, 0xea, 0x15, 0x1f, 0x1f, 0x2f, 0xed, 0xf5, 0x2c,
  0xef, 0x0d, 0xfa, 0xf5, 0x28, 0xfc, 0x09, 0x2f, 0xed, 0x26, 0xf4, 0x23,
  0xaf, 0x14, 0x1f, 0xcd, 0xf2, 0xc7, 0xf7, 0xba, 0xcb, 0xfd, 0x24, 0x14,
  0xbd, 0xcb, 0xea, 0x29, 0xd7, 0xd7, 0xb0, 0xe6, 0x10, 0xf5, 0xff, 0x08,
  0x55, 0xde, 0x21, 0xde, 0xdd, 0x36, 0x9e, 0xf0, 0xe0, 0xc3, 0x1b, 0x0f,
  0xa9, 0x12, 0xef, 0xa9, 0xf5, 0xd9, 0x58, 0x00, 0x07, 0xab, 0xf0, 0x0e,
  0x12, 0xee, 0x0c, 0xe1, 0xfd, 0x1d, 0xc7, 0x1d, 0xda, 0x2d, 0x14, 0xfe,
  0xe5, 0xfe, 0xe8, 0x12, 0x0d, 0x0a, 0x41, 0xe2, 0xcc, 0x39, 0x2f, 0xe8,
  0xb8, 0xb5, 0x1c, 0x0c, 0x11, 0x2a, 0xc2, 0x05, 0xec, 0xca, 0x10, 0x06,
  0x6f, 0xe4, 0x14, 0x04, 0x1e, 0xdf, 0xfa, 0xf7, 0x1d, 0xd7, 0xca, 0x12,
  0xe2, 0x35, 0x20, 0xa1, 0xd8, 0x0a, 0xd8, 0x01, 0xd5, 0xaa, 0x07, 0x10,
  0xda, 0xd3, 0xfc, 0xae, 0xc5, 0xfb, 0xb5, 0xed, 0x2c, 0x12, 0x2c, 0x0d,
  0x5d, 0x14, 0xd1, 0x97, 0xff, 0x18, 0xea, 0x06, 0x2c, 0xd5, 0x1f, 0x13,
  0xf7, 0x15, 0xd3, 0xe5, 0x15, 0x19, 0x12, 0x1e, 0x1c, 0x4f, 0x01, 0x16,
  0xfe, 0x17, 0xd0, 0xf3, 0x25, 0x19, 0xff, 0xea, 0xd3, 0x08, 0x36, 0x21,
  0xfa, 0xde, 0x31, 0x0a, 0xe9, 0xe4, 0xd2, 0x03, 0x11, 0xbd, 0xe0, 0xec,
  0x18, 0xe4, 0xe3, 0xef, 0xeb, 0x12, 0x30, 0x16, 0x1b, 0x13, 0xfa, 0xf8,
  0xea, 0x2c, 0xf0, 0xe3, 0x05, 0xe2, 0xe6, 0x22, 0x1c, 0x1a, 0x02, 0x1d,
  0xae, 0x58, 0xd6, 0xd5, 0xe0, 0xd5, 0x1d, 0x1f, 0xcb, 0xe4, 0x15, 0xe3,
  0x3c, 0x35, 0x25, 0xed, 0x1a, 0x26, 0xd3, 0x38, 0xd0, 0xb9, 0x05, 0xd7,
  0xb5, 0xf3, 0xd3, 0xfc, 0x0d, 0xf8, 0xdb, 0x0b, 0xef, 0xbf, 0x1c, 0x10,
  0x94, 0xc9, 0xdb, 0xe9, 0x01, 0x14, 0xf6, 0x39, 0x27, 0xca, 0x15, 0xfb,
  0x37, 0x07, 0xf5, 0xca, 0x15, 0x1a, 0x02, 0x05, 0x12, 0x34, 0x43, 0x1f,
  0x25, 0xfd, 0xe0, 0xd4, 0xcc, 0x1f, 0x29, 0x1a, 0x14, 0xb2, 0x32, 0x18,
  0xe3, 0xf1, 0x0b, 0xd7, 0x05, 0x14, 0xde, 0xf8, 0x16, 0xe5, 0x35, 0x0a,
  0xc7, 0x2e, 0xfd, 0xfa, 0xcc, 0x09, 0xfb, 0xef, 0x30, 0xb8, 0x39, 0x18,
  0xeb, 0xf0, 0xd0, 0xeb, 0x2b, 0xd6, 0xd3, 0x06, 0xd2, 0xda, 0x3c, 0xd6,
  0x1d, 0x21, 0x0f, 0x01, 0x01, 0xe9, 0xe6, 0xdf, 0x2f, 0xfd, 0xe4, 0x1f,
  0xd3, 0xe6, 0xdc, 0x22, 0xf4, 0x01, 0xd2, 0x1c, 0x36, 0x08, 0xed, 0xfb,
  0x33, 0x12, 0x32, 0x43, 0x01, 0xf1, 0xf1, 0xed, 0xd0, 0xee, 0xcf, 0xe1,
  0x29, 0xdc, 0x10, 0xed, 0x00, 0xff, 0x10, 0x2f, 0x01, 0x57, 0xf0, 0x29,
  0xd3, 0x26, 0xdd, 0x51, 0x0e, 0x3b, 0x28, 0x0b, 0x00, 0xfa, 0x0f, 0x13,
  0x0e, 0xe6, 0xfe, 0xe1, 0x37, 0xef, 0x45, 0xeb, 0xcc, 0xe7, 0xee, 0x1b,
  0x4d, 0xf0, 0xdc, 0x34, 0x33, 0xda, 0x0a, 0x37, 0xdc, 0x3b, 0xfc, 0x28,
  0xf0, 0xea, 0x09, 0xab, 0x30, 0xbc, 0xe9, 0xdd, 0x13, 0xc6, 0x47, 0x1c,
  0x29, 0xf8, 0x30, 0xcf, 0xff, 0x0e, 0xdd, 0x37, 0xe5, 0x0e, 0x3f, 0x04,
  0xff, 0xef, 0x1a, 0x0f, 0xdd, 0x2a, 0x2e, 0xf6, 0xeb, 0xeb, 0x03, 0xf8,
  0xe2, 0x34, 0x11, 0xe8, 0xfe, 0x19, 0x39, 0x03, 0xf3, 0xc6, 0xd6, 0xf1,
  0x41, 0x50, 0x15, 0xc5, 0x30, 0xe0, 0x0b, 0x18, 0xcc, 0xae, 0xdf, 0x03,
  0xf7, 0x0c, 0xc7, 0x12, 0x40, 0x37, 0x31, 0x29, 0xdc, 0xfe, 0x23, 0x17,
  0xf3, 0x5b, 0x1f, 0x03, 0x00, 0xe5, 0xf4, 0x64, 0xcd, 0x46, 0xfc, 0x19,
  0xdd, 0x33, 0x29, 0xeb, 0x3d, 0x36, 0x13, 0x3e, 0xe9, 0x11, 0x40, 0x01,
  0xe4, 0xf4, 0xe7, 0xa8, 0x03, 0xd0, 0x06, 0x12, 0xeb, 0x3d, 0x17, 0xf6,
  0x02, 0x46, 0xe2, 0xef, 0x10, 0xfa, 0xf2, 0x27, 0x07, 0x16, 0x0f, 0xe7,
  0x3f, 0x19, 0xe4, 0xf0, 0x0c, 0x38, 0xd5, 0x12, 0xd2, 0x05, 0x2f, 0xec,
  0xe5, 0x22, 0x00, 0xf9, 0xee, 0xd1, 0x4e, 0xe5, 0x25, 0x69, 0x05, 0xd7,
  0xaf, 0xf6, 0x02, 0x5b, 0xd8, 0x14, 0xfc, 0xfa, 0x3f, 0x0c, 0x25, 0x31,
  0xe5, 0xee, 0x0d, 0x73, 0xed, 0x13, 0x2d, 0x26, 0xf9, 0x03, 0x04, 0xdf,
  0xf6, 0xf3, 0x05, 0x00, 0xd8, 0xeb, 0x5c, 0x1b, 0x2b, 0xdc, 0x00, 0xf2,
  0xf5, 0x00, 0x2b, 0x3b, 0x4e, 0xfa, 0xbc, 0xd0, 0xea, 0x38, 0xdb, 0xdd,
  0x19, 0xff, 0xe8, 0xae, 0x1e, 0xea, 0x15, 0xaa, 0x1c, 0x21, 0xe6, 0xef,
  0x01, 0x20, 0x2b, 0x3a, 0xfc, 0xf2, 0xfe, 0xf7, 0x01, 0xf8, 0x07, 0x15,
  0xff, 0x1d, 0x29, 0xee, 0x15, 0x10, 0xdc, 0x05, 0x14, 0x02, 0xe0, 0x00,
  0x19, 0x00, 0x41, 0xfd, 0xe8, 0x09, 0x5b, 0x19, 0xec, 0x30, 0xff, 0xea,
  0x30, 0xff, 0x30, 0x1d, 0x1c, 0xde, 0x24, 0x4e, 0x37, 0xe2, 0xe4, 0xfd,
  0x07, 0xdf, 0x22, 0x16, 0x5f, 0xfe, 0xfb, 0x1a, 0xe2, 0x39, 0x3b, 0xd8,
  0xb2, 0x06, 0x30, 0x0c, 0xee, 0x17, 0xa3, 0xef, 0x31, 0xd2, 0x0f, 0xfc,
  0x27, 0x15, 0x14, 0x0d, 0xf6, 0x13, 0xdb, 0xff, 0x0d, 0x2f, 0xd4, 0x22,
  0x1c, 0xf0, 0x1d, 0x5a, 0xfc, 0xf4, 0xc2, 0xf2, 0xf8, 0x8d, 0x15, 0xff,
  0x1d, 0xec, 0x24, 0xbc, 0x09, 0xf3, 0xe4, 0x1e, 0x1f, 0x1c, 0x2c, 0xe5,
  0x24, 0xcf, 0x0f, 0xd9, 0xd3, 0x0d, 0x1b, 0x31, 0x1b, 0xef, 0xde, 0xcb,
  0x2a, 0xdf, 0xd0, 0x1d, 0x02, 0x23, 0x49, 0xdb, 0xd6, 0xbd, 0xd7, 0xf3,
  0xea, 0xf4, 0x2b, 0xf7, 0x14, 0xed, 0x33, 0xde, 0x23, 0x1b, 0xd6, 0xd8,
  0xdb, 0xe9, 0x06, 0xf2, 0xc6, 0xe3, 0x11, 0x3d, 0xd0, 0x06, 0x48, 0x21,
  0x30, 0xf3, 0x28, 0x38, 0xef, 0x14, 0x26, 0x32, 0x1f, 0x18, 0x1c, 0xe0,
  0x10, 0x11, 0x1d, 0x46, 0xe6, 0x17, 0xcd, 0xf7, 0x04, 0xfd, 0xe9, 0x34,
  0x3a, 0xfb, 0xce, 0x29, 0xed, 0x28, 0x52, 0xda, 0xdf, 0x17, 0xfc, 0x0f,
  0xec, 0x49, 0xf8, 0x0a, 0xf0, 0xe0, 0xae, 0x14, 0x03, 0x32, 0xf7, 0xe5,
  0xfd, 0x25, 0xda, 0x15, 0xf1, 0xf1, 0x79, 0x23, 0x0c, 0x30, 0xf7, 0xd1,
  0x13, 0x2c, 0xf8, 0xfc, 0x09, 0x1c, 0xb8, 0x0a, 0x18, 0x1d, 0xe8, 0x02,
  0x05, 0x1b, 0xe8, 0x29, 0xf5, 0xe4, 0x6a, 0x4b, 0x27, 0xe8, 0x44, 0x18,
  0xb7, 0x10, 0x0c, 0x36, 0x15, 0x21, 0x1b, 0x27, 0x28, 0xad, 0x11, 0x10,
  0xc5, 0xc2, 0xde, 0x2c, 0xc1, 0x23, 0x07, 0x1b, 0xff, 0xe8, 0xdb, 0xce,
  0xf5, 0xe5, 0xf2, 0x13, 0x21, 0xe8, 0xd1, 0xd4, 0xed, 0x2e, 0xef, 0xef,
  0xc5, 0xb0, 0xfd, 0xc8, 0x12, 0x1f, 0xf4, 0x0f, 0xf2, 0x20, 0xe6, 0x23,
  0x0b, 0x0c, 0x23, 0xad, 0x03, 0x0b, 0x29, 0x3c, 0xef, 0xdb, 0x20, 0xdb,
  0x0e, 0x0e, 0xf8, 0x14, 0x14, 0x0d, 0xb4, 0xf2, 0xd9, 0xc3, 0xd6, 0xf6,
  0xf5, 0xec, 0xd4, 0xd8, 0x36, 0x1b, 0xe2, 0xf4, 0xd5, 0xf5, 0xf1, 0xe4,
  0x33, 0xf0, 0xd1, 0x26, 0xde, 0x2f, 0xd4, 0xeb, 0x18, 0x19, 0xcc, 0x37,
  0x17, 0xdc, 0x0a, 0x0c, 0x00, 0xdc, 0xda, 0xfb, 0x03, 0xd0, 0x23, 0x1e,
  0xc3, 0xea, 0x38, 0xe1, 0x1a, 0x05, 0x2d, 0x0d, 0x13, 0xd5, 0xf9, 0x33,
  0x65, 0xdc, 0x3e, 0xf5, 0xf3, 0xf3, 0xb7, 0xe8, 0x0c, 0xeb, 0x23, 0x1e,
  0xc9, 0xd1, 0x25, 0xde, 0xfb, 0xd5, 0xcc, 0x96, 0x2a, 0x1a, 0xc7, 0xdc,
  0x04, 0xfa, 0x05, 0x3a, 0x08, 0xd0, 0xbb, 0xbc, 0xdf, 0x8a, 0xcd, 0x00,
  0xec, 0xf4, 0xff, 0xff, 0xf0, 0xf4, 0xff, 0xff, 0xf4, 0xf4, 0xff, 0xff,
  0xde, 0xfe, 0xff, 0xff, 0x04, 0x00, 0x00, 0x00, 0x1b, 0x00, 0x00, 0x00,
  0xe5, 0xfd, 0xd0, 0x03, 0xdc, 0xa0, 0xbf, 0x7f, 0x3e, 0xe7, 0x81, 0x39,
  0x3c, 0xf3, 0xcc, 0xd9, 0xfa, 0xdc, 0xa1, 0xdf, 0x7f, 0x76, 0x90, 0xaa,
  0x1d, 0x4a, 0x8c, 0x00, 0x20, 0xf5, 0xff, 0xff, 0x0a, 0xff, 0xff, 0xff,
  0x04, 0x00, 0x00, 0x00, 0x0c, 0x00, 0x00, 0x00, 0xd7, 0x07, 0x00, 0x00,
  0x49, 0xf6, 0xff, 0xff, 0x4b, 0x05, 0x00, 0x00, 0x22, 0xff, 0xff, 0xff,
  0x04, 0x00, 0x00, 0x00, 0x0c, 0x00, 0x00, 0x00, 0xb1, 0xff, 0xff, 0xff,
  0x3f, 0x00, 0x00, 0x00, 0x03, 0x00, 0x00, 0x00, 0x3a, 0xff, 0xff, 0xff,
  0x04, 0x00, 0x00, 0x00, 0x08, 0x00, 0x00, 0x00, 0xff, 0xff, 0xff, 0xff,
  0x01, 0x02, 0x00, 0x00, 0x68, 0xf5, 0xff, 0xff, 0x6c, 0xf5, 0xff, 0xff,
  0x0f, 0x00, 0x00, 0x00, 0x4d, 0x4c, 0x49, 0x52, 0x20, 0x43, 0x6f, 0x6e,
  0x76, 0x65, 0x72, 0x74, 0x65, 0x64, 0x2e, 0x00, 0x01, 0x00, 0x00, 0x00,
  0x14, 0x00, 0x00, 0x00, 0x00, 0x00, 0x0e, 0x00, 0x18, 0x00, 0x14, 0x00,
  0x10, 0x00, 0x0c, 0x00, 0x08, 0x00, 0x04, 0x00, 0x0e, 0x00, 0x00, 0x00,
  0x14, 0x00, 0x00, 0x00, 0x1c, 0x00, 0x00, 0x00, 0xcc, 0x01, 0x00, 0x00,
  0xd0, 0x01, 0x00, 0x00, 0xd4, 0x01, 0x00, 0x00, 0x04, 0x00, 0x00, 0x00,
  0x6d, 0x61, 0x69, 0x6e, 0x00, 0x00, 0x00, 0x00, 0x07, 0x00, 0x00, 0x00,
  0x94, 0x01, 0x00, 0x00, 0x34, 0x01, 0x00, 0x00, 0xd0, 0x00, 0x00, 0x00,
  0xa8, 0x00, 0x00, 0x00, 0x64, 0x00, 0x00, 0x00, 0x28, 0x00, 0x00, 0x00,
  0x04, 0x00, 0x00, 0x00, 0x72, 0xff, 0xff, 0xff, 0x0c, 0x00, 0x00, 0x00,
  0x10, 0x00, 0x00, 0x00, 0x06, 0x00, 0x00, 0x00, 0x01, 0x00, 0x00, 0x00,
  0x0c, 0x00, 0x00, 0x00, 0x01, 0x00, 0x00, 0x00, 0x0b, 0x00, 0x00, 0x00,
  0x12, 0xff, 0xff, 0xff, 0x1c, 0x00, 0x00, 0x00, 0x00, 0x00, 0x00, 0x09,
  0x1c, 0x00, 0x00, 0x00, 0x20, 0x00, 0x00, 0x00, 0x05, 0x00, 0x00, 0x00,
  0x00, 0x00, 0x06, 0x00, 0x08, 0x00, 0x04, 0x00, 0x06, 0x00, 0x00, 0x00,
  0x00, 0x00, 0x80, 0x3f, 0x01, 0x00, 0x00, 0x00, 0x0b, 0x00, 0x00, 0x00,
  0x01, 0x00, 0x00, 0x00, 0x0a, 0x00, 0x00, 0x00, 0x4a, 0xff, 0xff, 0xff,
  0x14, 0x00, 0x00, 0x00, 0x00, 0x00, 0x00, 0x08, 0x10, 0x00, 0x00, 0x00,
  0x14, 0x00, 0x00, 0x00, 0x04, 0x00, 0x00, 0x00, 0x50, 0xf6, 0xff, 0xff,
  0x01, 0x00, 0x00, 0x00, 0x0a, 0x00, 0x00, 0x00, 0x03, 0x00, 0x00, 0x00,
  0x08, 0x00, 0x00, 0x00, 0x09, 0x00, 0x00, 0x00, 0x03, 0x00, 0x00, 0x00,
  0x00, 0x00, 0x0a, 0x00, 0x10, 0x00, 0x0c, 0x00, 0x08, 0x00, 0x04, 0x00,
  0x0a, 0x00, 0x00, 0x00, 0x0c, 0x00, 0x00, 0x00, 0x10, 0x00, 0x00, 0x00,
  0x03, 0x00, 0x00, 0x00, 0x01, 0x00, 0x00, 0x00, 0x08, 0x00, 0x00, 0x00,
  0x02, 0x00, 0x00, 0x00, 0x07, 0x00, 0x00, 0x00, 0x01, 0x00, 0x00, 0x00,
  0xae, 0xff, 0xff, 0xff, 0x24, 0x00, 0x00, 0x00, 0x00, 0x00, 0x00, 0x05,
  0x34, 0x00, 0x00, 0x00, 0x38, 0x00, 0x00, 0x00, 0x02, 0x00, 0x00, 0x00,
  0x00, 0x00, 0x0e, 0x00, 0x18, 0x00, 0x17, 0x00, 0x10, 0x00, 0x0c, 0x00,
  0x08, 0x00, 0x04, 0x00, 0x0e, 0x00, 0x00, 0x00, 0x02, 0x00, 0x00, 0x00,
  0x04, 0x00, 0x00, 0x00, 0x02, 0x00, 0x00, 0x00, 0x04, 0x00, 0x00, 0x00,
  0x00, 0x00, 0x00, 0x01, 0x01, 0x00, 0x00, 0x00, 0x07, 0x00, 0x00, 0x00,
  0x01, 0x00, 0x00, 0x00, 0x06, 0x00, 0x00, 0x00, 0x00, 0x00, 0x0e, 0x00,
  0x18, 0x00, 0x14, 0x00, 0x10, 0x00, 0x0c, 0x00, 0x0b, 0x00, 0x04, 0x00,
  0x0e, 0x00, 0x00, 0x00, 0x20, 0x00, 0x00, 0x00, 0x00, 0x00, 0x00, 0x01,
  0x2c, 0x00, 0x00, 0x00, 0x30, 0x00, 0x00, 0x00, 0x01, 0x00, 0x00, 0x00,
  0x0c, 0x00, 0x14, 0x00, 0x13, 0x00, 0x0c, 0x00, 0x08, 0x00, 0x07, 0x00,
  0x0c, 0x00, 0x00, 0x00, 0x00, 0x00, 0x00, 0x01, 0x01, 0x00, 0x00, 0x00,
  0x01, 0x00, 0x00, 0x00, 0x00, 0x00, 0x00, 0x01, 0x01, 0x00, 0x00, 0x00,
  0x06, 0x00, 0x00, 0x00, 0x03, 0x00, 0x00, 0x00, 0x04, 0x00, 0x00, 0x00,
  0x05, 0x00, 0x00, 0x00, 0x02, 0x00, 0x00, 0x00, 0x00, 0x00, 0x0a, 0x00,
  0x0c, 0x00, 0x00, 0x00, 0x08, 0x00, 0x04, 0x00, 0x0a, 0x00, 0x00, 0x00,
  0x08, 0x00, 0x00, 0x00, 0x0c, 0x00, 0x00, 0x00, 0x01, 0x00, 0x00, 0x00,
  0x04, 0x00, 0x00, 0x00, 0x01, 0x00, 0x00, 0x00, 0x00, 0x00, 0x00, 0x00,
  0x01, 0x00, 0x00, 0x00, 0x0c, 0x00, 0x00, 0x00, 0x01, 0x00, 0x00, 0x00,
  0x00, 0x00, 0x00, 0x00, 0x0d, 0x00, 0x00, 0x00, 0x48, 0x08, 0x00, 0x00,
  0xe0, 0x07, 0x00, 0x00, 0x28, 0x07, 0x00, 0x00, 0xa8, 0x06, 0x00, 0x00,
  0x4c, 0x05, 0x00, 0x00, 0x58, 0x04, 0x00, 0x00, 0x5c, 0x03, 0x00, 0x00,
  0xc0, 0x02, 0x00, 0x00, 0x3c, 0x02, 0x00, 0x00, 0x94, 0x01, 0x00, 0x00,
  0xe4, 0x00, 0x00, 0x00, 0x60, 0x00, 0x00, 0x00, 0x04, 0x00, 0x00, 0x00,
  0x02, 0xf8, 0xff, 0xff, 0x00, 0x00, 0x00, 0x01, 0x14, 0x00, 0x00, 0x00,
  0x1c, 0x00, 0x00, 0x00, 0x1c, 0x00, 0x00, 0x00, 0x0d, 0x00, 0x00, 0x00,
  0x34, 0x00, 0x00, 0x00, 0x02, 0x00, 0x00, 0x00, 0xff, 0xff, 0xff, 0xff,
  0x03, 0x00, 0x00, 0x00, 0xe4, 0xf7, 0xff, 0xff, 0x19, 0x00, 0x00, 0x00,
  0x53, 0x74, 0x61, 0x74, 0x65, 0x66, 0x75, 0x6c, 0x50, 0x61, 0x72, 0x74,
  0x69, 0x74, 0x69, 0x6f, 0x6e, 0x65, 0x64, 0x43, 0x61, 0x6c, 0x6c, 0x3a,
  0x30, 0x00, 0x00, 0x00, 0x02, 0x00, 0x00, 0x00, 0x01, 0x00, 0x00, 0x00,
  0x03, 0x00, 0x00, 0x00, 0x46, 0xfb, 0xff, 0xff, 0x00, 0x00, 0x00, 0x01,
  0x18, 0x00, 0x00, 0x00, 0x20, 0x00, 0x00, 0x00, 0x40, 0x00, 0x00, 0x00,
  0x0c, 0x00, 0x00, 0x00, 0x00, 0x00, 0x00, 0x09, 0x58, 0x00, 0x00, 0x00,
  0x02, 0x00, 0x00, 0x00, 0xff, 0xff, 0xff, 0xff, 0x03, 0x00, 0x00, 0x00,
  0x6c, 0xf9, 0xff, 0xff, 0x08, 0x00, 0x00, 0x00, 0x14, 0x00, 0x00, 0x00,
  0x01, 0x00, 0x00, 0x00, 0x80, 0xff, 0xff, 0xff, 0xff, 0xff, 0xff, 0xff,
  0x00, 0x00, 0x00, 0x00, 0x01, 0x00, 0x00, 0x00, 0x00, 0x00, 0x80, 0x3b,
  0x1e, 0x00, 0x00, 0x00, 0x73, 0x65, 0x71, 0x75, 0x65, 0x6e, 0x74, 0x69,
  0x61, 0x6c, 0x2f, 0x71, 0x75, 0x61, 0x6e, 0x74, 0x5f, 0x64, 0x65, 0x6e,
  0x73, 0x65, 0x2f, 0x53, 0x6f, 0x66, 0x74, 0x6d, 0x61, 0x78, 0x00, 0x00,
  0x02, 0x00, 0x00, 0x00, 0x01, 0x00, 0x00, 0x00, 0x03, 0x00, 0x00, 0x00,
  0xc6, 0xfb, 0xff, 0xff, 0x00, 0x00, 0x00, 0x01, 0x18, 0x00, 0x00, 0x00,
  0x20, 0x00, 0x00, 0x00, 0x3c, 0x00, 0x00, 0x00, 0x0b, 0x00, 0x00, 0x00,
  0x00, 0x00, 0x00, 0x09, 0x74, 0x00, 0x00, 0x00, 0x02, 0x00, 0x00, 0x00,
  0xff, 0xff, 0xff, 0xff, 0x03, 0x00, 0x00, 0x00, 0xec, 0xf9, 0xff, 0xff,
  0x08, 0x00, 0x00, 0x00, 0x10, 0x00, 0x00, 0x00, 0x01, 0x00, 0x00, 0x00,
  0x00, 0x00, 0x00, 0x00, 0x00, 0x00, 0x00, 0x00, 0x01, 0x00, 0x00, 0x00,
  0x59, 0x77, 0x41, 0x3d, 0x3c, 0x00, 0x00, 0x00, 0x73, 0x65, 0x71, 0x75,
  0x65, 0x6e, 0x74, 0x69, 0x61, 0x6c, 0x2f, 0x71, 0x75, 0x61, 0x6e, 0x74,
  0x5f, 0x64, 0x65, 0x6e, 0x73, 0x65, 0x2f, 0x4d, 0x61, 0x74, 0x4d, 0x75,
  0x6c, 0x3b, 0x73, 0x65, 0x71, 0x75, 0x65, 0x6e, 0x74, 0x69, 0x61, 0x6c,
  0x2f, 0x71, 0x75, 0x61, 0x6e, 0x74, 0x5f, 0x64, 0x65, 0x6e, 0x73, 0x65,
  0x2f, 0x42, 0x69, 0x61, 0x73, 0x41, 0x64, 0x64, 0x00, 0x00, 0x00, 0x00,
  0x02, 0x00, 0x00, 0x00, 0x01, 0x00, 0x00, 0x00, 0x03, 0x00, 0x00, 0x00,
  0x00, 0x00, 0x0e, 0x00, 0x18, 0x00, 0x14, 0x00, 0x13, 0x00, 0x0c, 0x00,
  0x08, 0x00, 0x04, 0x00, 0x0e, 0x00, 0x00, 0x00, 0x14, 0x00, 0x00, 0x00,
  0x30, 0x00, 0x00, 0x00, 0x0a, 0x00, 0x00, 0x00, 0x00, 0x00, 0x00, 0x09,
  0x84, 0x00, 0x00, 0x00, 0x84, 0xfa, 0xff, 0xff, 0x08, 0x00, 0x00, 0x00,
  0x10, 0x00, 0x00, 0x00, 0x01, 0x00, 0x00, 0x00, 0x00, 0x00, 0x00, 0x00,
  0x00, 0x00, 0x00, 0x00, 0x01, 0x00, 0x00, 0x00, 0x3f, 0x90, 0xf3, 0x3a,
  0x5b, 0x00, 0x00, 0x00, 0x73, 0x65, 0x71, 0x75, 0x65, 0x6e, 0x74, 0x69,
  0x61, 0x6c, 0x2f, 0x71, 0x75, 0x61, 0x6e, 0x74, 0x5f, 0x64, 0x65, 0x6e,
  0x73, 0x65, 0x2f, 0x4d, 0x61, 0x74, 0x4d, 0x75, 0x6c, 0x3b, 0x73, 0x65,
  0x71, 0x75, 0x65, 0x6e, 0x74, 0x69, 0x61, 0x6c, 0x2f, 0x71, 0x75, 0x61,
  0x6e, 0x74, 0x5f, 0x64, 0x65, 0x6e, 0x73, 0x65, 0x2f, 0x4c, 0x61, 0x73,
  0x74, 0x56, 0x61, 0x6c, 0x75, 0x65, 0x51, 0x75, 0x61, 0x6e, 0x74, 0x2f,
  0x46, 0x61, 0x6b, 0x65, 0x51, 0x75, 0x61, 0x6e, 0x74, 0x57, 0x69, 0x74,
  0x68, 0x4d, 0x69, 0x6e, 0x4d, 0x61, 0x78, 0x56, 0x61, 0x72, 0x73, 0x00,
  0x02, 0x00, 0x00, 0x00, 0x03, 0x00, 0x00, 0x00, 0x01, 0x02, 0x00, 0x00,
  0x16, 0xfd, 0xff, 0xff, 0x00, 0x00, 0x00, 0x01, 0x18, 0x00, 0x00, 0x00,
  0x20, 0x00, 0x00, 0x00, 0x3c, 0x00, 0x00, 0x00, 0x09, 0x00, 0x00, 0x00,
  0x00, 0x00, 0x00, 0x09, 0x58, 0x00, 0x00, 0x00, 0x02, 0x00, 0x00, 0x00,
  0xff, 0xff, 0xff, 0xff, 0x01, 0x02, 0x00, 0x00, 0x3c, 0xfb, 0xff, 0xff,
  0x08, 0x00, 0x00, 0x00, 0x10, 0x00, 0x00, 0x00, 0x01, 0x00, 0x00, 0x00,
  0xfd, 0xff, 0xff, 0xff, 0xff, 0xff, 0xff, 0xff, 0x01, 0x00, 0x00, 0x00,
  0x7c, 0x72, 0x43, 0x3d, 0x20, 0x00, 0x00, 0x00, 0x73, 0x65, 0x71, 0x75,
  0x65, 0x6e, 0x74, 0x69, 0x61, 0x6c, 0x2f, 0x71, 0x75, 0x61, 0x6e, 0x74,
  0x5f, 0x66, 0x6c, 0x61, 0x74, 0x74, 0x65, 0x6e, 0x2f, 0x52, 0x65, 0x73,
  0x68, 0x61, 0x70, 0x65, 0x00, 0x00, 0x00, 0x00, 0x02, 0x00, 0x00, 0x00,
  0x01, 0x00, 0x00, 0x00, 0x01, 0x02, 0x00, 0x00, 0x96, 0xfd, 0xff, 0xff,
  0x00, 0x00, 0x00, 0x01, 0x18, 0x00, 0x00, 0x00, 0x28, 0x00, 0x00, 0x00,
  0x48, 0x00, 0x00, 0x00, 0x08, 0x00, 0x00, 0x00, 0x00, 0x00, 0x00, 0x09,
  0x68, 0x00, 0x00, 0x00, 0x04, 0x00, 0x00, 0x00, 0xff, 0xff, 0xff, 0xff,
  0x13, 0x00, 0x00, 0x00, 0x09, 0x00, 0x00, 0x00, 0x03, 0x00, 0x00, 0x00,
  0xc4, 0xfb, 0xff, 0xff, 0x08, 0x00, 0x00, 0x00, 0x14, 0x00, 0x00, 0x00,
  0x01, 0x00, 0x00, 0x00, 0xfd, 0xff, 0xff, 0xff, 0xff, 0xff, 0xff, 0xff,
  0x00, 0x00, 0x00, 0x00, 0x01, 0x00, 0x00, 0x00, 0x7c, 0x72, 0x43, 0x3d,
  0x26, 0x00, 0x00, 0x00, 0x73, 0x65, 0x71, 0x75, 0x65, 0x6e, 0x74, 0x69,
  0x61, 0x6c, 0x2f, 0x71, 0x75, 0x61, 0x6e, 0x74, 0x5f, 0x6d, 0x61, 0x78,
  0x5f, 0x70, 0x6f, 0x6f, 0x6c, 0x69, 0x6e, 0x67, 0x32, 0x64, 0x2f, 0x4d,
  0x61, 0x78, 0x50, 0x6f, 0x6f, 0x6c, 0x00, 0x00, 0x04, 0x00, 0x00, 0x00,
  0x01, 0x00, 0x00, 0x00, 0x13, 0x00, 0x00, 0x00, 0x09, 0x00, 0x00, 0x00,
  0x03, 0x00, 0x00, 0x00, 0x2e, 0xfe, 0xff, 0xff, 0x00, 0x00, 0x00, 0x01,
  0x18, 0x00, 0x00, 0x00, 0x28, 0x00, 0x00, 0x00, 0x44, 0x00, 0x00, 0x00,
  0x07, 0x00, 0x00, 0x00, 0x00, 0x00, 0x00, 0x09, 0xc8, 0x00, 0x00, 0x00,
  0x04, 0x00, 0x00, 0x00, 0xff, 0xff, 0xff, 0xff, 0x26, 0x00, 0x00, 0x00,
  0x26, 0x00, 0x00, 0x00, 0x03, 0x00, 0x00, 0x00, 0x5c, 0xfc, 0xff, 0xff,
  0x08, 0x00, 0x00, 0x00, 0x10, 0x00, 0x00, 0x00, 0x01, 0x00, 0x00, 0x00,
  0xfd, 0xff, 0xff, 0xff, 0xff, 0xff, 0xff, 0xff, 0x01, 0x00, 0x00, 0x00,
  0x7c, 0x72, 0x43, 0x3d, 0x8a, 0x00, 0x00, 0x00, 0x73, 0x65, 0x71, 0x75,
  0x65, 0x6e, 0x74, 0x69, 0x61, 0x6c, 0x2f, 0x71, 0x75, 0x61, 0x6e, 0x74,
  0x5f, 0x63, 0x6f, 0x6e, 0x76, 0x32, 0x64, 0x2f, 0x52, 0x65, 0x6c, 0x75,
  0x3b, 0x73, 0x65, 0x71, 0x75, 0x65, 0x6e, 0x74, 0x69, 0x61, 0x6c, 0x2f,
  0x71, 0x75, 0x61, 0x6e, 0x74, 0x5f, 0x63, 0x6f, 0x6e, 0x76, 0x32, 0x64,
  0x2f, 0x42, 0x69, 0x61, 0x73, 0x41, 0x64, 0x64, 0x3b, 0x73, 0x65, 0x71,
  0x75, 0x65, 0x6e, 0x74, 0x69, 0x61, 0x6c, 0x2f, 0x71, 0x75, 0x61, 0x6e,
  0x74, 0x5f, 0x63, 0x6f, 0x6e, 0x76, 0x32, 0x64, 0x2f, 0x43, 0x6f, 0x6e,
  0x76, 0x32, 0x44, 0x3b, 0x73, 0x65, 0x71, 0x75, 0x65, 0x6e, 0x74, 0x69,
  0x61, 0x6c, 0x2f, 0x71, 0x75, 0x61, 0x6e, 0x74, 0x5f, 0x63, 0x6f, 0x6e,
  0x76, 0x32, 0x64, 0x2f, 0x42, 0x69, 0x61, 0x73, 0x41, 0x64, 0x64, 0x2f,
  0x52, 0x65, 0x61, 0x64, 0x56, 0x61, 0x72, 0x69, 0x61, 0x62, 0x6c, 0x65,
  0x4f, 0x70, 0x00, 0x00, 0x04, 0x00, 0x00, 0x00, 0x01, 0x00, 0x00, 0x00,
  0x26, 0x00, 0x00, 0x00, 0x26, 0x00, 0x00, 0x00, 0x03, 0x00, 0x00, 0x00,
  0x9e, 0xfc, 0xff, 0xff, 0x00, 0x00, 0x00, 0x01, 0x14, 0x00, 0x00, 0x00,
  0x4c, 0x00, 0x00, 0x00, 0x06, 0x00, 0x00, 0x00, 0x00, 0x00, 0x00, 0x09,
  0xac, 0x00, 0x00, 0x00, 0x3c, 0xfd, 0xff, 0xff, 0x08, 0x00, 0x00, 0x00,
  0x24, 0x00, 0x00, 0x00, 0x03, 0x00, 0x00, 0x00, 0x00, 0x00, 0x00, 0x00,
  0x00, 0x00, 0x00, 0x00, 0x00, 0x00, 0x00, 0x00, 0x00, 0x00, 0x00, 0x00,
  0x00, 0x00, 0x00, 0x00, 0x00, 0x00, 0x00, 0x00, 0x00, 0x00, 0x00, 0x00,
  0x03, 0x00, 0x00, 0x00, 0x69, 0x7f, 0xf8, 0x3a, 0x73, 0xb1, 0x2f, 0x3b,
  0xf1, 0xb7, 0x1b, 0x3b, 0x67, 0x00, 0x00, 0x00, 0x73, 0x65, 0x71, 0x75,
  0x65, 0x6e, 0x74, 0x69, 0x61, 0x6c, 0x2f, 0x71, 0x75, 0x61, 0x6e, 0x74,
  0x5f, 0x63, 0x6f, 0x6e, 0x76, 0x32, 0x64, 0x2f, 0x43, 0x6f, 0x6e, 0x76,
  0x32, 0x44, 0x3b, 0x73, 0x65, 0x71, 0x75, 0x65, 0x6e, 0x74, 0x69, 0x61,
  0x6c, 0x2f, 0x71, 0x75, 0x61, 0x6e, 0x74, 0x5f, 0x63, 0x6f, 0x6e, 0x76,
  0x32, 0x64, 0x2f, 0x4c, 0x61, 0x73, 0x74, 0x56, 0x61, 0x6c, 0x75, 0x65,
  0x51, 0x75, 0x61, 0x6e, 0x74, 0x2f, 0x46, 0x61, 0x6b, 0x65, 0x51, 0x75,
  0x61, 0x6e, 0x74, 0x57, 0x69, 0x74, 0x68, 0x4d, 0x69, 0x6e, 0x4d, 0x61,
  0x78, 0x56, 0x61, 0x72, 0x73, 0x50, 0x65, 0x72, 0x43, 0x68, 0x61, 0x6e,
  0x6e, 0x65, 0x6c, 0x00, 0x04, 0x00, 0x00, 0x00, 0x03, 0x00, 0x00, 0x00,
  0x03, 0x00, 0x00, 0x00, 0x03, 0x00, 0x00, 0x00, 0x01, 0x00, 0x00, 0x00,
  0x00, 0x00, 0x16, 0x00, 0x20, 0x00, 0x1c, 0x00, 0x1b, 0x00, 0x14, 0x00,
  0x10, 0x00, 0x0c, 0x00, 0x00, 0x00, 0x00, 0x00, 0x08, 0x00, 0x07, 0x00,
  0x16, 0x00, 0x00, 0x00, 0x00, 0x00, 0x00, 0x01, 0x18, 0x00, 0x00, 0x00,
  0x28, 0x00, 0x00, 0x00, 0x44, 0x00, 0x00, 0x00, 0x05, 0x00, 0x00, 0x00,
  0x00, 0x00, 0x00, 0x09, 0x28, 0x01, 0x00, 0x00, 0x04, 0x00, 0x00, 0x00,
  0xff, 0xff, 0xff, 0xff, 0x28, 0x00, 0x00, 0x00, 0x28, 0x00, 0x00, 0x00,
  0x01, 0x00, 0x00, 0x00, 0x44, 0xfe, 0xff, 0xff, 0x08, 0x00, 0x00, 0x00,
  0x10, 0x00, 0x00, 0x00, 0x01, 0x00, 0x00, 0x00, 0x80, 0xff, 0xff, 0xff,
  0xff, 0xff, 0xff, 0xff, 0x01, 0x00, 0x00, 0x00, 0x00, 0x00, 0x80, 0x3f,
  0xeb, 0x00, 0x00, 0x00, 0x73, 0x65, 0x71, 0x75, 0x65, 0x6e, 0x74, 0x69,
  0x61, 0x6c, 0x2f, 0x71, 0x75, 0x61, 0x6e, 0x74, 0x69, 0x7a, 0x65, 0x5f,
  0x6c, 0x61, 0x79, 0x65, 0x72, 0x2f, 0x41, 0x6c, 0x6c, 0x56, 0x61, 0x6c,
  0x75, 0x65, 0x73, 0x51, 0x75, 0x61, 0x6e, 0x74, 0x69, 0x7a, 0x65, 0x2f,
  0x46, 0x61, 0x6b, 0x65, 0x51, 0x75, 0x61, 0x6e, 0x74, 0x57, 0x69, 0x74,
  0x68, 0x4d, 0x69, 0x6e, 0x4d, 0x61, 0x78, 0x56, 0x61, 0x72, 0x73, 0x3b,
  0x73, 0x65, 0x71, 0x75, 0x65, 0x6e, 0x74, 0x69, 0x61, 0x6c, 0x2f, 0x71,
  0x75, 0x61, 0x6e, 0x74, 0x69, 0x7a, 0x65, 0x5f, 0x6c, 0x61, 0x79, 0x65,
  0x72, 0x2f, 0x41, 0x6c, 0x6c, 0x56, 0x61, 0x6c, 0x75, 0x65, 0x73, 0x51,
  0x75, 0x61, 0x6e, 0x74, 0x69, 0x7a, 0x65, 0x2f, 0x46, 0x61, 0x6b, 0x65,
  0x51, 0x75, 0x61, 0x6e, 0x74, 0x57, 0x69, 0x74, 0x68, 0x4d, 0x69, 0x6e,
  0x4d, 0x61, 0x78, 0x56, 0x61, 0x72, 0x73, 0x2f, 0x52, 0x65, 0x61, 0x64,
  0x56, 0x61, 0x72, 0x69, 0x61, 0x62, 0x6c, 0x65, 0x4f, 0x70, 0x3b, 0x73,
  0x65, 0x71, 0x75, 0x65, 0x6e, 0x74, 0x69, 0x61, 0x6c, 0x2f, 0x71, 0x75,
  0x61, 0x6e, 0x74, 0x69, 0x7a, 0x65, 0x5f, 0x6c, 0x61, 0x79, 0x65, 0x72,
  0x2f, 0x41, 0x6c, 0x6c, 0x56, 0x61, 0x6c, 0x75, 0x65, 0x73, 0x51, 0x75,
  0x61, 0x6e, 0x74, 0x69, 0x7a, 0x65, 0x2f, 0x46, 0x61, 0x6b, 0x65, 0x51,
  0x75, 0x61, 0x6e, 0x74, 0x57, 0x69, 0x74, 0x68, 0x4d, 0x69, 0x6e, 0x4d,
  0x61, 0x78, 0x56, 0x61, 0x72, 0x73, 0x2f, 0x52, 0x65, 0x61, 0x64, 0x56,
  0x61, 0x72, 0x69, 0x61, 0x62, 0x6c, 0x65, 0x4f, 0x70, 0x5f, 0x31, 0x00,
  0x04, 0x00, 0x00, 0x00, 0x01, 0x00, 0x00, 0x00, 0x28, 0x00, 0x00, 0x00,
  0x28, 0x00, 0x00, 0x00, 0x01, 0x00, 0x00, 0x00, 0xe6, 0xfe, 0xff, 0xff,
  0x00, 0x00, 0x00, 0x01, 0x14, 0x00, 0x00, 0x00, 0x34, 0x00, 0x00, 0x00,
  0x04, 0x00, 0x00, 0x00, 0x00, 0x00, 0x00, 0x02, 0x5c, 0x00, 0x00, 0x00,
  0x84, 0xff, 0xff, 0xff, 0x08, 0x00, 0x00, 0x00, 0x14, 0x00, 0x00, 0x00,
  0x01, 0x00, 0x00, 0x00, 0x00, 0x00, 0x00, 0x00, 0x00, 0x00, 0x00, 0x00,
  0x00, 0x00, 0x00, 0x00, 0x01, 0x00, 0x00, 0x00, 0xcd, 0xf3, 0xb9, 0x38,
  0x2d, 0x00, 0x00, 0x00, 0x73, 0x65, 0x71, 0x75, 0x65, 0x6e, 0x74, 0x69,
  0x61, 0x6c, 0x2f, 0x71, 0x75, 0x61, 0x6e, 0x74, 0x5f, 0x64, 0x65, 0x6e,
  0x73, 0x65, 0x2f, 0x42, 0x69, 0x61, 0x73, 0x41, 0x64, 0x64, 0x2f, 0x52,
  0x65, 0x61, 0x64, 0x56, 0x61, 0x72, 0x69, 0x61, 0x62, 0x6c, 0x65, 0x4f,
  0x70, 0x00, 0x00, 0x00, 0x01, 0x00, 0x00, 0x00, 0x03, 0x00, 0x00, 0x00,
  0x62, 0xff, 0xff, 0xff, 0x00, 0x00, 0x00, 0x01, 0x20, 0x00, 0x00, 0x00,
  0x54, 0x00, 0x00, 0x00, 0x03, 0x00, 0x00, 0x00, 0x00, 0x00, 0x00, 0x02,
  0x7c, 0x00, 0x00, 0x00, 0x0c, 0x00, 0x0c, 0x00, 0x00, 0x00, 0x00, 0x00,
  0x08, 0x00, 0x04, 0x00, 0x0c, 0x00, 0x00, 0x00, 0x08, 0x00, 0x00, 0x00,
  0x20, 0x00, 0x00, 0x00, 0x03, 0x00, 0x00, 0x00, 0x00, 0x00, 0x00, 0x00,
  0x00, 0x00, 0x00, 0x00, 0x00, 0x00, 0x00, 0x00, 0x00, 0x00, 0x00, 0x00,
  0x00, 0x00, 0x00, 0x00, 0x00, 0x00, 0x00, 0x00, 0x03, 0x00, 0x00, 0x00,
  0x69, 0x7f, 0xf8, 0x3a, 0x73, 0xb1, 0x2f, 0x3b, 0xf1, 0xb7, 0x1b, 0x3b,
  0x2e, 0x00, 0x00, 0x00, 0x73, 0x65, 0x71, 0x75, 0x65, 0x6e, 0x74, 0x69,
  0x61, 0x6c, 0x2f, 0x71, 0x75, 0x61, 0x6e, 0x74, 0x5f, 0x63, 0x6f, 0x6e,
  0x76, 0x32, 0x64, 0x2f, 0x42, 0x69, 0x61, 0x73, 0x41, 0x64, 0x64, 0x2f,
  0x52, 0x65, 0x61, 0x64, 0x56, 0x61, 0x72, 0x69, 0x61, 0x62, 0x6c, 0x65,
  0x4f, 0x70, 0x00, 0x00, 0x01, 0x00, 0x00, 0x00, 0x03, 0x00, 0x00, 0x00,
  0x00, 0x00, 0x16, 0x00, 0x1c, 0x00, 0x18, 0x00, 0x17, 0x00, 0x10, 0x00,
  0x0c, 0x00, 0x08, 0x00, 0x00, 0x00, 0x00, 0x00, 0x00, 0x00, 0x07, 0x00,
  0x16, 0x00, 0x00, 0x00, 0x00, 0x00, 0x00, 0x01, 0x14, 0x00, 0x00, 0x00,
  0x14, 0x00, 0x00, 0x00, 0x02, 0x00, 0x00, 0x00, 0x00, 0x00, 0x00, 0x02,
  0x2c, 0x00, 0x00, 0x00, 0x88, 0xff, 0xff, 0xff, 0x1e, 0x00, 0x00, 0x00,
  0x73, 0x65, 0x71, 0x75, 0x65, 0x6e, 0x74, 0x69, 0x61, 0x6c, 0x2f, 0x71,
  0x75, 0x61, 0x6e, 0x74, 0x5f, 0x66, 0x6c, 0x61, 0x74, 0x74, 0x65, 0x6e,
  0x2f, 0x43, 0x6f, 0x6e, 0x73, 0x74, 0x00, 0x00, 0x01, 0x00, 0x00, 0x00,
  0x02, 0x00, 0x00, 0x00, 0x00, 0x00, 0x16, 0x00, 0x1c, 0x00, 0x18, 0x00,
  0x00, 0x00, 0x14, 0x00, 0x10, 0x00, 0x0c, 0x00, 0x00, 0x00, 0x00, 0x00,
  0x08, 0x00, 0x07, 0x00, 0x16, 0x00, 0x00, 0x00, 0x00, 0x00, 0x00, 0x01,
  0x14, 0x00, 0x00, 0x00, 0x28, 0x00, 0x00, 0x00, 0x28, 0x00, 0x00, 0x00,
  0x01, 0x00, 0x00, 0x00, 0x44, 0x00, 0x00, 0x00, 0x04, 0x00, 0x00, 0x00,
  0xff, 0xff, 0xff, 0xff, 0x28, 0x00, 0x00, 0x00, 0x28, 0x00, 0x00, 0x00,
  0x01, 0x00, 0x00, 0x00, 0x04, 0x00, 0x04, 0x00, 0x04, 0x00, 0x00, 0x00,
  0x1e, 0x00, 0x00, 0x00, 0x73, 0x65, 0x72, 0x76, 0x69, 0x6e, 0x67, 0x5f,
  0x64, 0x65, 0x66, 0x61, 0x75, 0x6c, 0x74, 0x5f, 0x63, 0x6f, 0x6e, 0x76,
  0x32, 0x64, 0x5f, 0x69, 0x6e, 0x70, 0x75, 0x74, 0x3a, 0x30, 0x00, 0x00,
  0x04, 0x00, 0x00, 0x00, 0x01, 0x00, 0x00, 0x00, 0x28, 0x00, 0x00, 0x00,
  0x28, 0x00, 0x00, 0x00, 0x01, 0x00, 0x00, 0x00, 0x07, 0x00, 0x00, 0x00,
  0x90, 0x00, 0x00, 0x00, 0x70, 0x00, 0x00, 0x00, 0x50, 0x00, 0x00, 0x00,
  0x40, 0x00, 0x00, 0x00, 0x2c, 0x00, 0x00, 0x00, 0x18, 0x00, 0x00, 0x00,
  0x04, 0x00, 0x00, 0x00, 0xb4, 0xff, 0xff, 0xff, 0x06, 0x00, 0x00, 0x00,
  0x02, 0x00, 0x00, 0x00, 0x00, 0x00, 0x00, 0x06, 0xc4, 0xff, 0xff, 0xff,
  0x19, 0x00, 0x00, 0x00, 0x02, 0x00, 0x00, 0x00, 0x00, 0x00, 0x00, 0x19,
  0xd4, 0xff, 0xff, 0xff, 0x09, 0x00, 0x00, 0x00, 0x04, 0x00, 0x00, 0x00,
  0x00, 0x00, 0x00, 0x09, 0xc8, 0xff, 0xff, 0xff, 0x16, 0x00, 0x00, 0x00,
  0x00, 0x00, 0x00, 0x16, 0xf0, 0xff, 0xff, 0xff, 0x11, 0x00, 0x00, 0x00,
  0x02, 0x00, 0x00, 0x00, 0x00, 0x00, 0x00, 0x11, 0x0c, 0x00, 0x10, 0x00,
  0x0f, 0x00, 0x00, 0x00, 0x08, 0x00, 0x04, 0x00, 0x0c, 0x00, 0x00, 0x00,
  0x03, 0x00, 0x00, 0x00, 0x03, 0x00, 0x00, 0x00, 0x00, 0x00, 0x00, 0x03,
  0x0c, 0x00, 0x0c, 0x00, 0x0b, 0x00, 0x00, 0x00, 0x00, 0x00, 0x04, 0x00,
  0x0c, 0x00, 0x00, 0x00, 0x72, 0x00, 0x00, 0x00, 0x00, 0x00, 0x00, 0x72
 
};

#endif //MODEL.H_H